#version: 0.2 - Trained by `huggingface/tokenizers`
l e
h o
Ġ b
t s
l a
Ġ e
h a
n g
l i
Ġ ho
Ġ k
l o
n a
Ġ le
Ġb a
Ġ s
Ġ m
r e
Ġ t
Ġs e
Ġ li
Ġk a
ts e
o a
Ġb o
Ġ a
Ġm o
ts a
h e
Ġe a
n e
Ġho re
Ġ o
b a
p a
b e
Ġ M
k a
Ġ ha
ts o
Ġk e
Å ¡
Ġ tse
i le
k o
s a
Ġ re
s o
Ġm a
Ġ f
m o
m e
t ho
t a
Ġ p
h la
k e
t e
m a
Ġ oa
Ġs a
Ġ tsa
s e
h lo
Ġ na
Ġ L
Ġ la
ĠM o
ts i
t la
Ġ n
r a
t o
t Å¡
Ġ i
Ġt la
b o
h u
c ha
s i
Ġm e
Ġbo na
n y
Ġ '
e le
r o
k ho
Ġ hla
Ġt Å¡
n o
ĠL e
t lo
p o
ĠM a
tso e
ha li
Ġ ne
Ġ ile
h i
j oa
ho lo
Ġe o
Ġ B
â Ģ
so tho
âĢ ĺ
Ġ joa
Ġf e
p ha
t le
Ġ âĢĺ
p e
f a
h le
o e
u ma
cha ba
S e
r i
Ġ T
lo a
Ġka ha
M o
ng hali
Ġ q
t i
Ġb e
tse ng
Ġe na
t ha
Ġ hlo
le mo
k i
k ha
l la
Ġse be
se be
Ġp he
ts oa
Ġ lo
Ġmo o
Ġse chaba
n tÅ¡
Ġt e
Ġjoa lo
ĠtÅ¡ e
ny a
p he
t he
Ġk o
Ġhla lo
l le
Ġbo e
pa li
Ġna ha
ko lo
Ġt hu
Ġe tsa
sebe tsi
ĠB a
Ġp ele
" ,
H o
Ġk ho
u so
li sa
Ġf uma
l u
hlo pha
l lo
tÅ¡ e
r u
ny e
Ġ P
ile ng
Ġt l
Ġf a
f e
Ġ 2
Ġha e
c he
la ng
Ġna ko
s oa
ĠL i
ĠLe sotho
Ġba na
H a
Ġbo ntÅ¡
la o
Ġ Se
ke ng
Ġk ha
Ġse na
L e
Ġ A
i sa
k oa
ĠBa sotho
t hu
o na
Ġn tse
Ġ tso
ĠMo nghali
pa pali
Ġbo i
Ġ K
k he
Ġt ha
Ġ N
a ta
Ġlo ke
Ġha holo
Ġli ta
oa na
Ġs u
t l
f u
a lo
o lo
b i
Ġba tho
Ġ ng
Ġf i
m pa
kho tla
be li
Ġt he
Ġt lo
Ġt a
ba ka
Ġse hlopha
ba ne
po le
si tse
f uma
m uso
j a
e a
Ġ R
le te
Ġte ng
ha la
le ng
Ġe mpa
0 0
che lete
e la
M a
Ġt o
Ġse o
Ġtse na
p i
Ġli lemo
Ġle ng
no ng
Ġ tsoe
s ho
Ġsebe tsa
Ġmo ng
K a
Ġb u
Ġmo na
p ile
Ġtse o
Ġloke la
fuma hali
Ġn y
K e
ne ng
Ġ 1
Ġ ri
h ile
Ġ2 0
Ġri alo
Ġne ng
ĠB o
Ġmo lao
lo e
k u
Ġmo sebetsi
Ġhlalo sa
pole sa
ka la
B a
t li
Ġp ha
Ġthu sa
p ele
m i
Ġko pa
Ġeo na
Ġs i
Ġfe ta
Ġho na
Ġile ng
phe lo
Ġt li
Ġlita ba
Ġba cha
l loa
Ġtl ho
me la
e na
Ġtsoe la
Ġ S
Ġfuma na
Ġba ng
tl ha
Ġo na
Mo nghali
Ġ ro
tsa tsi
kha tlo
tla fa
Ġq o
Ġ lu
be ng
e bo
Ġle na
Ġli ng
Ġsu pa
Ġka mo
i tse
Ġt i
lo ng
li tse
Ġbo hlo
Ġ u
Ġhlalo sitse
n na
Ġ chelete
ĠtÅ¡ oa
Ġi tse
Ġb ile
Ġbo phelo
Ġle khotla
L i
le tsa
Ġse lemo
Ġbo le
ĠR a
Ġboe tse
le tso
ĠbontÅ¡ itse
e li
me li
Ġ pa
Ġta ba
f o
mo ng
r oa
p ho
Ġtso na
ng oe
R e
Ġ Ha
ho a
Ġli n
ka ha
ĠbontÅ¡ a
Ġphe the
ĠtÅ¡e be
Ġ papali
Ġmo tho
nya ne
khe tho
Ġp o
Ġho bane
Ġq e
sa li
ra ng
Ġtli l
Ġ C
Ġ tsoa
re na
Ġfi hle
Ġme sebetsi
li mo
s u
Ġse polesa
f i
Ġli kho
n te
b ile
to na
Ġ (
Ġk he
Ġfe ela
n i
Ġle fa
Ġse kolo
Ġli papali
se tsa
ri ka
n tle
t u
Ġma tla
re ro
Ġq a
Ġli na
ha ng
Ġna ng
Ġka pa
Ġle tsatsi
Ġ20 2
o li
lle tsa
Ġ ra
mo ho
a bo
Ġli ba
p u
Ġhlo ka
ĠA f
te la
Ġle baka
ko e
Ġtsa ma
tso ng
Ġse ng
Ġk holo
Ġbohlo koa
Ġli kolo
ro lo
Ġro na
Ġnako ng
ĠMa se
Ġkamo r
tsoe ng
Ġbo lo
Ġke na
Ġma ng
Ġn ka
Ġe n
ĠAf rika
tlo a
Ġtse la
Ġjoa na
Ġphethe la
Ġfuma ne
j o
tsi ng
t hi
Ġmo lemo
Ġi pile
he la
Ġba tla
Ġmo ra
ĠMase ru
Ġfa na
Ġk hu
Se na
e oe
Ġtse ba
ĠtÅ¡e he
Ġe ena
Ġli pa
be la
ĠMo fumahali
Ġboe la
tso ho
tÅ¡ oa
Ġme tsi
Ġs ona
o ko
ĠT Å¡
me ng
Ġba pa
Ġhlo ko
Ġs he
kho a
tla la
Ġ H
te re
tha ta
ka ne
l li
tli si
tle ng
Ġmo rero
Ġbo hle
Ġn tlafa
Ġle ba
ma ne
nye tla
le ho
Ġt le
ke tsa
n ka
re ng
Ġli tÅ¡e
b u
ĠL abo
Ġi ke
Ġ I
ĠT ha
Ġkaha r
ka meli
Ġt ho
n ta
ke lo
sho e
Ġtlo ha
Ġka rolo
Ġle bo
Ġha ntle
Ġng ata
Ġthu to
Ġsebe lisa
Ġbona hala
Ġf u
he tseng
Ġha bo
Ġbe ha
Ġle kala
Ġtse be
Ġipile tsa
Ġli tse
Ġqo soa
hoa i
he ng
kho lo
Ġp uso
ng ata
Ġny eoe
c a
Ġba sali
holo tso
Ġtl ha
Ġp u
ru o
Ġtla ng
Ġha r
Ġba o
Ġlina ha
ki sa
Ġli to
be lo
ĠlitÅ¡e be
Ġ D
t oa
Ġli po
be llo
Ġle kho
Ġliba pali
Ġ 3
Ġmo fu
Ġ ru
lle tse
Ġtha ta
n tsoe
i si
te ng
li le
Ġkho tso
Ġfi hla
Ġle ha
Ġthe pa
c ho
si ta
Ġhla ha
ka ra
Ġfa pa
tl ho
Ġli ko
Ġfihle la
Ġa tle
Ġhla hi
Ġkha hla
tsa ng
Ġpha ha
Ġle hla
00 0
ĠtÅ¡ebe tso
kolo ho
t ileng
B o
ĠlitÅ¡ebe letso
q o
Ġbu a
ĠBo roa
h ileng
Ġfe to
Ġlo na
Ġlikho ebo
ke fe
li soa
Ġ h
Ġe bile
Ġmo nyetla
n t
Ġng oana
Ġho a
Ġli thu
Ġmo tla
lisa no
Ġtso hle
Ġba i
Ġte mo
pha tlala
Ġmo ruo
Ġke nye
Ġli khetho
e lloa
Mo fumahali
j e
Ġ J
koe tlisi
Ġmora o
Ġli hoai
c e
Ġli tlo
ĠM e
la ne
Ġle o
Ġmo khatlo
Ġo o
loe ng
Ġse ba
Ġli tho
Ġi sa
n d
o kameli
Ġe be
Ġe ka
Ġlita beng
Ġkho tha
Ġne pa
Le ha
v o
ĠtÅ¡ oana
Ġbo beli
Ġha pe
ha le
Ġke nya
Ġkho ebo
Ġma rang
ĠK a
Ġli jo
he tse
Ġboe mo
Ġli q
Ġmo nghali
Ġke te
so ng
la pa
Ġqe te
Ġboe mong
ĠtÅ¡ oe
Ġma ba
Ġti koloho
Ġlin tlha
be le
ka se
o la
me lla
ke la
Ġli hlopha
Ġke ne
Ġse phe
Ġe sita
c hi
Ġmo nna
Ġto bo
Ġmotla kase
Ġe tse
f olo
Ġ Q
so le
ny o
ra me
isa nong
kaha lo
Ġf oko
Ġa na
Ġba e
Ġn tseng
Ġfe tileng
Ġse tsi
hla no
Ġi thu
Ġ F
ra ro
Ġjoa le
n s
Ġp eli
Ġn tle
tle hi
Ġe tsoa
na ng
Ġjoa ng
ca te
d vo
Ġho limo
Ġk oe
dvo cate
e to
ĠP ha
thu ti
Ġbapa la
ta pele
beli so
to ho
Ġ loa
Ġb ileng
Ġli chelete
me tse
tla ma
Ġlekho tleng
k ile
su oa
Ġle ka
e ng
Ġtlho kahalo
Ġmolemo ng
Ġle tsoho
Ġli pe
Ġnepa hetseng
Ġt hi
se ng
ĠtÅ¡ i
ĠLe kala
tsoa li
Ġi pa
ĠMa te
e mo
Ġe le
tlo tlehi
Ġa ma
Ġjoalo ka
Ġqa la
Ġli pho
ntÅ¡ o
o to
s ha
phe ng
tsa na
Ġbo thata
Ġa mo
rame nte
Ġbo holo
lla ng
Ġsi re
Ġlu la
qo suoa
Ġli ki
Ġmo la
Ġmo khoa
hla le
Ġ G
Ġli kha
Ġtsama ea
tere ke
Ġkenye lletsa
ĠtÅ¡oana ng
nta ha
n oa
Ġla tela
Ġhlahi sa
Ġsu pile
ĠLe tona
q a
ĠMo rena
pe lo
le ha
Ġli hla
ra ka
ĠT ona
cha beng
ele le
Ġkhahla nong
Ġbai thuti
Ġ20 1
a ba
Ġli tsi
me ha
Ġetsa ng
e lo
pe ng
Ġphe lang
ĠK o
me lo
b isa
fi si
Ġle be
Ġma fu
Ġt elele
Ġphe la
Ġlehla ko
ka re
w a
Ġphe tha
hla nka
fa pha
mi se
Ġma i
Ġko lo
Ġu tloa
Ġlitlo lo
Ġlo ko
Ġbole tse
o folo
Ġseba keng
u e
hi so
Ġba nna
Ġt u
Ġsephe o
Ġtha ro
q e
Ġa o
hlo li
a ne
Ġma tsoho
nya na
koa ne
Ġlefa tÅ¡e
a no
Ġbo la
Ġ 4
ra ta
ĠLi oli
Ġli ka
Ġbo ne
ho e
Ġli tla
Ġbe ile
i so
Ġla hle
e o
Ġle fu
kha hle
Ġlebo ha
Ġse hlo
lo ti
Ġphaha meng
Ġho o
Ġp hu
fa tsa
ku tlo
ha lang
o ho
ĠMate kane
ne te
Ġk oa
ntÅ¡ a
ĠA dvocate
m po
o r
Ġloke lang
ho limo
to r
Ġtobo ketsa
ĠtÅ¡e beliso
Ġboi kara
Ġlehlako reng
Ġba sebetsi
Ġmo holo
Ġlin tho
tlo tlo
Ġo ona
Ġha m
sho lu
Ġlipho ofolo
Ġba tsoali
Ġmo sali
c tor
ĠLe ntsoe
ĠTha ba
Ġ E
ny ele
Ġfu oa
Ġu tlo
p hu
ĠtÅ¡e po
k hu
tsi e
Ġkho eli
Ġbole la
ĠMa tlama
khetho a
Ġba a
Ġboikara bello
Ġlikolo ng
Ġn tlo
ne la
ko la
Ġntlafa tsa
Ġse sole
Ġbo ko
Ġliq holotso
Ġma chaba
pe la
pe ctor
Ġen tse
tere keng
M e
kolo i
Ġli the
he kefe
ĠtÅ¡oa ra
Ġshe ba
ns pector
Ġmai kutlo
te rata
Ġkolo i
ko mane
shoe shoe
si tsoe
Ġli baka
mi ti
Ġphe toho
Ġme khatlo
ĠMo fo
tli so
Ġp ho
Ġkhu tle
o n
Ġbo pa
tsa ma
mela elloa
Ġma tlafa
Ġpapali ng
Ġli ke
Ġmo tlotlo
ĠtÅ¡ehe tso
Ġ 000
ra l
hekefe tso
Ġkaha re
Le khotla
' s
se terata
Ġny a
ĠtÅ¡ebe tsong
oa ha
ĠMo khatlo
Ġ che
Ġlipapali ng
Ġtlo ko
he loa
Ġboko oa
le tse
Ġha pa
Ġhlo e
Ġse baka
Ġtla meha
be be
n tu
Ġre ng
Ġtlha hiso
o ne
Ġlitse la
Ġmo e
ĠtÅ¡ehe tsa
T se
p hi
ro po
k ileng
Ġho ba
Ġka pele
he lo
ĠMo shoeshoe
Ġq holotso
bi tsong
t ile
si u
Ġmo ho
Ġne te
Ġselemo ng
ha to
ĠMo okameli
tÅ¡ i
Ġme tseng
Ġhla hile
thu nya
o hle
me tseng
Ġtl hekefetso
Ġ 5
Ġsekolo ng
cho chi
Ġhla he
Ġkhe tha
Ġbo o
ĠtÅ¡i re
Ġma tsatsi
Ġli tlho
to oa
e r
sho me
Ġsi toa
ĠTÅ¡ e
Ġna heng
nong oaha
t ja
oe ng
ĠP a
Ġma koloi
Se hlopha
Ġtlho lisano
Ġti isa
Ġmo hla
no lo
Le tona
chochi si
phatlala tsi
kare tso
Ġbo leng
Ġbo sholu
tÅ¡ olo
tloa na
m isa
Ġsebe lisoa
ĠP he
ĠLabo hlano
Ġthu so
Ġboi ma
Ġli te
Ġqa lile
Ġlipa keng
hoe bi
Ġe te
khe tlo
Ġea ba
Ġma thata
Ġn tÅ¡e
Ġm pe
Ġa ra
Ġp e
ki so
loti ki
Ġkhe tho
l ha
hi soa
m pha
Ġbo ngata
Ġma la
Ġbe ke
lle tsoe
P u
me le
ts u
Ġtla s
Ġbang ata
pu tso
Ġlito kelo
Ġbaa hi
Ġho po
ĠBa ntu
li so
Ġfapa neng
ng oa
ĠMo e
ĠB e
Ġse chabeng
ra to
no e
a se
Ġ U
Ġmo qosuoa
ĠT a
phatlala tso
D F
kha hla
Ġlitse bo
Ġ cha
Ġa hlo
Ġma fapha
Ġke nyele
Ġme tse
Ġmola to
Ġe ketsa
Ġha u
Ġhla ba
Ġ "
ĠP hu
Ġsire letsa
Ġle holimo
Ġma oto
Ġn o
Ġliba keng
m pho
p ileng
u s
ue lli
Ġbo bebe
Ġhlo la
T la
Ġb i
ĠtÅ¡oa re
Ġka karetso
Ġ hle
ĠS o
Ġtloko tsing
M uso
Ġba hlanka
Ġpo lao
tla tsi
Ġike mise
Ġatle ha
ĠMo tlotlehi
Ġtla ase
ho ng
sa le
Ġhloka ng
Ġle eto
ra o
the fa
Ġ202 3
Ġ V
Ġtla leho
Ġfe ti
Ġlithu to
Ġlihla hisoa
Ġse khahla
Ġma khotla
Ġeo hle
ĠRa ma
Ġre kisa
Ġhlo a
che re
Ġtha kho
tle le
Ġlilemo ng
Ġhla hlo
fe la
ĠK ho
Tla leho
Ġre ka
Ġetsa hala
Ġ1 9
Ġbopa ki
Ġfe la
P a
le tsi
Ġ ja
Ġmo ko
ĠMo kho
Ġha ngata
Ġn cha
Ġi l
ĠT e
ĠH la
ĠLabo beli
ko ng
Ġma lapa
Ġi ko
ĠSe chaba
d e
Ġi phe
tu lo
K holo
Ġli sebe
Ġka ng
Ġmatlafa tsa
q ho
ha hla
Ġli pu
Ġma emo
Ġlu mella
Ġithu ta
e ne
Ġn tho
Ġpu o
Ġka ntle
tÅ¡ a
ĠP u
Ġny o
Ġle lapa
Ġba hoebi
Ġse thunya
tsi pa
Ġpa ramente
Ġlithe thefa
Ġma le
me llo
ĠL DF
tle ho
ku li
qa pi
c o
re a
ĠM pha
p isa
le la
tÅ¡ oana
Ġto bane
Ġloa ntÅ¡a
Pu isanong
Ġmo fumahali
se li
bo ng
âĢ ĵ
Ġpha tlala
b ileng
Ġa me
Ġlisebe lisoa
a pa
le kane
Ġse tereke
mo keng
ro e
Ġikemise litse
T aba
tsa ne
Ġme lao
Ġme khoa
ĠTÅ¡ i
Ġbae ti
j ena
Ġo fisi
ĠB u
koa na
Ġipa bo
Ġ202 2
) ,
n tlha
Ġa ha
Ġn ke
Ġkha le
a n
Ġba ba
Ġt jena
ke te
ĠMo hale
Ġamo hela
Ġt lisa
hle ng
E C
Ġn tlha
tsoa ng
ĠD r
Ġko po
Ġbolo ka
mpo li
ma ng
pi so
Ġtlho ko
tlafa tso
Ġqe ta
Ġlithethefa tsi
Ġle rato
Ġse hla
F A
Ġ W
Ġle tho
Ġse nye
Ġmo nongoaha
Ġsebe tse
the o
je no
Ġhau fi
le le
Ġthe o
Ġti i
N a
Ġsebetsa ng
Ġka ho
Ġlefa pha
s he
Ġa ta
Ġphe po
Ġhlalo setsa
Ġtlo lo
ĠR e
Ġmang olo
ĠtÅ¡ire letso
Ġhle kefe
Ġha re
ng oana
ĠMo ha
o fela
ĠSe polesa
Ġen oa
Ġho lisa
Ġko miti
Ġkete ka
Ġbo tle
Ma ntaha
Ġhloko mela
Ġham moho
d i
hlo lo
sebe letsi
ti chere
Ġka ofela
te lo
ĠT lha
ki setsa
ĠG ene
Ġnete fatsa
Ġtla la
Ġme ra
Ġsebe li
Ġqo ba
j oe
Ġmaba pi
Ġme ng
tha ti
Ġkhe the
Ġfapa na
q he
u li
ĠMo limo
thu to
ĠtÅ¡oa roa
ĠGene ral
to e
ĠMa ja
Ġru ta
) .
Ġli no
Ġma rena
Ġi te
Ġsebe letsa
Ġkopa na
Ġsi ti
Ġ 0
Ġho li
Ġmo koetlisi
Ġp ela
Ġtla le
Ġbona halang
Mo nna
lisa nong
Ġtsoela pele
Ġqete lla
t lisa
Ġk u
Ġli e
ma ha
Ġmosebetsi ng
Ġlina heng
Ġ O
Ġn tloana
Ġjoalo kaha
ĠN e
Ġbo n
Ġbohlo ko
Ġfoko tsa
Ġutlo isi
Ġla ka
ĠMa hlale
Ġm oa
ĠN a
Ġ 6
Ġe ba
Ġse bo
Ġha ng
Ġkopa ne
Ġre re
Ġlena ne
Ġ 7
Ġba koa
Ġli fe
Ġma si
Ġi tlho
Ġle hlo
ĠMa fe
Ġe metse
Ġle tÅ¡olo
Ġma li
Ġtsama isa
T ona
Ġe leng
us ti
si tseng
Ġme tso
Ġma baka
Ġme nyetla
Ġboi ke
khahle lo
e u
ĠMo sotho
Ġfuma noa
Ġlito komane
Ġlipo lotiki
m uelli
mo li
ĠLe tsie
usti ce
na ne
Ġme hleng
Ġto kelo
Ġqe to
Ġpu isanong
Ġbo ro
Ġmo rena
Ġte bello
Ġfa tÅ¡e
Ġng o
Ġlikolo i
Ġbola ea
Ġe sale
Ġt ata
Ġi tlha
ĠLi na
Ġ1 0
ba la
ĠtÅ¡ ele
Ġka jeno
Ġmo bu
Ġma kala
hu to
tlo ng
Ġlo kisa
d a
Ġ âĢĵ
he le
lle tseng
Ġkhutle la
tsama isi
le llo
Ġle fe
Ġba ka
Ġse pe
Ġma ntlha
ri ti
ku bele
Ġpo tla
ha lo
oa ng
nte raka
Ġntlafa tso
" .
Ġma ha
tlisi so
Ġfeto la
Ġbo ka
Ġbe keng
Ġ1 5
Ġkamo o
Ġen tseng
2 0
Ġ hi
Ġra ta
Ġipile litse
Ġlitlho ko
ho nolo
Ġe ke
Ġbu ile
Ġle ano
Ġli tlha
se la
ĠLe khotla
Ġba pe
mo rao
Ġtla tse
mo ka
ta ba
ĠMa ha
oe tse
ti se
Ġlu mela
ĠtÅ¡ebe lisano
hahla uli
Ġle ma
Ġbo mpoli
tso koane
Ġma hlo
ĠL oetse
Ġme la
ki se
ĠTlha kubele
ho la
Ġba phatlalatsi
Ġt loa
Ġli tsing
Ġn ta
ĠC o
ĠI I
Ġfa ne
Ġbana na
kara be
Ġkenyelletsa ng
ĠMafe teng
, "
a ka
Ġny olo
Ġ202 5
Ġtho ko
Ġfu oe
o sa
ĠMo tlatsi
hi loe
ĠN tsokoane
Ġlipa lo
ĠI nspector
e llo
Ġhla no
Ġsu pileng
Ġlitla leho
N y
li phatlalatso
Ġho le
e tsa
Ġlahle heloa
a m
Ġk hi
Ġi karabe
Ġne hela
Ġe me
pa pa
ĠL a
Ġnyeoe ng
Ġkoe tliso
Ġba beli
te li
Ġi po
tsoa lle
ĠS u
K o
Ġle shome
Ġbo pha
Ġbo raro
pe li
s so
Ġba kuli
Ġmo tse
ĠLi kho
Ġkha ho
Le kala
Ġbolo ke
mella no
ng oli
Ġke n
Se chaba
Ġtha tise
Ġthe ha
Ġsi eo
Ġa ro
ma no
Ka mo
Ġ1 8
Ġtho ho
Ġse terekeng
Ġi tÅ¡e
ĠLe fa
wa na
Ġma tho
me tsa
an ce
Ġsepe tlele
Ġho ja
Ġa be
Ġma ka
Ġma hla
loa na
Ġlipa tlisiso
ha tsa
bo cha
Ġtlho lisanong
Ġthi bela
ĠMpha lane
Ny eoe
e nt
ĠBo phelo
Ġtsoa ng
ĠMofo ka
Ġi tseng
bo lu
bi tso
Ġny e
Ġlekho long
Ġmala peng
Ġho hle
Ġmo ta
tso pele
ro fe
Mo okameli
Ġpuso ng
Ġmofu ta
ĠtÅ¡ele tseng
t je
lu la
ĠLabo ne
h lile
tse be
Ġbo ke
ĠT emo
Ġkhu tli
I D
e tso
le litse
Ġma tichere
Ġhlahlo ba
Ġho la
lo ko
Ġn tÅ¡a
Ġbona hetse
oe k
loa ng
Ġlin tlafatso
Ġmota bo
D C
Ġse to
Ġli tereke
Ġmo cha
Ġke tsa
Ġi ka
Ġmoo kameli
ĠK ha
Ġmang ata
ĠH oek
khahle long
Ġ 9
Ġt ona
Ġike metseng
sso r
Ġli terekeng
sa ng
Ġma beli
ma seterata
isa no
rofe ssor
i n
sa na
ri be
Ġbe ng
Ġthu pelo
ĠP o
kaha nyo
ĠBe rea
Ġbo qapi
ĠtÅ¡e pisa
llo e
Ġ2 5
Ġhae ba
ĠJ ustice
Kamo r
ma raka
tÅ¡ o
Ġhlo kaha
la la
Ġle bitsong
ba na
Ġla te
Ġta beng
Ġtli le
Ġhloko me
ĠSo ntaha
Ġ 8
Ġte ke
ĠTha bo
Ġloko lloa
Ġhlahe lletse
Ġma kha
mi si
Ġfeto ha
sha nyana
apa ro
Ġbopha ra
I nspector
ha meng
li tsoe
Ġle f
Ġka e
Mo rena
Ġkhu tla
tÅ¡oa ru
re kho
ka e
hlo a
Ġko tsi
Ġtsoe tse
Ġ3 0
ĠtÅ¡oe re
ĠMoha pi
Ġe e
Ġe ma
Ġle tona
bo llo
tlo le
ĠT huto
tÅ¡e a
thi ng
bela elloa
lli one
Ġlikha u
tÅ¡oaru oa
Ġp olo
ma na
Ġhla hla
hi setsa
Ġphe lisa
Ġhopo la
Le sotho
Ġthusa ng
Ġkopa no
Ġkhotso fa
Ġsehlo pheng
y a
Ġbo nyane
ĠLe ribe
ts wana
Ġle khetlo
Ġbo bolu
Ġf ele
to oeng
Ġme kha
Ġfuma neng
Ġbatla ng
ĠQ a
ĠPha hameng
Ġmo ja
ĠN tÅ¡e
ni or
Ġtseba ng
Ġleba tooa
ĠHla kola
Ġmatho mo
e mong
Ġ he
Ġ202 4
Ġleba leng
Ġseba pali
mpha ni
Ġba keng
ĠK e
sho a
m me
ta belo
ĠC O
tÅ¡oa ntÅ¡o
Ġe tsoe
Ġli bu
Ġmo fe
Ġma emong
ke le
Ġfuma ntÅ¡
Le bitsong
Ġfumana ng
Ġlikho eli
Ġbae tapele
Ġma tona
Ġ2 00
pile tso
ĠRa papa
Ġpa lo
ĠPha to
qho bi
maha ne
ĠMaha o
S A
t joa
hlo ko
ĠtÅ¡ o
ĠLi eu
Ġng oli
tja ne
he tsi
Ġhlalo soa
ku ena
Ġlipo lao
Ġtobo ke
Pa pali
e e
Ġse abo
Ġse tsing
Ġmo ea
Ġma hlale
nye tsi
Ġng oa
Ġmafu ra
qe belo
ĠLe bo
ĠT o
Ġtso ele
ĠBo tswana
Ġkhotha letsa
Ġtse bo
ĠMo qebelo
Ġn kile
joa le
Ġham pe
Ġba ru
ĠMo lao
Ġlithu nya
Ġlipe helo
Ġikarabe llang
i tseng
u thing
lo so
mo so
te bo
ma loa
tla mo
Ġko tlo
Ġqo so
Ġ lla
Ġse su
Ġbole tsoe
ĠPhu p
Ġsesu po
c k
oa ntÅ¡o
Ġbo fuma
ki soa
lu ngoana
nye nyane
ĠLina re
ĠPhup tjane
li tseng
Ġtlho pho
Ġtikoloho ng
Ġma ano
Ġma qhe
ĠMo la
Ġi phu
tÅ¡e hetsi
Ġto komane
Ġkhotha lletsa
Ġlika mano
Ġpho mo
rekho ng
Ġse tho
si de
lu oa
Ġboi thuto
khe the
pole seng
Ġama ng
Ġlike tso
Ġame hang
Ġ Z
re ke
Ġmo tha
ta la
Ġna lane
Tse ka
ĠPu lungoana
co m
Ġfe ng
fe tse
khe thi
bi a
Ġtsama iso
Ġlikhetho ng
ĠPhe rekhong
Ġka alo
be tse
fa ne
Ġhlalo se
Ġfuma noe
Ġthe ko
Ġtlo tla
Ġsehlo oho
Ġse lekane
ka neng
Ġke lello
ĠMo o
ti so
ĠQ uthing
cha ne
Ġto ka
Ġmera lo
1 9
C O
e ki
Ġe mela
Ġle qe
re side
Ġli hlo
Ġli pha
Ġboe a
nd ent
phi hle
Ġtoboke litse
L a
a na
w e
Ġ hu
Ġbo siu
be tsa
Ġi kha
pe ri
tsoa na
ĠS A
Ġutloisi sa
Ġlibu ka
Ġs ha
Ġma fe
ĠL C
kho tleng
tle la
Mo khatlo
Ha r
Ġbu isa
Ġketsa halo
Ġm i
ba tho
ka ng
khe tha
Ġro beli
Ġshe bane
Ġana nela
Ġlife me
2 5
l ho
Ġle khetho
mo ro
me hla
te na
ĠMa le
kha ng
phe toho
Ġboi phihle
ĠN o
Ma seterata
Ġhloka hala
Ġqosoa ng
m u
Ġli fa
Ġke ke
Ġhla hang
Ġlu le
Ġsebelisa ng
tsu oa
Ġboka moso
ĠQa cha
Ġboiphihle lo
F P
T Å¡
Ġ j
Ġmo ke
Ġmo tle
Ġi to
ĠMa kha
ĠT i
ĠT he
Ġmotha mahane
Ġba la
Ġka tleho
Ġmo i
tho li
Ġtla leha
Ġboi telo
Ġmoho pe
Ġkenyele tsang
t oana
Ġli phu
ĠMo na
ĠtÅ¡e pa
pi sitse
Ġetsoa ng
m pi
ha tsana
Ġbo ele
Ġbe he
fuma hatsana
Ġtu mellano
tena nt
M oe
r s
u ng
Ġs oko
Ġbo tsi
Ġte mong
Ġtha bile
ĠR o
Ġ1 2
Ġeka ba
Ġite fe
Ġtsamaisa ng
ĠMo koetlisi
ĠP i
ĠK he
Ġfeta ng
Ġlu lang
nte ndent
Ġliko po
Ġlehla tsipa
peri ntendent
Ġmo hato
Ġtse leng
ĠD C
Ġhlahla mang
o da
ha mphani
Ġse poleseng
Ġka mehla
to lo
si tsoeng
Ġbohlo eki
na te
ĠLi ja
Ġ1 3
Ġlu me
Ġpa ki
Ġkhoebo ng
Ġara bela
ĠLikho kahanyo
oda com
Ġba bu
Ġs ohle
Ġt oantÅ¡o
ĠTÅ¡i toe
l l
Ġ Ho
tha la
Ġte ropo
Ġkho e
Ġboi tlamo
Ġta olo
ĠRa ba
Ġtlha bollo
Ġliko tsi
Ġliq eto
Ġnyo lla
Ġbotsi tso
A dvocate
Ġe ng
Ġle mo
Ġse ke
Ġme putso
Ġq ho
Ġte ka
Ha pe
ĠRa mo
ĠC a
Ġfihle lla
ĠntÅ¡e tsa
Ġiphe lisa
Ġbaba lla
Ġmo khahlelong
Ġf o
ro long
Ġhlo loa
ĠLi kuena
ĠK i
Ġfi hlile
Ġsebetsa na
Ba sotho
Ġele lloa
ĠMofo si
M P
Ġle tlole
Ġba tÅ¡oaruoa
Ġbo ha
Ġha ka
Ġma pa
kho tha
Mo tlotlehi
Ġkha kha
Ġbophelo ng
letso ng
Ġlitho loana
Ġeka sita
ĠPa ramente
le lo
ĠMo ko
ĠbontÅ¡ itseng
bi so
Ġmale bela
Ġmasi mo
E mpa
m phe
Ġka hlolo
Ġma oa
ĠMa tla
hi na
hi sa
Ġ1 6
Ġpha no
Ġboro kho
li ng
Ġba belaelloa
re ki
Ġli tha
Ġo tla
ĠMo holo
Ġme ngata
Se polesa
Ġboi piletso
Ġpu la
Ġithu tile
Ġthi pa
Ġhlekefe tsa
ĠMaja ra
Ġmofe tÅ¡e
tse tsa
Ġma ho
Ġma shome
Ġsa la
ĠMo te
Ġtla se
Ġme ko
Ġthu se
fe tseng
Ġ1 7
Ġsi ea
nd a
Ġthatise lletsa
Ġngoa hola
Ġe seng
Ma se
Ġhloko metse
reside nte
Ġe misa
Ġma tÅ¡oa
Mo koetlisi
Ġsebe litse
the ng
ku lo
Ġliki ng
ĠV odacom
tÅ¡ea nong
Ġmo rolo
Ġma khetlo
ĠMo tÅ¡eanong
ĠSe sotho
Ġba fu
Ġbu la
Ġmora lo
Ġholi m
Ġbakoa ng
Ġlitlha re
Ġt ja
Ġa ne
Ġke tso
Ġma tlo
te llo
ro si
nya ng
ĠP uso
Ba cha
Ġkamo so
ĠRa liphatlalatso
Ġlebo hile
Ġngoana na
Ġkenyele tsa
Ġata mela
ĠSu perintendent
» ¿
ï »¿
li se
ĠP rofessor
Ġkha o
Ġsu su
Li taba
Ġra ro
tÅ¡oa ro
lli ance
Ġphetha hatsa
Ġtii sitse
Ġitefe lla
Ġba hla
Ġse llo
Ġbo su
Ġmo theo
se tulo
Ġla peng
Ġme rero
ĠLe ha
Ġetsa hetse
ĠSe e
oko li
Ġhloe kileng
Ġmohla la
Ġmoja o
E a
Ġle seli
Ġse holo
ko tsebe
ĠtÅ¡e nyo
Ġleba la
Ġatle hile
ĠU N
Ġofisi ng
Ġrere tsoe
Ġbo hla
Ġbo cha
ele lla
hi loeng
ĠPhu pu
ĠMokho tlong
g a
Ġle bele
Ġmo ha
ka nyo
si sa
kho no
Ġnaha na
soa ng
fu ta
Ġ1 1
Ġqe tela
Ġkena ng
Ġpela elo
ĠLieu tenant
le tsuoa
Ġba holo
Ġli bo
ĠMo le
Ġn toa
ki tla
kha chane
ĠA lliance
Ġboi tÅ¡oaro
Ġtu melo
ĠNe k
Ġbon ngoe
Ġnta te
ĠMoo rosi
MP S
n ne
ha se
Ġba koetlisi
tse ha
Ġbo sebeletsi
Ġma fa
Ġma ntsoe
tho ko
ke long
Ġtlo he
Ġleba tooeng
Ġtharo llo
Ġbahlanka na
n oana
Ġ tsi
Ġli a
Ġhlo le
lang oang
ĠC ha
Ġshe be
ĠtÅ¡oe nye
Ġlebe lletse
ĠTÅ¡e beliso
Ġahlo tsoe
Ġlaka tsa
ĠRaba sotho
m ba
la ea
Ġba tÅ¡ehetsi
Ġea ng
ĠM oa
tÅ¡ okoli
hi ri
loa ne
Ġshe bile
Ġkaho o
V ID
Ġe la
Ġse riti
Ġli tje
tse teli
Ġbo tho
pa no
Ġla o
Ġhla sela
Ġfe tela
Ġtl holo
Ġmolao ng
roa ne
ĠII I
Ġnyolo ha
Ġnye nyane
I V
Ġho ra
Ġla ela
Ġfe nya
Mo rero
ĠSe nior
ĠA me
ja ne
Ġfana ng
Ġbapa lang
Ġmaba la
Ġthoho letsa
Ġliphu putso
v a
le nta
Ġba khethoa
so e
ĠMa bo
ĠT la
Ġ2 6
Ġ1 4
tÅ¡oa ne
ĠH lo
isi on
nt ja
Ġkoe tli
Ġtobane ng
Ġhlokaha lang
ĠCO VID
Ġbaru toana
D r
Ġba qosuoa
Ġli nye
Ġli mpho
Ġn olo
Ġme hla
Ġme futa
ele he
Ġj ele
ĠLija batho
f isa
r ile
u oa
Ġli o
Ġa ko
Ġha pile
ke tsi
ĠL MPS
Ġme khahlelo
ĠK oe
Ġleng olo
ĠH IV
Ġatle he
Ġqete lletse
Ġparamente ng
khotha letsuoa
j alo
Ġli k
Ġmo kete
he tsoe
pa ng
hlo bo
hlo oho
ĠMo ngoli
bo roane
Ġne na
Ġne po
Ġthe hiloe
ja na
Ġ202 1
cho boroane
Ġmaba tooa
bisa no
Ġsebelisoa ng
Ġe tela
Ġba reki
ba ng
Ġma raro
mo la
Ġp holo
lla no
the hi
ĠP e
Ġkhotso fetse
Ġipabo la
t hile
Ġ tsie
Ġle belo
Ġmo chochisi
Ġha joale
ĠMo choboroane
Ġkha u
Bo siu
E ena
z a
ho po
Ġle le
Ġa meha
Ġma te
me loa
ti on
ĠS i
Ġphethe tse
nka neng
ĠF C
Ġmatsoho ng
Ġlipu isano
B C
T lho
e tse
Ġba raro
Ġse oa
ke ho
ĠLe ka
ĠLe phe
ĠMa hla
lisa na
ĠLi pa
Ġqa le
Ġfapa kaneng
Ġlithu so
roe tsana
ĠNtÅ¡e tsopele
Ġlitje o
A P
q ha
ne tso
mo ea
Ġme hala
ĠMa ho
Ġfe lisa
Ġhlo oho
lle tsoeng
Ġkha tello
Ma mo
Ġtho mo
ĠMokho thu
Ġho e
lo mo
Ġse tsoalle
Ġbo phatlalatsi
Ġha na
Ġma nane
Ġi tla
lle tso
Ġtso te
ĠlefatÅ¡e ng
tsama o
Ġmoho o
ĠBu tha
ĠLefa tÅ¡e
Ġlinye oe
A the
t h
Ġ je
Ġbo lu
Ġmo tseng
Ba nna
Li papali
Ġfumane ha
Ġntlo ng
ĠBu the
Ġkaho na
Ġku tlo
Ġlef shoa
ĠMola po
D P
i hlo
ng o
Ġle ihlo
Ġka thoko
Ġbo kho
ta ng
ĠLe fapha
Ġko pile
llo ng
khe o
Ġlipa ki
Ġkoa la
Ġbon nete
Ġkopane lo
Ġrere tsoeng
Ġtata iso
Ġlifa te
i g
s te
Ġtse ka
Ġma chabeng
mo n
Ġtla sa
si ng
ĠMa chaba
ĠT ho
sho elella
Ġcha nkaneng
Ġtlale hoa
Ġhlokome lisa
Ġmaqhe ku
ĠKi ck
hase llo
r g
Ġbo hahlauli
Ġo ela
Ġma o
Ġma bo
no eng
Ġbe hile
Ġlina ko
Ġ201 7
Ġipabo tseng
Ġbape tse
Ġkhoe bisano
S CO
la fa
Ġse aparo
Ġli phetoho
ma thi
lle la
Ġetsa halang
Ho na
ĠR FP
Ġnka ng
Ġmi llione
ĠSee iso
Ġlio fisi
R a
ne tse
ĠM po
ke llo
ĠMo hlo
ra nta
kolo hi
Ġkha to
Ma le
Ba na
Ġkoe tlisa
Ġnete fa
Ġboike tlo
Ġnehela na
ĠfumantÅ¡ oa
TÅ¡ e
ĠLeka leng
5 00
v er
na ha
ĠMa ka
ri ca
Ġtso ile
ĠS a
Ġbolo kolohi
Ġkene la
Ġsire letse
hloli loeng
Ġiko pa
ĠMaja ntja
ĠKhe theng
Ġekasita na
Ġmaho kela
Ġmafa pheng
Ġho kae
Ġse tse
Ġli jalo
Ġbo tlo
Ġmo shoelella
Ġma mela
ra n
Ġbe bo
Ġ2 9
Ġen tsoeng
Tse na
Ġmala la
Moe tapele
ĠMabo te
3 0
Ġba le
Ġbo teng
Ġmo hala
be lang
ka tso
me tso
se le
ro tholi
po lotiki
Ġ2 1
Ġ2 8
Ġpo no
ĠC or
Ġlikho mo
Ġkhotha tsa
Ġsephe tho
Ġfoko lang
Ġloko lla
Ġmoe tapele
ĠTla li
ĠLephe ma
Ġba khethi
Ġba tseteli
Ġse tÅ¡oantÅ¡o
Ġli be
Ġp elo
Ġn khono
Ġphe le
Ġtha bo
Ġlipo tso
Ġlenane o
laea no
ĠAme rika
ĠCor po
li e
Ġle ta
Ġle tsoa
Ġka rolong
Ġmo leng
be tso
Ġi mo
lu mo
Ġbu le
Ġbole lla
ĠC hina
fi so
Ġloa nela
hlanka na
mise tso
Ġmaha fi
t jo
li tsoeng
Ġma he
Ġma loti
me tsoe
Ġp i
bo ko
lu ng
Ġ2 4
lao tsoe
Ġkopa nong
ebo ho
Ġmoe tso
ĠMoe tapele
Ġmoko nteraka
lo sa
Ġse ka
Ġbo chochisi
ba pali
be tsoe
se a
ra li
hi si
Ġfa noa
ĠLi baka
Ġqo thi
Ġmorero ng
Ġbai tÅ¡okoli
ĠQ oa
ĠTÅ¡e po
Ġmahla tsipa
Ġseto po
Ġkhakha tha
Ġako fisa
ĠCorpo ral
n ngoa
v i
Ġba leha
Ġmo nye
ka no
sa ne
Ġhla hle
pe long
Ġ2 2
Ġ2 3
Ġpo tolo
Ġpo lelo
Ġlefa pheng
Ġkhahla metsa
Ġleo to
Ġloa na
Ġama nang
Me sa
U L
Ġe letsa
lo ho
Ġba qhobi
Ġse fu
Ġmo le
Ġmo tsamao
ĠMo lula
Ġi pole
bo ho
ĠMa si
ti ki
Ġte te
nye tsa
Ġen tsoe
Ġlipe re
Ġpe l
Pa ki
i a
n tse
li si
Ġle bitso
Ġs o
Ġse nya
Ġbo tsamaisi
Ġtse pa
sa oana
Ġre a
ĠT u
Ġbe la
Ġhlo leha
Ġ2 7
ĠLi jo
ĠA BC
roa la
Ġmesebetsi ng
khu lo
ĠPi tso
ĠKoe tliso
Ġmate koane
w i
Ġa pa
Ġmo khahlelo
ĠP ri
Ġto ropo
Ġlehlo koa
Ġitlha hisetsa
Ġtloa ele
Ġtsie tsing
t y
Ġba nyenyane
Ġka holimo
so sa
Ġme noana
Ġphe letsong
Ġtso so
Ġpha tla
Ġpa le
Ġpa la
pu tsoe
Ġlihla piso
Ġhe so
ĠmatÅ¡oa o
R C
e s
l d
q u
Ġna ma
Ġi kho
ro ho
ĠLe saoana
Ġq ha
lle litse
ĠLi phatlalatso
pi song
Ġlipo laeano
ĠMe sebetsi
chi ni
ĠMoe ketsi
Ġtheo ha
Ġika khe
Ġhu la
Ġbuisa na
ĠQoa ling
le tsoa
Ġba sebeletsi
re la
Ġse thala
Ġmo shanyana
Ġla ola
ĠMo ri
ĠtÅ¡ u
ki loeng
Ġtha hasello
Ġng ola
Ġto to
fo fane
Ġbao ki
ĠtÅ¡oe roe
ĠtÅ¡i tiso
Ġphetha hala
Ġhloe kisa
Ġlino ko
Ġtata isa
Ġmoke teng
Ġraro lla
Ġbohla soa
5 0
C C
n nete
Ġba khothaletsuoa
re lane
ĠMo peli
Ġn koa
ĠLe hlo
ĠB AP
Se o
ki loe
Ġlo kisoa
Ġboe meli
ĠN to
Ġlitsi ane
Ġphu nye
ĠU ni
Ġphatlala tsa
Ġlate lang
ĠtÅ¡oenye hile
Ġbokho ni
Ġba nka
Ġse i
Ġli ea
Ġka pe
Ġbo chaba
Ġbo nolo
Ġa the
Ġa kare
Ġmo kha
pa la
ka na
Ġre kisetsa
Ġp ona
Ġme hato
ĠMa jo
Ġkhu tlisa
Ġfoko la
Ġphu the
Ġpolo keho
ĠSA DC
Ġmafe lo
ĠLC S
T e
k hisetsa
Ġtse tela
me ne
Ġna na
Ġna koana
ĠMo ro
ĠMo theo
Ġn khisetsa
ĠT eboho
ĠtÅ¡e pe
ĠBo qapi
Ġphethe tsoe
Ġmotla tsi
ĠtÅ¡oe reng
Ġete lla
Ġsebeli se
thati ng
elehe tso
Ġmao bane
Ġkape l
1 0
A SCO
Ã ¡
Ġma khethe
kho ebo
Ġetsa hetseng
Ġkho liso
ĠP ho
mi no
Ġfihle le
ĠI EC
ĠD u
Ġtu mello
Ġfeti sisa
Ġsiti sa
Ġkotlo loho
va te
Ġnolo fa
li leng
Ġs hoa
Ġli tÅ¡i
Ġli kulo
oa ne
Ġmo khethoa
Ġma be
ĠLe rotholi
ĠMa putsoe
Se phe
Ġthu nya
Ġthu sitse
Ġkho kelo
Ġkho elehetso
Le ntsoe
Ġta lenta
ea ne
Li hlopha
nd o
Ġkete kelo
Ġsebo ko
ĠletÅ¡olo ng
Ġbape tseng
r d
Ġbo okameli
Ġma ne
Ġma tha
me leng
tha bile
nya lo
lle tsoa
Ġsena ng
Ġta katso
Ġqo be
Ġatle hileng
Ġphaha me
Ġkete koa
Ġlipe o
Ġlite fiso
Ġlumella ng
Ġkhutli setsa
ĠtoantÅ¡o ng
' .
n ngoe
Ġho pole
ba ba
Ġma tloana
ma e
Ġtla me
Ġthe tha
Ġbu e
ĠbontÅ¡a ng
ĠJ o
Ġiphu mana
Ġhlalose litse
ĠNo tÅ¡i
Ġpona letso
Ġn tla
tÅ¡ oe
fe re
ĠN tlo
Ba tho
Ġpha ra
Ġletsatsi ng
Ġbapa lla
Ġlitse bi
Ġfeto hile
Ġloko llo
Ġche chi
Ġken tse
Ġnkhisetsa na
m be
li song
Ġm pho
Ġbo tsa
Ġke reke
Ġma bitso
se tsoa
ĠtÅ¡e piso
Ġthe kiso
Ġmona te
Ġu na
Ġqete llong
Ġele lletsoe
Ġkoa loa
Ġara ba
Ġtlatse tsa
ĠPri vate
M uelli
e mane
Ġli ho
Ġo ele
ba ll
Ġke neng
Ġma polesa
Ġma mello
me long
Ġn kileng
Ġi the
pha to
ri ha
Ġsebe lletsa
Ġphe tho
ĠBa cha
ĠP C
ĠSe li
Ġng a
Ġng oe
Ġta i
Ġpo kello
Ġliko bo
ĠKa moli
ĠTa u
Ġ19 9
osa ne
Ġmakha ola
Ġba lloa
Ġbo hlale
pa ne
Ġf ile
ĠMo khethoa
ĠMo fumahatsana
Ġi tho
Ġhlo phi
Ġko mello
Ġfa relane
Ġto kiso
Ġmong oli
ĠAf rica
ĠLabo raro
Ġike letsa
Ġlikha kanyo
Ġkhoeli ng
Ġpho so
ĠntÅ¡e tsopele
Ġleeto ng
Ġlithuto ng
Ġthakho la
Ġshebane ng
Ġbotlo kotsebe
N g
r y
s wa
ng a
Ġba lisana
Ġbo hlano
he lang
ra si
ĠLi chelete
ĠSe llo
Ġboi phe
Ġfu oeng
Ġbua ng
ĠF o
Ġlipho so
oto ng
Ġlebe se
Ġlebe lletsoe
Ġlitla mong
Na ha
Ġitlho phe
Ġlefe lla
Ġsoko la
a e
li ma
Ġse cha
Ġka la
Ġmo thating
Ġme o
Ġme roho
hi song
Ġfe lloa
fa ni
Ġsebe tsoa
Ġphe pelo
kolo si
Ġkha lala
Ġsebetsa nang
Ġpa pisong
Ġtsoa lo
Ġike tsetsa
Ġtlha loso
Ġipa pisitse
Ġphu nyele
Ġbi tsoang
Ġmoa ho
ĠLipa langoang
z i
Ġse hoai
Ġli pi
be lu
ra keng
Ġme no
no no
ĠT sa
ĠT so
Mo tlatsi
Ġhlo ke
Ġhlo mpha
Ġthu setsa
Ġboi tse
Ġkopa nya
Ġlu tse
Li tho
Li fe
Ġbole le
Ġtsama i
Ġfumane hang
Ġhloko mele
Ġmaka leng
ĠLeha e
Ġmaloti ng
Ġsei boko
u m
le li
Ġba tle
Ġha te
ta in
se tso
ra bo
ĠLe ba
Mo khethoa
Ġthu soa
Ġkho mo
ĠLi papali
ĠLi khetho
khe le
Ġtha betse
Ġbu loa
Ġkopa nang
ĠS he
ĠtÅ¡oa ea
Ġkhe thi
Ġtlha hisong
ĠF a
bisa ng
Ġfuoa ng
Ġmoa hi
Ġkhi ro
Ġthoho lelitse
ĠitÅ¡e tle
tjoa ne
S ele
T lha
n ke
p holo
Ġm pa
ka u
ĠL EC
Ġla ta
ĠMo ja
bo lo
bo hong
Ġme thati
ĠMa so
Ġfe lile
pha la
hle ho
Ġhlo kolosi
phe the
Ġkho lisong
Ġng aka
Ġto ro
Ka rolo
ĠBo rena
Ġthusa na
Ġfihle tse
ĠTha mae
ĠKa bi
ĠF u
Ġamo hele
Ġnya ha
Ġlipu la
Ġpotla kela
20 2
ĠLefa pheng
Ġseto tsoana
Ġbahla hisi
ĠMpo tjoane
Ġpotolo ha
Ġakare tsang
P o
Ġb oa
Ġho seng
Ġle ruo
Ġse le
ĠM i
ka le
Ġma the
Ġi pha
Ġfe te
ri a
Ġq he
ti sa
tha tha
kolo to
ĠSe bo
Ġbu ileng
eli so
Ġphaha ma
Ġlikhoebo ng
Ġ201 9
ĠKo misi
phi si
Ġtlhoko melo
Ġmoha u
Ġtoto ba
ĠNto i
b uso
Ġba lekane
re te
Ġa hoa
ba n
Ġma riha
ĠMo tlo
Ġi qa
Ġme ja
ĠMa khetha
fe tsa
Ġ3 1
Ġlitlo li
Ġbi tsoa
ĠRe thabile
Ġlie ha
Ġmoi fo
mpi ri
ĠMoa hloli
Ġbolu lo
d o
q ele
Ġho hela
Ġt lung
Ġli hloliloeng
pa lo
Ġre rile
Ġma khotleng
se ka
Ġi soa
Ġfe me
tle bo
ĠLi pha
ĠSe hlopha
ĠA D
ĠN thati
Ġta te
Ġ3 5
Ġphaha misa
ĠKa netso
ĠtÅ¡oara na
Ġphatlala tso
Ġtsote lle
Ġtlame hang
A F
e lli
Ġba shanyana
Ġse sosa
Ġli aparo
Ġbo fu
ĠMa koa
Ġboi tlho
ĠN UL
Ġthe hoa
Ġtlo sa
Ġta elo
Ġtsoe lo
ĠS t
Ġ4 0
Ġhloe kile
Ġno moro
Ġmale bana
Ġmela oana
Ġabe tsoeng
Ġane tsa
ĠMohlo mi
swa ti
F otong
K ho
r t
Ġli tu
Ġli qo
Ġmo thehi
ko tlo
Ġf osa
mo holo
Ġn oe
ra ma
Ġme a
tsoe la
Ġkha so
pi si
Ka ho
Ġro bong
Ġntlafa tsong
Ġthuto ng
Ġleka neng
Ġlika tleho
ĠtÅ¡oare tsoe
Ġmakha bane
ĠMote ane
Ġqothi sana
b y
b le
p tjoa
p tain
q ue
v e
Ġba neng
Ġse fa
tse te
Ġmo r
Ġmo hlankana
Ġma tsoa
Ġma hala
ke tse
ĠMo folo
ĠtÅ¡ a
ntÅ¡ i
ĠP oli
Ġkha fetsa
Le tsatsi
Ġloke loa
alo ng
Ġthe keng
Ġto bana
Ġkamo ra
ĠTÅ¡ eliso
Ġru ri
Ġkoloi ng
Ġsiti loe
Ġnta t
Ġaro lela
ĠitÅ¡e ma
ĠLehlo honolo
e se
g by
i pi
i loeng
Ġse a
Ġmo tso
tso ele
Ġme holo
ĠMa su
Mo na
ĠtÅ¡e pisitse
Ġhlalo sitsoe
che ng
ĠSe sole
Ġtha ba
Ġu tsoa
Ġpa ta
ĠHa le
Ġqa lang
Ġntlafa la
isi so
Ġliko luoa
Ġbola oa
Ġkhetho a
ĠW ASCO
Ġngoli so
Ġitlhophe la
J oa
s s
le he
Ġba polotiki
Ġse hopo
Ġmo hlo
Ġmo kho
Ġmo tsoali
Ġha ra
Ġma ro
Ġma sole
ĠLe kho
ri sa
ĠSe tsi
ĠSe mon
Ġfi loeng
ĠTÅ¡ osane
Ġleka na
Ġ201 6
Ġkhutle le
Ġlike lello
Ġno ka
Ġrata ng
ĠMahla ha
Ġmole po
B oe
le fa
Ġle bi
Ġmo hloli
ĠM pho
Ġp sha
te bong
ĠMo tho
ĠLe khotleng
ĠMa la
Ġbe hoa
ĠBa nka
Ġtso ileng
ĠN tlafatso
Ġlikho ho
bu la
ĠlitÅ¡ebeletso ng
ĠKo bo
Ġutlo ile
Ġ5 0
Ġahlo la
Ġrekisa ng
Ġhloa ea
Ġthakho ha
ĠTi koloho
Ġphatla lla
mbe rs
Ġtate llano
N P
m p
Ġse tseng
Ġbo hali
Ġmo llo
pa ki
Ġke re
Ġme nye
ĠLe FA
ĠMa tso
tle long
Se tsi
Ġkho tla
ĠSe nate
ĠSe hlooho
Ġthe llo
Ġkopa neng
ĠS ta
Ġling aka
Ġlin ku
Ġkhe thile
thi ba
Ġlahle hetsoe
Ġlithe ko
Ġfeti sa
hahla oli
ĠO fisi
Ġbaka ng
Ġlitlaleho ng
am bia
Ġikha pela
Ġbabu si
Ġsefu ba
Sephe o
swati ni
B e
T ha
z am
Ġma tÅ¡olo
Ġna tse
ra lo
si eo
Ġme nya
ny i
Ġhla kileng
Ġbe hang
Ġthu pelong
ĠLi ko
Ġboi koe
ĠN ya
Ma tha
Ġru toa
Ġsebo keng
Ġtlatse tso
Ġphomo long
ĠRo ma
baba tso
ĠSemon kong
, '
m m
n tseng
v ision
Ġle ntsoe
Ġle sea
Ġle nyalo
Ġli khu
Ġmo qhobi
Ġke a
Ġma hlano
se mane
Ġn oa
ĠMa ntaha
pe ho
hle helo
Ġboe tapele
Ġkha ello
Ġboi ko
ĠK hu
ĠK olo
ĠN tho
Ġkhe fu
Ġra pe
Ġtsama ee
Ġtho e
Ġlebo hela
Bo paki
ĠKa belo
Ġleka leng
Ġthi belo
or ld
ĠE c
Ġngo lisa
Ġhi ra
Ġthatise letsa
ID S
Ġmafe long
ĠThe tsane
ĠCa ptain
Ġapa re
i loe
m pe
z er
Ġle a
Ġba hahlauli
Ġba fani
Ġka thata
Ġa pe
Ġmo lomo
Ġha nyane
Ġtse bisa
ĠL ance
ĠMo si
tla ne
Ġi tlama
Ġme bileng
Ġme buso
ĠtÅ¡e pi
Ġtha kela
bi sho
hala la
Ma rea
ĠlitÅ¡ebe lletso
ĠD i
Ġfoko tseha
Ġphetha ha
one t
Ġholi ma
Ġmasi mong
ĠLebo na
Ġbabu elli
Ġmaoa la
Ġntla fetseng
A L
P rofessor
s t
Ġho ke
Ġle thatha
Ġba roetsana
ĠMo se
Ġme hloli
ĠLe tsoela
Ġfe lla
ri ana
Ġfa ng
Ġta hlehelo
Ġto bileng
thi beli
ĠMe mbers
Ġlikha to
Ġtloko tsi
Ġhloa hloa
Ġmera fo
SA FA
ĠLebo hang
Ġboha reng
Ġmapa tlelong
Ġkoetli song
Ġbofu meng
S L
T a
li a
li sitsoe
Ġka nnete
ka li
Ġha pileng
Ġre kisoa
to eng
Ġbona ng
Ġhla se
ĠMa cho
ĠB ea
Ġhlalo sitseng
Ġthu la
ĠSe kolo
Ġpa keng
thi bane
Ġtseba hala
Ġmoruo ng
ĠJ a
Ġkete kelong
Ġetse tsa
ĠF ra
Ġlike te
Ġbi tsa
ĠKho tso
Ġipo na
Ġbala teli
Ġlao lang
ver s
Ġphunye lletsa
Ġkala fo
Ġliqo so
P ha
c h
e me
e tsang
u tlo
le tsoe
Ġs oa
tsa neng
Ġre ke
Ġme kho
ĠT hi
Ġko kelo
Ġko misi
Ġbu tsoe
Ġmofu thu
Ġlithu pelo
Ġipa pi
Ġmola etsa
Ġtsamaea ng
ĠE swatini
Ġsheba na
ĠPhe po
Ġhopo tsa
Ġlipu isanong
Ġlehlo honolo
Ġiphu mane
Ġsusu metsa
Ġmanane o
ĠMori ja
Te bello
Ġboiphe liso
ĠShe lile
Ġsehopo tso
Marea betsoe
- '
T ata
e l
e re
g o
le tseng
Ġle kile
Ġbo neng
Ġma sholu
Ġma khulo
ke ti
ĠMo hla
ĠMo zam
ro ng
ro pe
Ġhla bo
Mo ka
Mo tho
Mo hla
Ġko ranta
tÅ¡e pe
thu si
bi que
Ġmong ata
lloa ng
Li hoai
Ġphethe loa
Ġike lelitse
Bo holo
tÅ¡i re
liso e
Ġaro ha
Ġlipha hlo
Ġmapa ramente
mphe hi
Ġbosu pa
Ġkutlo isiso
Ġmea ho
ĠBea vers
a r
n ti
Ġ ,
Ġli ketsa
Ġka bo
ke tso
ĠL E
Ġme cha
ĠB i
ĠT si
Ġbe ta
ĠN tha
ĠS am
ĠtÅ¡oa ne
Ġlin toa
ĠTÅ¡ u
Ġshe bisa
Ġtho bala
Ġlito ra
ĠJ ane
ĠE u
mpha to
Ġutloisi se
Ġlef shoe
Ġphelisa ng
ĠZ ambia
kitla etso
Ġpala ma
Ġmeo loane
Ġboitse biso
ĠEc onet
ĠMozam bique
K halala
m meng
t ball
ha long
Ġle ke
Ġle fi
Ġba hlo
Ġli ra
Ġbo sieo
ĠM u
Ġma po
Ġla e
ĠMo li
ĠMo chochisi
po si
lisa ng
lu ti
Ġkha ko
Le baka
Ġboi kitlaetso
Ġtlo hela
Ġto ra
mi bia
Ġ202 0
ĠTÅ¡ o
Bo i
ĠMe tsi
Ġlipe tlele
ĠBe reng
Ġeba ng
riti ng
kise tsoa
Ġtloa elo
ĠCo ns
ĠtÅ¡o hla
Ġsehlooho ng
Ġimo na
C he
Q o
Ġle tsoele
Ġmo loko
Ġma qe
Ġn t
ny olo
Ġko bo
ĠLi pholo
Ġthe fu
Ġny ane
Ġpo ta
tu ka
Ġfumane he
jo ne
ĠJ apa
ĠMe tsing
Ġhlahisa ng
Ġ201 5
Ġlitlho lisano
ĠRama kau
ĠTe kano
seli tsoe
ĠW orld
ĠNa mibia
Ġhi roa
ĠCo m
Ġnehela ne
Ġmahla ko
ĠTo ka
Ġlihlo pheng
Mase nate
ĠHlo tse
Ġiqa lla
N tle
b we
i mba
k h
ha n
Ġli m
me lang
ĠL N
ĠMo ho
ĠtÅ¡ aba
ĠMa tela
ĠMa roala
kha bane
tÅ¡e ng
tÅ¡e lisitsoe
ĠLi mpho
Ġthe ola
Ġti mela
ĠtÅ¡oa etso
ĠRa le
Ġhabo bebe
Ġlipe ipi
Ġhlahe lla
Ġiko bela
Ġlumella ne
Ġnke loa
Ġtlhoko melong
Ġsenye ha
Ġkhethe hileng
Ġmaha reng
ĠMona moli
Ġbosu la
Ġliho ra
ĠMatso so
imba bwe
M D
M ela
T he
f rika
o pe
Ġ joe
Ġse kheo
Ġka ba
Ġbo ho
Ġbo rena
ba llo
Ġha ti
sa po
Ġi pe
ĠLe tuka
Se nior
Ġko koana
Ġthu thu
tÅ¡e liso
Ġkha tha
ĠBo i
Ġtlho mpho
Ġmora li
ĠI n
Ġkenya ng
Ġbae tsi
ĠtÅ¡oare loa
ĠV ision
Ġlumella na
Ġhaufi nyane
Ġboike misetso
Ġito kisetsa
Ġtsepa misa
ĠLipha koe
Ġmaqe ba
j i
n neng
q olo
Ġ cho
Ġle kola
Ġbo tebo
Ġo fe
Ġke ng
Ġtse bile
Ġma tsa
Ġma no
Ġma kholo
ta ble
se tse
se me
Ġme tsoalle
ro le
Ġhla bi
tlo lo
po lo
ĠMa bi
ĠMa khoa
ĠMa chabeng
ĠB NP
Ġfe lletseng
Ġko pela
Ġkho la
tÅ¡e po
ĠP residente
ĠK hoa
ea nt
Ġtsama ile
tÅ¡oa nyane
ĠlitÅ¡e nye
Ġlikha lala
Ġmoe meli
ĠntÅ¡e tso
Ġfeti setsa
Ġtii setsa
Na kong
Ġipo tsa
Ġqho ba
Ġtsi tsi
Ġpholo sa
za mane
Ġbebo fa
ĠMajo ro
Ġnana betsa
Ġlokollo tsoe
ĠSeli be
Ġarolela na
ĠitÅ¡ema tlela
ĠFra zer
ĠEu rope
P he
m y
s hi
u oe
lo lo
Ġli sa
Ġli kheo
Ġka ta
Ġbo ng
Ġbo roa
Ġi koe
Ġi khetha
Ġbona hale
ĠLe jone
ĠMa fa
ĠMa the
ĠbontÅ¡ e
ĠSe tho
Ġmolao li
Ġmatla fetseng
Ġ202 6
ĠH ig
Ġqete lle
Ġlihla hlobo
Ġlintho ng
ĠtÅ¡ire letse
Ġmatsatsi ng
Ġsebeletsa ng
Ġpela ello
Ġlie ta
Ġleqe me
Ġhaka alo
Tlho lisano
rg eant
ĠTu melo
ese kele
E ka
n keng
s ta
u tu
la neng
Ġba ne
Ġa nela
ĠM zamane
Ġma nyolo
ra ne
ĠB ri
Ġq along
ĠtÅ¡e la
ĠLi qho
Ġboi pela
ĠN ka
ĠN ta
Ba sali
kaha nyi
ĠC H
Ġbapa le
Ġbapa tsa
Ġsebelisa na
Ġleha e
Ġlehla bula
Ġlitlo long
Ġfoko tse
Ġlahle la
Ġmale ka
ĠRe tÅ¡elisitsoe
Ġphomo lo
mpi ki
Ġmeno ntÅ¡a
Ġtotoba tsa
ĠMasu pha
Ġmenye nyetsi
utlo ela
Ġthobala no
ĠCons table
c i
e n
l y
le s
li fe
Ġba tala
Ġbo khabane
tho le
ma rakeng
ĠMo ti
ĠMo hato
Ġme ho
Ġme raro
Ġbona hetseng
ĠMa cha
ĠMa tala
ĠMa qele
Ġsebe tseng
Ġko tu
ĠA ca
koa ng
Ġboi tha
khe lo
Ġ20 30
mi s
ĠS ola
Ġkholo ng
Ġ3 6
Ġru te
Bo roa
Ġkene lla
Ġithu tileng
ĠKo miti
Ġutlo e
Ġsebeli tseng
Ġika maha
ĠZ imbabwe
ĠCha r
Ġleta mo
Ġmohlo mong
Ġmaro kho
Ġthakela na
Ġikhetha ng
ĠMaqele po
ĠAca de
u si
Ġli me
tse la
ba i
Ġtse beng
Ġp eo
ma li
ĠMo nongoaha
ra i
ra khoebo
Ġme lemo
ĠLe a
ĠMa ntÅ¡o
Ġfe pela
Mo lao
tha ha
the tse
nye tso
ĠSe ko
ĠSe babatso
ĠK holo
ĠN kha
Ġloke tse
tl heng
Ba i
isi nyo
Ġlitho le
Ġithu te
khu betsa
Ġahlo loa
Ġno keng
di es
Ġboke lla
Ġkhotsofa tsang
ĠtÅ¡epa ha
seme se
ĠAcade my
E O
n to
o ng
Ġe no
Ġho kaha
Ġk ile
Ġle ko
Ġle tsetsa
Ġse ea
Ġse rame
Ġli tle
Ġli fo
Ġbo be
Ġbo noa
Ġmo lula
ne ne
Ġo f
be leng
Ġma belo
Ġma eto
Ġf ola
ke metseng
te tso
Ġla bala
ĠMo tse
Ġme eli
ĠLe tse
ĠMa che
ĠMa tona
Ġfe re
Mo ho
Ġkha telo
Ġpha llela
ĠtÅ¡oa ri
letsa ne
Ġpo tso
su metso
ĠI kemetseng
Ġ3 8
Ġ201 4
Ġutloa hala
ano keng
Ġtheo hile
she na
hlolo hali
Ġsebo peho
Ġmela ta
Ġboloke hileng
ĠfumantÅ¡ oe
qha ka
Ġmabo ne
Ġbebo fatsa
ĠtÅ¡u sumetso
Ġphunyele tsa
Ġboitlho pho
Kaho na
ĠPoli ce
ĠNtho meng
1 000
t hileng
Ġli tÅ¡oa
Ġa bela
Ġa mme
Ġmo ru
he loe
Ġha ele
me s
Ġi lo
Ġme chini
ĠLe be
ĠMa hlo
ĠMa kara
Mo sebetsi
Mo ngoli
Ġhlo ba
Ġphe tse
Ġlo kolo
the ho
Ġko ko
Ġfuma noeng
Ġfi loe
bane ng
Ma tlama
ĠBo chaba
ku lu
Li bapali
Ġqe tile
su oe
Ġatle hang
ĠJ e
Ġisa ng
Ġlehlako re
ĠTe bello
Ġmetso tso
Ġeke tse
Ġeke tseha
Ġboloke hile
Ġabe loa
Ġbuisa ne
Ġlemo ha
Ġhaka nye
Ġmeko nteraka
Ġlebele tse
mathi so
Ġikopa nya
Ġtsoso losa
Ġnga keng
bisho po
Ġipapi sitsoe
Ġliketsa halo
ĠSola r
K ha
M oa
h li
n kele
o l
Ġka tlehi
ne o
Ġsa lla
ĠMo sa
ĠMo khethi
Ġi ku
Ġme tsaneng
ĠMa fo
pe tse
ri ste
ĠT lo
tha tso
Ġsebe te
Ġetsa hale
Ġkho a
Ha ngata
ĠSe ka
Ġlita emane
Ġtlho leho
Li oli
ĠRa li
Ġra pala
ĠtÅ¡ehe litsoe
Ġ3 4
Ġliko nyana
Bo beli
Ġkete kile
Ġsephe the
Ġetse tsoa
Ġmola mu
Ġthakho tse
Ġmoko kotlo
Ġlino moro
Ġsiti sang
Ġ6 0
ĠLa dies
Ġken ngoa
Ġ8 0
tÅ¡ea re
ĠCO SAFA
Ġmaqhe koana
Ġlipha posi
Ġleseli ng
Ġboa hela
Ġtsotelle he
Ġtsoelo pele
Ġipona hatsa
ĠLiqho mane
P C
li ba
na na
Ġle ra
Ġle holo
Ġle kane
Ġmo lli
Ġha morao
ko li
Ġma tleng
ĠMo ke
Ġtla ma
bo la
ĠMa ra
ĠT RC
Mo fumahatsana
Ġbe hiloeng
Ġsebe letse
Ġlo kisetsa
lle ng
ĠLi taba
ĠSe kha
ĠSe rgeant
Ġfi nye
Ġtlo hele
Ba o
Ba belaelloa
tli le
Ġpha nong
ĠS po
Ġlito po
Ġhlahi soa
ĠMe ru
Ġana ne
Ġlitla morao
Ġphu tha
di er
qhe ka
sela ra
Ġmela etsa
Ġken tseng
Ġsha pa
ĠHo lolo
ĠMatla nyane
ĠUN DP
ga dier
vi d
Ġikakhe la
Tlha loso
Ġpsha tla
ĠMotho bi
Che lete
Ġa ngoa
Ġtse bi
Ġma tle
ke misetso
ĠMo lise
tÅ¡ ele
si a
Ġhla hileng
ĠMa tsi
ĠMa luti
uma ne
Ġhlo ma
Ġkho na
ĠSe i
Ġtha bela
Ma n
Ġto ti
Ka ha
ĠBo nono
ĠtÅ¡oa roe
Li kha
ĠC he
Ġbapa loa
Ġshe joa
ĠlitÅ¡e piso
Ġlebo hetse
Ġ3 2
Ġru a
ĠMe holo
Ġbae meli
Ġkoe tsoe
Ġamo hetse
Ġsire lletsa
ĠKo ro
Ġiphe pa
qho bane
Ġlipu o
Ġame hileng
ĠLieu t
Ġtaolo ng
Ġfanoa ng
ĠMakoa nyane
Mela elloa
ĠMafo so
T huto
e lla
i ng
n khoa
o ta
p uso
y e
z e
Ġle li
Ġba ra
Ġba letsa
Ġba kela
Ġse tso
Ġse siu
Ġse thiba
Ġka rabo
oa ketsa
pa hetseng
Ġha kae
mo le
mo tse
ta ung
ma ti
ma kha
se leng
ra te
Ġme riana
ele tsi
ĠLe ho
Mo sali
Ġq hala
Ġhlo tsoe
Ġsebe lisoe
Ġphe to
Ġkho ho
Ġfa noeng
Ġboi pole
Ġtha pelo
bi seng
ĠR SL
Ġkamo rao
ĠtÅ¡oa ro
Ġhobane ng
ĠtÅ¡ehe tsang
Ġike mela
Ġ3 3
Ġana netse
Ġ201 8
Ġlebe lla
Ġche sa
Ġlite ropo
Ġpe jana
Ġkhetho llo
Ġmoko tla
Ġhlekefe tsoa
Ġku la
Ġmali bohong
20 25
tebo ho
Ġmoke tja
Ġkhao ha
Ġletsoa lo
Ġipole tse
ĠMasi anokeng
ĠDu bai
ĠTÅ¡u kulu
Ġlefi fi
ĠMoli beli
Ġthuthu ha
ĠChar les
1 8
J ustice
e ria
r ban
Ġ -
li toe
lo ha
Ġle so
Ġba kile
Ġli mi
Ġka no
Ġka rete
Ġbo qhobane
Ġmo kuli
Ġmo riting
ĠM EC
Ġma sapo
tho a
Ġla hla
tla lo
Ġn kela
Ġi ma
Ġtla tsa
Ġhla pa
Ġhla joa
ĠtÅ¡ isinyo
fa tso
Se kolo
Se bapali
ri ng
Mo chochisi
ĠBa khethoa
hala litoe
ĠBo hahlauli
mi sitse
Ġbole lele
Ġfihle ng
Ġlikho tha
Ġmora fo
Ġlipa langoang
Ġbao kameli
ĠD a
Ġkhahla metso
Ġbai keti
Ġmai kemisetso
Ġsitoa ng
ĠtÅ¡oare lo
Ġmaka tsang
ĠLC D
Ġito ko
Ġmeko tla
ran ce
Ġlibe ke
Ġrape lla
Ġshebisa na
qolo tsi
ĠMantÅ¡o nyane
Ġiku tloa
ĠMatsi eng
makha ola
I C
M A
N e
Ġ Y
Ġho lile
Ġle tÅ¡o
Ġs ho
Ġse ko
Ġse kola
Ġli phe
Ġbo sebe
Ġo hle
Ġha o
ko le
Ġma ra
me nt
Ġsa lletse
ĠMo khe
tsi tse
Ġi metsoe
si pa
no nyane
po la
Ġfe pa
Se tulo
ĠT se
ki si
Ġte bileng
Ġtso ha
Ġboi tÅ¡epo
ĠK C
mpa ni
Ġtlo la
Ma ba
Ma ma
ĠS ele
ĠRa mela
kaha no
Ġpo so
Ġtle tse
Ġatle hisa
Ġhlahi se
nt je
Ġlithu sa
Ġisa o
Ġmaba tooeng
ĠMate te
Ġ4 5
tja to
Ġete lletseng
Ġhloa iloeng
Ġphatlala litse
Ġteke na
Ġliofisi ng
Ġletsoa lloa
Ġmonye tleng
Ġhlahle lla
Ġlitle tlebo
qheka nyetsi
ntje llo
L M
n tsi
p hile
u a
le lang
Ġe ta
Ġe fe
Ġba sebe
re neng
Ġli tÅ¡oantÅ¡o
Ġma meloa
ke nane
ma be
Ġla ea
Ġn tlheng
ĠMa she
Ġfe pe
Mo lula
Ġphe hlo
nye la
soa bi
ĠSe holo
ĠK oa
Ġpha rela
Ġro bala
fo nte
Ġpo la
Ġliba esekele
Ġ3 7
Ġthata fa
Ġfeto he
Ġkoa no
Ġete tse
ĠMoe meli
Ġsireletsa ng
ĠV i
Ġ19 7
Ġiko tla
Ġsebeli sitse
Ġ7 0
Ġmetso tsong
Ġkhi na
Ġhlole hile
qha ma
Ra liphatlalatso
Ġtloaele hileng
Ġlipi tso
ĠitÅ¡etle hile
Sele mong
Ġboikoe tliso
ĠNya kane
Ġmahlako re
han selara
Ġhloba etsang
Ġkatlehi song
fonte in
A frika
c ia
Ġle tse
Ġba khachane
Ġba cheng
Ġli ti
tse hang
Ġmo putso
Ġmo nyenyane
Ġo e
Ġo tloa
be letso
ĠM pi
ĠM CC
Ġsa le
Ġi n
bo hile
Ġjoa la
ĠT lho
Ġte ko
Ġko nteraka
Ġkha nna
ĠR u
sho li
Ġ1 00
ĠtÅ¡oa netse
Ġpa mpiri
Ġra la
Ġkhu tÅ¡oanyane
Ġtseba halang
ĠtÅ¡ehe litse
ĠTÅ¡ olo
cho ol
Ġkhotha llelitse
ĠG o
tsama i
Ġlike reke
Ġnya mela
Ġlitlho lisanong
ĠNe pahetseng
Ġboro beli
Ġhi ri
Ġtja metsoe
Ġtja ntjello
Ġlebele tsoe
Tlho kahalo
Ng oana
Qo so
ĠJapa n
Ġhakanye tsoang
ĠSekha mane
a ma
u p
la nyane
Ġe mise
ha mpani
Ġho hang
Ġba ji
Ġli tichere
Ġli tÅ¡o
Ġbo kulo
Ġbo qhekanyetsi
Ġa nd
Ġmo khelo
Ġma seterata
Ġma tÅ¡eliso
Ġma qhama
to la
Ġi se
Ġi tÅ¡oa
kho mo
po llo
hle la
hle kefe
Mo fu
Ġq oaketsa
ĠBa mba
ĠSe na
ĠSe fa
Ġkha hong
Ġkha hloa
Ġbu ka
loe m
Ba tsoali
Ġpha llo
Ġkopa ng
Ġhloka hetse
ĠtÅ¡ehe tse
bu hle
nta te
Ġpu isano
Ġlito ropo
Ġfeto le
ĠMe ralo
ĠG a
Ġja ng
Ġbaba lle
Ġtii se
Ġnyolo hile
Ġeme tsoe
Ġabe tsoe
25 0
ĠMakha leng
Ġmoi thuti
ĠmatÅ¡oa fo
Ġsusu me
mene mene
ĠlitÅ¡i ea
ĠLekho oa
ĠMala wi
Ġlikhu tsana
ĠlitÅ¡enye helo
ĠBamba tha
I SA
li one
li ntlha
Ġk i
Ġba qolotsi
Ġse la
Ġka netso
Ġbo to
Ġbo tÅ¡ele
Ġmo fa
Ġmo lekane
Ġmo tsoalle
Ġmo tebong
pa nyo
Ġma utloela
Ġma mati
hlo eng
Ġla etse
ĠMo u
ĠMo ruo
ĠMo tsamai
Ġi khethe
Ġi soe
Ġme hlano
ele ng
ĠB loem
Ġq holo
Ġhlo kisa
Ġhlo mphe
ĠtÅ¡e lisa
ĠtÅ¡e beli
Ġboi te
ĠN ko
ĠN eo
Ġthe be
Ġsi la
ĠS chool
Ġqa lileng
nka na
ĠI nd
ĠTha to
Ġtlha ho
cho cho
ĠJ u
Ġisa na
Ġnepa hetse
Ġthi be
ĠKo pa
Ġlebe lletsoeng
Ġnya hla
Tse la
Ġ19 8
Ġlehlo a
Ġikarabe lla
Ġboha nyetsi
ĠMole fi
ngo re
Ġnetefa litse
nngoe ng
Joa lo
Ġkere semese
Be keng
Ta beng
Ġlim maraka
MD S
ĠCH AL
Ġboahela ni
buhle llano
ĠbotÅ¡ele la
1 00
4 0
A IDS
S RC
ho li
la ba
lo fo
Ġle la
Ġmo hiri
Ġmo phato
ĠM pe
Ġma q
Ġma tsete
Ġf ileng
hlo long
ĠMo i
ĠMo letsane
Ġi tu
Ġhla kisa
ĠT hu
phe tso
Ġko luoa
ĠSe kho
Ġtha bi
Ma li
ĠBo kang
meli so
Ġpa ka
ĠtÅ¡ebe letsong
Ġpo one
Ġfihle lle
Ġtho to
ĠKo pano
Ġbola ile
Ġlika rolo
Ġlika teng
ĠThaba ng
ĠHla lele
ĠTÅ¡i re
Ġlaka letsa
Ġmobu ng
Ġpotla ko
Ko miti
Ġlate loa
ĠMolao li
ĠMona heng
Ġjele ng
Ġhlooho ng
ĠtÅ¡u buhlellano
Ġboiko panyo
ĠIn su
ĠBri gadier
Ġboipela etso
Ġleko te
LM C
ĠBloem fontein
ĠtÅ¡ebeli song
" '
% )
e hiso
f shoa
l lisa
Ġe nte
ng olo
Ġho kela
na re
Ġle cha
Ġle bisa
Ġba ta
Ġba hlekefe
Ġli llo
tse bi
Ġbo tÅ¡epe
Ġmo lo
he lla
Ġha ne
Ġma cha
Ġma tlong
Ġn tÅ¡
Ġi pu
hu k
Ġme e
Ġme theo
Ġme koloto
Ġhla kile
ĠtÅ¡ osa
ĠLe kha
ĠMa ke
ĠMa thibeli
ki ti
Ġphe thi
ntÅ¡ uoa
Ġthu n
ru mo
ĠP ee
Ġboi puso
ĠN g
ĠN ig
olo mpiki
bi ni
Ġthe ke
Ġthe hile
Ġto ba
Ġbu sa
Ġti chere
ĠtÅ¡oa etsa
su pisi
Ġleba ng
ĠD e
Ġru tela
Ġeka re
Ġleka nya
Ġ201 2
ĠTa olo
Ġame hile
Ġipabo tse
Ġtlisa ng
Ġsenye hile
Ġtlale hela
ĠNa ha
Ġlipolotiki ng
ĠLina ha
Ġboloke ha
Ġhlalose tsoa
Ġsha sha
Ġmehla la
Ġitla lehe
Ġtete ka
ĠDu rban
Ġtsamai song
ĠtÅ¡a be
ĠLE FA
ĠtÅ¡ireletse ho
ĠSeko nyela
Ġrapala tsa
ĠKopa neng
ĠPee te
' ,
2 000
B ona
I FA
c co
w s
le tsing
li seng
Ġho bo
Ġle tÅ¡oana
Ġba tsamaisi
Ġba tlela
Ġli tulo
Ġbo khachane
Ġha lofo
mo be
te d
te r
ĠMo tsamaisi
Ġn toeng
Ġi tÅ¡ire
Ġhla bile
ĠtÅ¡ alo
ĠtÅ¡ abo
ĠMa nonyane
ĠMa tjato
ĠMa ama
ĠT ja
Ġphe ko
Ġlo kise
Ġko pe
tl he
Ġthe kisetsa
Ma ka
Ba sebetsi
Ġsupa ng
Ġu ena
ĠtÅ¡oa e
ĠHa la
ĠH ung
Ġike tse
Ġhabo hloko
Ġlipo li
Ġru pe
Ġleha re
Ġlitlo kotsebe
ĠKa tleho
Ġmaba leng
chi ne
Ġbapala mi
Ġthi ba
ĠMofo mobe
Ġche se
ĠTÅ¡e pang
ĠW ar
Ġsenye tsa
ĠMoha u
Ġlaka tsang
Ġboike to
Ġitlha hi
Ġmahlo ng
Ġhe tla
Ġtlohe lla
Ġitla leha
Ġbela elloa
ĠTso lo
Ġnyaha me
202 6
rama koloi
Ġmokho si
Ġlethatha mo
ĠMacho kha
ĠRu gby
ĠInd ia
ĠbotÅ¡epe hi
% .
I EC
R ea
e ba
o le
o bo
Ġba tloa
Ġba hloli
Ġse tha
Ġka ro
Ġbo hahlaoli
Ġmo koloto
Ġmo tÅ¡eare
Ġha ha
Ġtse joa
tho llo
tho ane
ta le
ma neng
Ġla ba
ĠMo ra
Ġn ku
Ġi tha
Ġme tle
Ġme tsing
Ġme khahlelong
ĠLe khetho
po sing
ĠMa sha
Mo hlo
Mo nongoaha
nye semane
Ġfa neng
ĠLi teboho
Ġkha kola
Le FA
Ġtlo soa
ĠR i
Ka jeno
Ġbu lela
eli ng
ĠC ho
Ġra pela
Ġtseba hale
ĠTha biso
Ġlipe lo
ĠtÅ¡i lafa
Ġphetha hale
Ġ4 2
or s
Ġhloe kang
ĠTa n
Ġhlahlo joa
Ġ19 6
ĠTe ele
Ġpotla kileng
Ġmahlo honolo
kise tso
Ko pano
hloko meli
Ġkelello ng
ĠDC EO
Ġteropo ng
ĠParamente ng
Ġtlohe lle
ĠMaho sana
Ġliofisi ri
Ġphara lla
ĠAfrica n
Ġfosa hetseng
Ġbatala tsa
ĠMoke ma
ĠInsu rance
Ġbahlekefe tsi
ĠNig eria
tlhe ko
ĠHung we
E F
n se
n tsu
s h
Ġho ng
Ġba hiri
Ġba kiloe
Ġm po
Ġse te
Ġa tisa
Ġmo nya
Ġea ka
ba lo
Ġha ta
Ġre kela
Ġre kise
Ġma fo
tho ng
Ġp hala
se lo
Ġna te
ĠMo ne
ĠMo kha
ĠMo ru
tsi tsoe
Ġn qa
Ġi ngoli
Ġme sa
Ġme ma
ĠLe bi
ĠMa po
ĠMa apa
joa na
ĠB olo
ri ors
Mo qosuoa
Ġbe hileng
tha ra
tsoa ne
the la
Ġko tsing
Ġkho kahano
ĠLi se
Ġboi to
ku nya
Ba qosuoa
Ġtli soang
Ġqo bisa
Ġlikho hlano
setsa ng
Ġra te
Ġlebo tho
Ġru gby
Ġfeto loa
Ġbae ta
Ġlitsi eane
mpo ro
Ġthuso e
kiso e
Ġthakho loa
ĠPu le
Ġholi leng
Ġmoa hloli
ĠMola ti
Ġmahe tleng
ĠMajo r
Ġsefa hleho
ĠLiko luoa
Ġkotu la
Ġleso koana
Ġthekisetsa no
' m
4 00
Q holotso
U N
g e
k riste
r ts
le loa
lo ne
Ġle ho
Ġle oa
Ġle kholo
Ġba ke
Ġba kiloeng
re ka
Ġli chaba
Ġbo u
he tsoeng
Ġo ka
Ġre nang
Ġma kho
Ġma holo
Ġma bele
te le
ĠL o
ĠMo the
Ġme ba
Ġhla be
po rasi
ĠMa n
joa ne
pe reng
ti ma
Ġko ro
Ġfa noe
che le
ĠLi tha
ĠSe hla
koa i
Ġlita lenta
Ma kho
Ġhlalosa ng
Ġtli soa
Ġtli leng
Ġti ehiso
Li tsi
Ġbole lang
Ġbole lletse
Ġtaba tabelo
ĠtÅ¡ebe letso
Ġlikho kahanyo
Ġqa loa
thi be
Ġkhu belu
Ġ3 9
Ġliko miti
ĠJ oa
Ġsheba hala
Ġara be
ĠKho ebo
Ġncha fatsa
Ġnyo lle
Ġnyo llo
Ġsebo ka
Ġitlho ko
Ġitlho mme
ĠLikho ebo
ĠNtÅ¡e tso
Papali ng
ĠMakha lanyane
Ġlume lle
ĠMoko ko
ĠMole ko
Ġmonye nyetsi
Ġhate tse
Ġkhefu tsong
ĠThi belo
Ġhlabo lla
Ġtsitsi tseng
Ġikoe tlisa
ĠtÅ¡oari sana
Ġbosebe letsing
Ġmee tlo
1 5
M usi
O C
T u
g h
i soa
ha tholi
Ġba hale
Ġse hleng
Ġli ha
Ġa lafa
Ġha la
ko to
ko ro
ta ta
Ġp eto
ĠMo k
ĠMo tÅ¡e
to long
Ġme ne
ĠLe nka
ĠLe rato
po ng
ĠMa tho
nya ma
lu meli
ĠLi te
ĠSe a
ĠA ma
ĠN tsane
Ġloke le
pi loe
Ġny oto
Ġpha mo
Ġpha ello
Ġpha posing
Ġsi si
Ġbang oli
Ġbohlo ki
Li khetho
Ġbole tsoeng
Ġfihle loa
Ġbolo koa
Ġlipo ntÅ¡uoa
Ġru pela
Ġliko tlo
ĠMe tolong
ĠKa rabo
Ġkene llang
Ġipa tlela
Ġ4 1
Ġsehlo hlolong
khu betso
Ġnya ka
Ġ5 00
Ġmoko ka
Ġncha fa
Ġsebeli sitsoeng
Ġboike melo
Ġfumanoa ng
Ġitlha hlo
ĠSu b
ĠPo sholi
Ġlekhetlo ng
ĠKe ketso
Ġbosiu ng
Moe meli
ĠMoko ena
hina ra
Ġlitha ba
ran koe
Ġitho khubetsa
Ġkhethi loeng
ĠMoja lefa
Ġlitu mellano
ĠDi vision
ĠNka ku
Ġmeho pe
mis hinara
ĠSei tlheko
ĠTÅ¡ire letso
ĠntÅ¡ itse
ĠHala hala
ĠWar riors
D A
L N
L DF
R aba
c tion
e ma
i ne
p ri
Ġb itse
Ġe s
Ġe mi
Ġe hlile
Ġka teng
Ġbo phe
Ġbo kane
Ġa ba
Ġmo tsamaisi
Ġmo tebo
Ġha a
Ġre roa
so eu
Ġma mella
Ġma joe
me khatlo
ma ni
ĠMo khachane
Ġn chocho
si tiki
ĠLe s
Ġfe tile
ki sitse
Ġphe ta
kolo ko
Ġkho bo
ĠN MDS
Ġbu uoa
ku n
Ġkopa nyang
Ġsi lafa
Li tla
ĠC AF
Ġlefa ng
pu la
Ġlipa mpiri
ĠTÅ¡ oe
Ġntlafa tsoa
Bo hle
qo sa
ĠMe halalitoe
nd er
Ġkete lo
ĠPha fane
Ġutloa ng
ue l
ĠE ng
Ġmohla ba
Ġlite bele
ĠKho jane
ĠTe ya
nane lo
Ġkhutli se
Ġhlokaha le
Ġteke nne
Ġmakha lo
ya neng
Ġlihlo oho
Ġane le
Ġqale lla
Ġikopa ntseng
Ġipole la
qu tu
Ġmabe nkele
ban k
ĠHale o
Matha bo
Ġmekho abo
ĠSpo rts
Ġmoketja neng
Ġtheke seleng
ĠMasha i
ĠMaapa rankoe
2 00
C P
E be
L C
j oeng
r ileng
t joe
Ġe se
Ġe eng
Ġk h
na ka
Ġle me
Ġle polesa
Ġba hlano
Ġba hlolohali
Ġa lo
Ġmo k
Ġmo che
Ġmo noana
ba le
Ġha nong
Ġke nte
Ġma ko
ke re
ma kale
ĠL t
Ġn on
bo ea
bo lli
si si
Ġme loko
Ġme qhaka
ele bohile
Ġhla tsoa
no d
ĠMa ze
ĠMa qutu
Ġne tball
Ġfe hla
tle leng
Mo leli
Ġhlo tse
Ġsebe tsoe
Ġlo kisoe
tÅ¡e beletso
nye ho
ĠLi pho
ĠLi fofane
Ha ng
ĠA bia
ona l
Ġtha bisa
Ġtha bisang
Ġlita pole
Ġthe hiloeng
Ġbu se
Ke te
Ġpha lla
Ġpha pang
ĠS wa
Ġro mella
Ġlena neng
Ġti ma
Ġu tso
ĠtÅ¡oa rang
Li naha
Ġpo pelo
ĠC up
Ġlikho ka
Ġlikho hola
tÅ¡oa o
Ġntlafa le
Ġmokhatlo ng
Ġnepa hala
Ġliq aba
Ġsehlo ho
mpo so
Ġbaa hloli
Ġnya metse
Ġhopo loa
Ġcha bileng
ĠSo u
Ġkhethe lo
ĠNe d
Ġngo ngore
Ġtlatse lletsa
ĠCo vid
Ġmofe re
ĠSA DP
Ġlemo hile
Ġhoe ba
Ġsireletse hile
Ġleta mong
ĠUni ted
Ġkhethi loe
ĠMotlo heloa
ĠHale makale
Ġapare tseng
Ġphethaha tso
Mohla la
Ġaroha na
ĠLea nya
ĠlitÅ¡oa etso
Ġkoko ta
ĠJe lu
Ġleli bohong
ĠMashe shena
Ġqoaketsa no
Ġmofa pa
ĠitÅ¡ire letsa
ĠLitha baneng
ĠMaze nod
3 2
H DA
L E
e t
i li
l uma
Ġ c
Ġ roa
Ġe sa
ha no
Ġm phe
Ġli cha
Ġbo fo
Ġbo menemene
Ġa nye
Ġmo roa
Ġo tlo
pa nong
Ġtse tse
Ġre koa
mo sha
Ġla tola
ĠMo rero
ĠMo lele
Ġn ko
Ġme ru
ĠMa khele
llo ws
ĠP hala
ĠLi tho
ĠLi ki
Ha ele
Ha eba
ĠSe tso
Ġkha thetse
Ġtlo tloa
Ma lie
Ġtsoe lang
Li eu
ĠRa se
Ġpa sa
Ġpa tsana
Ġpa ballo
Ġpo tang
ĠC hi
nte ng
Ġmang ope
Ġntlafa tse
Ġleba nya
Ġlito ro
Ġfihla ng
Ġhlahi setsa
Ġkenye lletsoa
ĠMe khatlo
ĠPha motse
Ġele lloe
Ġmola leng
Ġkoa lla
Me khatlo
Ġmekhatlo ng
ĠMoe pi
Ġiko pela
ĠTÅ¡i u
Ġkhale ma
Ġtlhoko meliso
Ġmera long
Ġlife meng
Ġeke litse
Ġkhutli le
Ġlihlo ng
Ġmojao ng
Ġkhau ta
hopo lo
Ġmahe tla
wi ng
ĠMoro cco
Ġqhe ketsa
Ġjoe tsa
ĠMoti mposo
Ġfinye lla
IC EF
ĠMpi ti
Ġmesa ngoana
ĠLes lie
1 7
l th
m s
li m
Ġm phato
re kano
Ġse kete
Ġli reng
Ġmo hoebi
ba tsi
be tsoana
Ġke keng
Ġma ta
ta ne
hla ne
se letso
Ġme bala
ĠLe so
ĠMa li
ĠMa koe
hali tse
oe la
ti ng
Ġte raka
phe le
kolo ng
Le fu
Le ngolo
ĠK hi
khe ng
Ġloke leha
Ġto ma
Ġpha lle
ĠS hale
ĠRa n
Ġphethe loe
Ġtsoa la
Ġfihle tseng
Ġpu lo
Ġqete llang
ĠQ eme
Ġloa ne
Ġleka nang
Ġphetha hetseng
Ġ4 8
ĠtÅ¡oara ne
Ġmoho polo
ĠtÅ¡oare la
sale mane
Ġtii setso
Ġboro bong
Ġngo tsoeng
Ġmaha eng
Ġlitlha hlobo
Ġkhi bela
Ġhlokome loa
Ġteke ne
Ġfele he
Ġboele tsi
Ġsusu meli
Ġnolo fatsa
ĠMaho si
Ġhoe hla
ĠMaka tile
Ġlikelello ng
Boe mong
Ġmapo melo
ĠMathe be
Bai thuti
Ġfola kha
ĠMahlo mola
Ġkhoho leho
Ġitoko lla
Ġlela peng
Ġmophato ng
Ġchese ho
Ġhala lelang
Raba sotho
Ġmoche so
ĠSwa llows
Ġliqaba ng
ĠMolele ki
ĠSetso to
5 000
E na
K ea
S u
T emo
e sa
e tsi
e eng
la tsa
li ka
Ġho elehe
Ġle role
Ġba lumeli
Ġse ra
Ġli re
Ġbo tsoa
Ġa nngoeng
Ġmo hlanka
Ġmo chini
Ġtse joeng
Ġma mola
Ġma sea
Ġp hiri
hlo bi
ĠMo tla
ĠMo salemane
Ġn tsoe
tÅ¡ u
Ġme koa
Ġme tsu
ĠLe tsi
ĠLe fu
ĠLe pereng
ĠMa u
ĠMa kae
pha ne
ti onal
Ġhlo loe
Ġphe rekano
Ġlo hle
Ġte ma
ĠtÅ¡e tÅ¡e
fe tsane
ĠLi m
ĠLi hloliloeng
Ġkha ng
Ġkha hleho
Le hla
Le fapha
ĠA IDS
Ġboi pa
ata ta
Ġfi h
Ġta fo
Ma bo
Ġmong obo
Ġbu tse
tli song
Ġsi ile
ĠS te
letsa ng
tu melo
Ġlina oa
Ġra li
Ġtle tlebo
Ġfapa ne
Ġliko nteraka
Ġkhotha letsoa
ĠMate lile
Ġmoe tlo
ĠPhe ko
Ġahlo tse
ĠtÅ¡oare hang
ĠV e
Ġreka ng
Ġmoko tleng
Ġqeta ng
Ġtheo hela
di um
Ġlino ka
Ġtloa e
Ġketsa halong
ĠKha bo
Ġpolo kelong
Ġtsoele pele
Ġikha petse
ĠMale phane
ĠMakha khe
Ġlume lang
Ġqho ma
hisa ne
Ġlele kisa
ĠMaho bong
Mamo hato
ĠSa koane
Ġpi tsong
Ġphetho la
nke re
Ġsele kaneng
ĠKhu betsoana
Ġape re
Ġhoke loa
Ġlethatha mong
ĠSam uel
ĠMabi tle
ĠKhoa bane
ĠHig h
ĠNkha si
Ġtsebi soa
ntsu nyane
Ġitlhahlo ba
kun utu
ĠNed bank
Ġmoroa lo
1 3
6 0
F C
n ko
n ni
u ta
Ã ³
Ġ tsu
ho le
Ġk ileng
Ġle pa
Ġle bisang
Ġba supisi
Ġse jana
Ġli bini
oa st
Ġbo lao
Ġbo tlalo
Ġa tolo
Ġmo ka
Ġmo se
be tseng
Ġtse joe
ko betso
sa tsana
so n
Ġma tsebe
Ġma ntsi
mo ko
tho khubetso
ta ra
ĠMo tÅ¡oane
ĠMo thibeli
Ġi ngo
hu la
ĠMa pe
ĠMa lie
Ġfe lletsoe
oe so
ĠT ele
Ġbe hiloe
Ġsebe le
Ġte boho
Ġboe ma
tÅ¡e hali
ĠP olo
ĠLi tÅ¡i
ĠA do
thu ma
Ġtha hong
ĠN te
ĠN tsie
ĠN thunya
muso ng
ea lth
ĠR elebohile
Ma mekhatlo
Ka nnete
ĠBo tlotlehi
ku oane
Ba a
Ġro ba
Ġkamo helo
Ġti ileng
Li kuena
ĠRa tÅ¡i
ĠC oast
ĠMase ko
Ġtle tle
ĠTha bane
Ġtho la
nta in
Ġlebo ne
Ġliko mporo
Ġhlahi sitse
Ġkhotha lelitse
ĠPha mong
Ġele litse
ĠThaba na
phu putso
Ġmoe eng
Ġlite ko
Ġlite mana
Ġpe re
ĠKho thatso
Ġphatlala tsoa
Ġsenye heloa
Na ko
Ġlino tÅ¡i
Ġite kola
Ko ro
Ġtsoetse pele
Ġpolo tiki
Ġkhotsofa la
CO N
ĠMale fetsane
Ġito kise
ĠThe ko
Ġlume lloa
ĠCa pe
Ġmeko ko
Ġlao loa
Ġlele koa
Ġbolu tu
ĠTÅ¡epo ng
Ġphuthe ho
ĠLeba tooa
Ġsele pe
ĠMotlo melo
Ġmenya koe
Ġboiko kobetso
ĠMacho bane
Ġthula na
Ġkhako tse
Ġcho risa
Molao li
thaha tsi
Ġlabala bela
ĠMosa la
Ġboipole so
ĠlitÅ¡o so
ĠtÅ¡ilafa lo
nder s
Ġmetsu ntsunyane
Ġtafo leng
ĠAdo ntÅ¡i
C o
C AF
I P
P e
P residente
b ra
g i
k wing
m ileng
Ã ¨
ho mishinara
Ġle khulo
Ġli sitseng
Ġka pela
Ġka nkere
Ġbo ra
Ġbo tsebi
Ġa la
Ġa heloa
Ġmo no
Ġmo letsa
Ġmo reneng
he long
ne l
Ġre na
Ġre kile
mo eeng
hlo jane
ĠMo re
ĠMo ka
ĠMo kete
Ġi ne
Ġi khe
Ġi kitla
cha rd
si c
Ġme ropo
ro u
Ġhla ka
Ġhla naka
ĠtÅ¡ ola
ĠMa soabi
tsoe tse
Ġkaha ra
Mo i
Mo o
Ġte kiloeng
Ġthu sitseng
ĠP ro
Ġfa nye
Ġ2 000
Ġhae sale
ĠSe me
Ġkha re
ĠN tlong
olo nel
Ġthe he
Ġthe hela
ĠR ea
pi soa
Ġmong a
Ke tsa
Ġqo sa
itse li
Li po
Ġbole lloa
ĠC ent
Ġkhu ma
ĠH u
toa ne
Ġhlahi sitsoeng
Ġfeto tse
ĠMe nkhoa
vo ry
ĠKa mo
ĠtÅ¡oe nya
Ġamo heloa
Ġ201 0
kare te
Ġloko lloe
Ġlahle heloe
Ġphu thu
Ġutlo isa
Ġ5 5
Ġcha i
Ġikemise litseng
ĠBu lane
ĠW i
Ġkhethe la
ĠNa la
Ġlehlo hlojane
Ġmali boho
Ko ranta
Ġphelisa na
Ġlibuka na
Ġbehe lloa
Ġlume lisa
Ġlibo lo
sele se
rali taba
Ġtoropo ng
tÅ¡oe ne
Ġchechi selitsoe
Ġhlophi sitsoe
Ġtsamai soa
ĠFu si
ĠFu nd
Ġlitu long
Ġkere keng
ĠtÅ¡epi soa
Ġhlase loa
ĠNtha biseng
ĠTÅ¡o i
Ġikamaha nya
Moa hloli
rate s
Ġlikhotha letso
ĠletÅ¡o ele
ĠMou ntain
Ġsila fatsa
Ġthoto bolo
Ġtoba nang
Ġitlhahi setse
ĠRi chard
ĠLite kanyo
Ġreroa ng
ĠJelu sic
Ġbofo koli
ĠLim ko
Ġmeropo tso
ĠMenkhoa neng
L EC
N ta
T l
T o
a mphani
k g
p le
t lung
w n
w ns
Ġ .
Ġ llang
le sa
la te
Ġe meng
Ġe metseng
Ġe mang
Ġle joe
Ġba tlisi
Ġba thusi
Ġba nkeng
Ġba tlile
Ġt hoa
Ġse se
Ġse kho
Ġse no
Ġse nyang
Ġli karete
Ġbo ma
Ġbo liseng
Ġa hile
Ġa hela
Ġa hiloe
Ġmo sebeletsi
pa nyetsa
Ġre ra
ta ma
hla nders
ma n
hlo bong
ĠMo thehi
Ġn kho
Ġi kutlo
Ġi meloa
Ġtla ba
bo hang
Ġme hopolo
ro llo
tlo koa
ĠMa ile
ĠMa rena
ĠMa bu
ĠMa nga
Ġfe lle
pe re
ri c
Mo la
Ġhlo mpho
Ġhlo koang
ĠtÅ¡e lang
Ġko joana
Ġboe tseng
Ġthu nngoa
Ġetsa ha
lang oana
ĠLi neo
Ġboi thokhubetso
ĠN qosa
Ġsu pe
Ġtlo hang
Ġta emane
hala ne
Ma jo
sho ane
Ġmona moli
ĠBo b
ĠBo sebetsi
Ba e
mi na
mi so
tlafa tsi
Ġbole tseng
Ġkhe khetha
tu meleng
Ġra liphatlalatso
ĠtÅ¡ehe tsoang
Ġshe joe
lli soa
ĠI vory
Ġngata na
Ġfu ra
Ġpu tla
Ġkhahla me
sha mole
aba ta
Ġkolo ta
Ġsehlo mathiso
khu tlisi
Ġpho ofolo
Ġ5 6
Ġete lletsoe
ĠRama shamole
Ġnyo lloa
seli tseng
Ġkhale fo
Ġkopo rasi
she et
Ġata metsa
Ġruta ng
ĠNa po
Ġitlho pha
Ġlema la
Ġlema ti
Ġteke nela
Ġ200 7
ĠRo the
ĠRamo eletsi
ĠMatla meng
ĠUN ICEF
Ġlibo holi
Ġshebe lla
Ġkutlo elo
ĠMori e
Ġithe hela
Sele mo
nke leng
Joa le
ĠOfisi ng
Ġboikoe tlisong
ĠJa mes
ch ni
ĠHig hlanders
ĠtÅ¡epaha lla
ĠLetse ma
ĠLeho hla
Ġoe lang
Ġikhethe la
Ġiketse tse
Ġmafo sisa
ĠMapo teng
Ġbophe thahatsi
Ġmofere fere
ĠLetsi ka
Ġmantsi boea
ĠTÅ¡oi nyana
A T
D i
G C
P ele
h n
k wa
m phu
n k
n ts
o u
r la
s to
u l
y s
Ġle lele
Ġle sisi
Ġba lla
Ġse tÅ¡a
Ġbo hale
Ġbo tÅ¡ehetsi
Ġbo mali
Ġa ka
Ġa losa
be tsang
Ġha sa
sa nang
Ġma ru
Ġma folo
te lang
ĠL HDA
ĠMo fu
ĠMo papa
Ġn tÅ¡oa
Ġi ta
Ġi ketsa
Ġme tsana
Ġhla ke
ĠLe te
ĠLe tsatsi
ĠLe su
ĠMa i
ĠMa fu
ĠT ru
Ġhlo bo
ki song
ntÅ¡ iso
Ġte fo
Ġte kile
Ġte mana
Ġte ana
Ġkho lumo
nye so
ĠLi ta
ĠLi hla
Ġkha pha
Le ba
ĠA u
Ġtso sa
ĠN y
ata u
Ġlita nka
pi loeng
Ġsi mo
Ġsi ee
ĠS ha
ĠS pe
Ġqo sitsoe
Ġling o
Ġbohlo phisi
fo keng
Ġpo ho
Ġshe bi
lli on
Ġleba tama
Ġtle tseng
Ġtlha ko
Ġlehla sipa
Ġlitlo holo
Ġmaba lane
ĠQ ho
Ġthi belang
ĠtÅ¡i mo
sha no
Ġamo he
Ġ4 6
Ġkoa e
Ġlite bello
Ġete le
Ġkhetho loha
Ġja re
Ġmoko ko
Ġiko bele
seli n
di di
Ġkhethe loa
da le
Ġsepe tleleng
Ġboke lletsa
loko mela
FP A
Ġlemo sa
Ġlitha rollo
Ġlebele tsoeng
ĠMole batsi
ĠMaka teng
Ġikakhe tse
Ġshoa lane
ĠlitÅ¡i la
Ġqobe lla
ĠJo hn
lima be
Ġmatsoa lloa
Ġbahlo phisi
Ġhati ke
Ġhlabi loe
Ġhlabi loeng
Ġkata melo
ĠMafa esa
Ġlime nyane
Ġkhoa o
cia l
Ġphethi sa
Ġthun the
ĠTan kiso
Ġmpo li
pri sta
Ġkente lo
Ġingo lisa
Ġikhe thileng
Ġkhare be
ĠLimko kwing
Ġboma limabe
Di vision
Ġlesisi theho
, .
- âĢĺ
1 6
2 4
2 6
E o
F D
L itse
M I
O fisi
T hu
p residente
r vi
s si
Ġ X
Ġ chaba
li koane
Ġho lang
Ġle bile
Ġle rata
Ġba ho
Ġse tloa
Ġse joale
Ġse tÅ¡eng
Ġka li
Ġbo hato
Ġa khe
Ġmo tÅ¡oaruoa
Ġmo fumahatsana
Ġmo roetsana
he li
so ba
Ġma k
Ġma ja
Ġma khu
te yaneng
hlo e
Ġna la
ĠMo ta
ĠMo thusi
Ġtla mang
Ġme tebo
Ġhla ola
ĠLe tÅ¡eng
po tso
po lla
ĠMa tÅ¡e
Ġfe ra
Se tÅ¡oantÅ¡o
ĠT loko
Mo limo
ĠBa tlotlehi
Ġkho ba
soa ne
ĠSe n
ĠA d
ĠA bra
Ġtha peli
ĠN tÅ¡o
Ġthe le
Ma rena
Ġtsoe llisa
ĠBo ro
ku tu
Ġtli se
ĠS co
Ġro mela
Ġro betse
Ġlu mele
Ġti ti
Ġu ne
ĠC olonel
Ġkhe thileng
Ġliba nka
pu oa
koe ng
Ġtsama e
tloa ne
Ġfumane la
Ġkahar Ã¡
Ġlitse leng
Ġfapa kana
ce s
Ġkene lle
ĠF re
Ġloa ntÅ¡
hlale fi
ĠG e
Ġutloa hetse
Ġloko lle
Ġ4 7
Ġlika hlolo
Ġphu tho
Ġkoa lloa
ntÅ¡a ng
Ġmatlafa tsoa
Ġnya ro
ĠMokhatlo ng
ĠPhe tetso
Ġno nya
Ġfeti setsoa
ĠKho si
ĠMokho si
ĠPu seletso
Ġsenye semane
Ġata mele
Ġhlekefe tsoang
Ġtloa etse
Ġaro la
tje lo
Ġmoja ho
Ġleqe ba
reside nt
ĠPi rates
ĠPe ka
ĠLipa lo
Ġnetefa tse
Ġsireletse ha
Ġbela ela
ĠMoro ke
Ġngoe tsi
ĠFo u
Ġqhe ka
Ġnoe setsa
Boe mo
Ġphatlalla tsa
Ġmekho eng
Ġleke no
Ġlae loa
Ġmano ni
Ġlabala belang
ĠLetse ka
Ġbasebe lisi
Ġki ba
Ġboite ko
Ġsetha thong
Ġmonya ko
Ġnon tse
ĠLeso beng
didi lane
3 5
9 9
P E
R ona
e ho
e rekho
o po
p hiso
w er
ng ola
lo ba
Ġle sole
Ġle tÅ¡oao
Ġba hlokomeli
re n
Ġse tlo
Ġse tu
Ġli tloa
Ġli phatlalatso
Ġbo hlanka
Ġa he
ne lo
Ġma me
Ġma bi
ke reke
te bele
ma la
Ġna laneng
ĠMo nyane
ĠMo thibe
ĠMo hlalefi
ra teng
Ġme fere
Ġme tebong
ro mo
ĠLe tla
ĠLe tÅ¡olo
ĠMa lo
ĠMa ba
ĠMa ta
ĠB oe
Ġfe tse
pe so
ĠT ra
ĠT soa
Ġhlo honolo
Ġte ea
Ġte meng
ĠtÅ¡e ho
Ġko tulo
ĠBa na
Ho re
lu b
ĠP oto
ĠSe ba
ĠSe tereke
ĠSe mpe
Le eto
isa ne
ĠN tla
ĠN ku
Ġlita elo
Ġtlo hile
Ġlu tseng
Li kolo
Ġpo ntÅ¡o
pu isano
jo tjo
ĠtÅ¡ehe tsoa
Ġhloko metseng
ĠTha pelo
Ġtho pho
Ġfu thuma
Ġliko ti
Bo thata
Ġlitho ele
Ġmarang rang
ĠKa tiso
Ġletsoho ng
Ġlikha la
Ġlihla ba
ĠKo porasi
Ġkoa loe
Ġlithe o
Ġ5 2
ĠPa kela
ĠMoe rane
ĠW a
ĠO rla
Ġ6 7
Ġlefe lloa
riti us
honolo fatso
Ġeke tsoa
Ġmaka tsa
Ġnye nye
Ġboke letsa
ĠtÅ¡o ha
Ġngoli sitseng
ĠHo lomo
Ġseke hela
Ġteka no
nda tion
Ġbareki si
ste r
Ġpi tso
Ġqothi sanang
ĠUni ver
Ġmabe nkeleng
Ġoele ng
Ġhloke ha
ĠMaso leng
Ġapare tsoe
Ġlira mo
ĠMacha che
Ġlera beng
Ġanane loa
Ġsho ele
Ġfepe lang
Ġpola sitiki
ĠJu bile
Joalo kaha
Ġbou lela
Litla leho
ĠTÅ¡oe u
Ġlicha nkana
Lieu tenant
ĠMau ritius
Ġsetloa eling
ĠFou ndation
erekho ere
ĠOrla ndo
. "
1 4
8 0
N tlo
N UL
O A
P LMC
T C
T i
c t
e f
m Ã¨
r oana
s umane
u lu
w ealth
Ġe mele
lo mi
na heng
Ġle kha
Ġle mina
Ġba lli
Ġba kriste
Ġs oto
Ġse fofane
Ġse kotlo
Ġli mathi
Ġka nyeso
tse ho
Ġmo eli
Ġmo hale
be lla
ka ling
Ġha beli
Ġma phe
mo se
ta na
te chni
ma ntÅ¡o
ĠMo sebe
ĠMo tsoa
ĠMo kale
Ġn tÅ¡i
ra fu
Ġi mela
Ġi noe
Ġtla tsitsoe
bo ha
si ty
ĠLe qele
po tileng
Ġne ne
Ġfe lletse
tle lo
fa la
Mo tsamaisi
Mo khahlelong
lla ne
Ġnaha ne
ĠBa sali
ĠBa tlokoa
ĠP eo
ĠSe tsing
Ġkha ma
Ġkha bane
Ġkha itseli
Ġboi thu
bi nyane
ĠR atau
Ma re
Ma fe
Ka ntle
Ġbu setsa
ĠBo ko
ĠBo tha
mi llione
Ġqo song
Li pa
Li nare
ĠRa moho
ĠRa ntÅ¡o
Ġpa neng
fo la
nte r
Ġlina kong
Ġra ha
Ġra fa
Ġlikolo to
Ġlipa sa
ĠI tumeleng
toa ng
Ġlipo mpo
Bo chochisi
ĠMe kaling
ĠKa la
Ġkene loa
Ġetse litseng
ĠPha tÅ¡oane
Ġlikha ng
Ġ201 1
Ġlebe long
ĠPa seka
Ġbaahi sane
ĠBe nghali
Ġcha ng
Ġcha kela
Ġbi llione
ĠtÅ¡oare tse
Ġhloa iloe
Ġthakho hile
Ġja la
Ġkhale mela
she mane
di a
Ġlie nte
ĠLina ke
Ġlitlha pi
Ġmela mu
Ġlitereke re
Ġ9 0
ĠPo ly
Ġfele ng
Ġphomo la
Ġboithuto ng
ĠLC A
ĠMale fane
Ġsoko lisa
Ġmerero ng
ĠMoa bi
Ġmehla pe
Ġhoe k
mon wealth
Ġmonye be
ĠMasi lo
Ġapa ra
Ġtloaele hile
Ġtataisa ng
Sephe tho
Ġchechi sa
ĠFa ko
ĠitÅ¡etle ha
Ġamohele hang
Kaho o
ĠOfisi ri
Ġmenya bu
Ġlikhu tÅ¡oane
ĠSekolo ng
Ġkhako loa
Ġthefu la
Ġmatsa pa
Ġmano lla
Ġikoe tli
ĠMacha i
Ġlime tale
Likha u
Likha lala
Ġnyahla tsa
ĠMone se
Ġmeba rakeng
Ġitlhoko mela
ĠMatho mo
Ġesa leng
Ġtsetse lela
Ġmeru su
Ġhoelehe tsa
Ġmekoa laba
ĠtÅ¡etÅ¡e tha
Ġlitheo helang
ĠUniver sity
techni c
ĠMokale kale
ĠPoly technic
3 00
4 5
6 5
E U
N tlha
S i
S o
a ng
n tsoeng
p hali
u la
y ball
y ota
Ġ vo
le mane
la bela
la nd
Ġe loa
Ġle tÅ¡ehali
Ġba rali
Ġba pisoa
Ġli kara
tse hi
oa neng
Ġa hileng
Ġa hoe
Ġa lima
Ġmo hlolo
be re
ĠM pu
ka nya
Ġha nyenyane
Ġke letso
Ġke ntsoe
Ġke tapele
Ġre ri
ĠMo nna
ĠMo taung
ĠMo kiti
to kelo
Ġi koa
Ġi toa
Ġi khu
Ġme kutu
ny oko
Ġhla bileng
ĠLe li
ĠLe thole
ĠMa r
ĠMa na
ĠMa tha
hali nyane
Se bo
ĠT oantÅ¡o
Mo ru
Mo hato
Ġhlo ne
lla tsa
Ġlo ka
Ġte a
ĠtÅ¡e pile
lle tsi
lle yball
Ġthu nyetsa
ĠBa nana
Ġkho t
lu e
llo tse
Ġfa mo
Ġfa lla
ĠLi ka
ĠLi tsela
ĠSe phe
ĠA F
koa neng
Ġtso hela
ĠN d
ĠN oko
ĠN CC
Ġbatho ng
mpa ne
hala hala
Ġmong olo
Ġthusa ne
Ġtli setsa
Ġlena ka
Li ko
Li phuputso
ĠRa bo
ĠRa sheet
Ġpa te
Ġpa kaha
Ġtsoa loa
Ġfihle tsoeng
Ġlikho qe
Ġbapa lloa
Ġshe bileng
ĠH lokomela
Ġlebo ta
Ġlebo llo
Ġtlha hlobo
Ġlipo la
Ġphaha misitse
Bo the
Bo phelo
Ġoo hle
Ġkhotha lletsoa
Ġqete tse
chi m
ĠF i
Ġkoe tse
Ġipa pisa
Ġsire letsoa
Ġ4 3
Ġ4 4
Ġ4 9
Ġlika rolong
Ġpho ko
Ġkhutle tse
Ġkhetha ng
Ġete letseng
Ġara bele
Ġpe pe
ĠU FC
ĠSo ohle
Ġfeti soa
Ġhlahlo be
ĠMpha ki
Ġbaba tsa
Ġbaba lloa
Ġata metse
ĠTlha bollo
Ġmali ng
Ġboraro ng
ĠPo kello
Ġhlokome lang
Ġpolo kelo
Ġkhotsofa lla
Ġfele tseng
Ġmoja hong
kele li
Ġngoli soa
ĠTo yota
ĠZ wa
ĠTi heli
Ġfo sitse
Ġlitha beng
Ġhlole hileng
Ġlele ka
Ġtsote lla
Ġmabo tho
ĠSa lemane
Ġbule hileng
tjo mose
Ġmole beli
Ġtloaele hang
Ġtsoso loso
ndo wns
baba tsehi
Ġbue lla
Ġlokollo tse
Ġmakhaola khang
Ġboiphe tetso
ĠSebo thoane
Ġmatsoa i
ĠSta rs
Ġrekisoa ng
Ġaroha ne
The pa
Ġboho atata
Ġhokaha nya
ĠMache setsa
Moho kahanyi
Ġeketse hile
Ne te
Ġliphe phetso
Ġmaq alo
Ġphamo lela
ĠTeya teyaneng
ĠVe selin
Ġtloae tseng
Ġbolao li
Ġthoa sa
Ġikutlo e
Ġjare teng
ĠMatÅ¡e kha
Ġlikhoqe tsane
1 1
2 7
A C
A D
E bile
H O
L ile
L SRC
T so
W ASCO
i se
o ns
o peng
t t
u r
u tloa
w o
Ã ł
Ġ lle
Ġ llela
le long
ha nya
lo mong
Ġle se
Ġle tle
re ste
Ġse li
Ġse tle
Ġse nna
Ġse tlamo
Ġse ntse
Ġli tÅ¡a
Ġli liba
Ġli hella
oa d
Ġbo sebetsi
Ġbo khu
Ġmo nko
ĠM ela
ĠM ISA
Ġha mo
Ġma tlotlo
Ġoa ka
Ġsa lletseng
ĠL SRC
ĠMo lo
ĠMo she
Ġn koe
Ġi tela
Ġi sitsoe
si li
Ġme song
Ġme kete
Ġhla ko
ĠLe po
ĠLe tlole
ĠMa didilane
ĠMa nyoko
Mo khahlelo
Mo shanyana
ti loe
Ġbe tla
Ġbe tere
Ġhlo mathi
ki ba
Ġsebe lletse
Ġphe phetso
Ġkho ngoana
Ġkho lise
ĠP FD
Ha a
ĠSe tlo
Ġkha nya
Ġkha ola
Le lapa
Le nane
ĠA i
ĠA l
Ġtso ma
Ġboi khethe
ĠN tsi
ĠN tjelo
beli tse
ea na
ĠR us
ĠBo siu
Ba ntu
Ġpha pha
ĠRa tjomose
Ġlikho erekhoere
pu tsi
Ġbolo kela
oko thi
ĠTÅ¡ oana
ĠH loa
Ġike ta
Ġike tela
Ġtlha selo
Ġhar Ã¡
Ġlito rong
Ġru ileng
Ġliko pano
je ng
Ġkhotha letso
Ġkete ke
ĠtÅ¡oe nyang
Ġetse tse
Ġetse litsoe
Ġithu khubetsa
Ġ201 3
Ġloko ng
Ġloko lisa
Ġbola iloe
Ġlika peso
Ġphu mantÅ¡o
ĠE U
Me tso
Me kha
Ġlike letso
Ġnya la
Ġmoe ta
Ġ5 1
Ġ5 7
Ġhlahe lletseng
ĠTÅ¡e no
ĠTÅ¡e piso
ĠMoe ti
ĠTa a
Ġkenyele tsoa
Ġiphe lise
Ġsehla belo
Ġsebeli sitsoe
ĠNe w
Ġitlho phile
Ġngo lla
Ġhi roe
ĠSu ndowns
ĠPo so
Ġngoa n
Ġhlalose tse
Ġlihlo mathiso
Ġmi lione
Ġitefe lle
Ġmaho sana
Ġtja metseng
ĠUN FPA
Ġlibo ka
ĠAme rica
ĠTho i
ĠTho ta
Ġsireletse hileng
Ġsetse bi
Ġbale hela
Ġpi na
Ġbela etsang
es t
Ġikho lla
Ġnolofa lloe
Ġhopole ng
Ġntla fetse
ĠLeba keng
Ġmenya ko
ĠKolo nyama
rai lle
Ġhokaha na
Ġsephethe phethe
bola i
nkhoa na
Ġboipole lo
Ġliti la
Ġin kela
Ġqholo tsa
Ġmolo ta
ĠtÅ¡abe hang
Ġboito kisetso
ĠLipho to
LE FA
ĠLitho teng
Ġboipa ballo
Ġatolo sa
ĠMalie he
Pe jana
Ketsa halong
Ġkhuma mela
Ġkhapha tsehang
Leba tooa
Ġbaho lisi
ĠMokiti mi
Ġboikhethe lo
6 3
8 00
A na
B S
B u
K A
O D
W A
a s
e be
e tsong
e kiso
i la
i tsoe
n noe
o fo
o nyana
s ke
u ri
u oeng
le a
la mi
Ġe ne
ha ms
Ġho fi
Ġho lisoa
Ġle he
Ġle rumo
Ġle kunutu
Ġba li
Ġba nyane
Ġse ha
Ġse tulo
Ġli li
Ġli betsa
oa hola
Ġbo mong
Ġbo tlotlehi
Ġbo tseteli
Ġmo lisana
Ġmo lumo
Ġmo langoana
Ġea re
ne helo
ba nta
be th
ĠM pa
Ġha nela
Ġha ptjoa
Ġtse kisa
mo hi
ta n
te lli
ma lla
se litse
ĠMo ng
ĠMo tso
ĠMo ea
tla li
to oana
Ġi no
Ġi sitse
Ġi naha
si one
Ġme mo
Ġme kholo
Ġme chine
ro ro
Ġhla joe
ĠMa sa
ĠMa to
ĠMa ki
ĠMa ngo
ĠMa hula
pe lang
Se tho
ĠT B
ĠT seka
Mo keng
Mo kela
Ġq ea
tha biseng
Ġphe kola
ntÅ¡ ebo
Ġboe ta
ĠBa nk
ĠP itseng
ĠP hiri
ĠP LMC
Ġhae lla
che la
ĠLi kereke
ĠSe pi
Ġkha bong
Le na
Le belo
Le tlole
ĠA mo
ĠA ngola
Ġboi naha
Ġtha ri
ĠN khahle
Ġtlo tli
Ma ko
Ġbu soa
ĠBo sotho
Ġpha hlo
mi soa
Ġsi tha
ĠS hu
tlafa tsa
Ġti metse
Ġu tsoe
ĠRa kuoane
Ġpa ra
ĠC lub
Ġfihle tsoe
ni n
koe tliso
Ġfumane hile
thi loe
Ġhloko meli
khoa ne
Ġlitse be
Ġru toe
Ġhlahi soang
Ġkhahla melo
Bo hlo
Ġkhotha le
ĠPha koe
Ġloa nne
Ġlipe long
Ġamo helang
noa ng
wa t
Ġboikara belo
Ġmoholo ane
ĠE a
Ġche belo
Ġche late
Ġmoe ti
Ġmoho ma
Ġ5 9
ĠPa r
Ġlite kong
Ġete lletsoeng
ĠTa ung
us t
thefa tsi
Ġthakho tsoe
Ġja ra
seli tsoeng
Ġboloka ng
Ġkaho hle
Ġhlekefe litsoeng
Ġ0 2
Ġ6 5
Ġitlho ma
Ġlehlo eo
Ġitlha tlho
Ġitlha hisa
Ġmaha e
Ġken ngoe
Ġabe tse
ĠPo ntÅ¡o
Ġlikhoeli ng
Ġsha ptjoa
ĠMale a
hamphani ng
ĠRaba le
Ġiphelisa ng
ĠKi ng
ĠMoko ne
nda rd
kitla ne
Ġtsi tla
Ġtsi tsipa
Ġkoetli soa
Ġlefshoa ng
ĠMohlo mphehi
TÅ¡e po
TÅ¡e betso
Ġbule tsoe
Ġtsoso llo
Ġqha u
ĠPho oko
Ġmongoli si
Po d
Po tso
Ġfete le
ĠSebo che
ĠSta ndard
ĠKolo be
ĠMosi sili
ĠTsi ki
Ġbahlo mphehi
ĠMu kwa
ĠCom monwealth
ĠLN DC
ĠBoi tumelo
Ġlokolo hileng
ĠTlo hang
Ġlikhotha lletso
Ġsela kha
Ġ196 6
ĠLebi tsa
Ġmako loane
Ġanye sa
mosha reng
ĠRase koai
ĠMotla le
Lehla tsipa
Ġfih lileng
Ġmatsebe tsebe
ĠRatÅ¡i ta
ĠManga ung
Majo r
mphu tha
Ġmakhu long
ĠSen qu
ĠAbra hams
Ġlitloa elo
ĠNtla loe
ĠPeo ple
ĠRamoho li
Ġmenyabu ketso
So ohle
ĠLeli ngoana
ĠSetlo joane
ĠTaa soane
ske tball
, ",
C H
M ata
O L
P i
T DC
a nong
c y
d u
e nya
k rai
Ġ lli
ha leng
lo me
lo hile
Ġle tsa
Ġle tlalo
Ġba nneng
Ġba bolai
Ġse e
Ġse ro
Ġse tÅ¡oa
Ġka nna
Ġka bang
Ġbo se
Ġbo ja
Ġbo tona
Ġa hiloeng
Ġmo si
pa tso
ka melo
Ġha le
Ġha hla
Ġre rileng
so leng
Ġma fumahali
Ġma pu
me lloa
te loa
hlo honolo
hlo mphehi
Ġla hlile
Ġn oang
Ġi pi
Ġme re
Ġme qo
Ġme lele
ro eng
ro ss
ĠLe i
ĠLe bu
ĠLe peli
ĠMa re
ĠMa oto
Ġne lehe
pe tlele
fa to
Se sosa
ri s
Mo ha
Mo kho
Ġq alo
Ġbe hoe
Ġhlo hle
ki sitsoe
kha ne
Ġphe lele
tsoa ki
Ġlo kisetsoa
ntÅ¡ oa
Ġte be
Ġte koa
Ġte kong
ĠtÅ¡e tse
the thefatsi
Ġko lla
Ġkho ne
Ġkho eleng
lu oe
lu ngoa
ĠP aba
Ġfa ta
fe ta
Ġhae lloa
ĠLi no
ĠLi tÅ¡epe
ĠLi puisano
ĠSe la
ĠSe fo
ĠSe abata
Ġkha h
Ġkha ba
Ġkha se
Ġkha thala
Le ano
Le tÅ¡olo
ĠA g
ĠN tulo
Ġsu pisa
Ġthe hoe
Ġta nka
Ma pa
Ma fapha
ĠBo le
Ġsi toe
ĠS R
Ġu nneng
ĠtÅ¡oa risa
Li baka
Ġbole pi
ĠRa nta
fo ne
pu tsong
Ġlikolo be
Ġkhu bu
ĠtÅ¡ehe litseng
Ġlipa lami
ĠH i
Ġntlafa tsoe
Ġntlafa litsoeng
Ġru tile
Ġleha no
Ġliko koana
Ġkenye llelitse
ĠJ ona
ĠKa nanelo
Ġqete lletseng
Ġkene lletse
Ġetse tsang
ĠQ o
Ġleka ng
Ġele llisoa
sha sha
Ġamo hetseng
ĠG ar
Ġlikha ello
ĠKo telo
wa nda
Ġmai piletso
Ġbola iloeng
Ġutlo ela
ĠMofo keng
Ġpho ofo
Ġmoho alo
Ġmohla ng
Ġmohla pe
Ġete lletse
ĠBe nin
ĠU krai
ĠRama kong
ĠRama banta
Ġja rete
ĠHla ele
ĠHla lefa
Ġiko ko
ĠTÅ¡i ta
Ġsenye hileng
Ġtheo lelo
Ġketeka ng
ĠtÅ¡oaroa ng
Ġ0 9
Ġlaka lletsa
ĠNa leli
Ġmasi ba
Ġtata isoa
Ko misi
Ġaro loa
Ġmahla sipa
Ġkhutli soa
Ġkhutli setsoa
ĠMohapi nyane
Ġkhotsofa le
Ġ200 5
Ġhlalosoa ng
Ġleqe meng
Ġbehe lla
Ġlemo hileng
Ġkhakha thoa
ga wat
Ġlia tla
ĠPe tlane
Ġkoetlisa ng
TÅ¡e be
Ġimo lla
Ġhula nya
ĠLehlo enya
ĠUni Pod
ĠtÅ¡epe tse
tÅ¡oe neng
Ġchechi soa
Ġsebelletsa ng
Ġitho khu
ĠMoja khomo
Ġtotoba litse
Kho eli
ĠPoli hali
ĠmatÅ¡olo ng
ĠMosi to
ĠMosi moli
ĠThi nyane
ĠTÅ¡o oana
ĠJapa ne
Ġbebofa letsa
ĠNta o
ĠNta te
Ġikamaha nye
Ġlifo to
ĠMache li
Ġfere ha
ĠLebe ko
ĠRali ko
Ġliteropo ng
ĠMokhe si
ĠKoa li
ĠVi ctor
ĠThu so
Ġthabi sitse
Ġshasha rile
Ġkaro loana
nse tere
Ġleho ja
reka bishopo
hatholi ke
Likhetho ng
ĠHaleo koe
Kete kelo
ĠTele com
Baa hi
Ġtletle ba
Ġine hela
ĠSeme na
Nta te
Ġqheka nyetsa
Ġmefere fere
ĠJubile e
Lipa tlisiso
ĠMpu ti
ĠAF CON
utloa li
ĠManyoko le
ĠUkrai ne
ĠRamakong oana
ĠHlalefa ng
gawat ts
% ).
1 2
3 6
3 000
? "
H lo
M u
M CC
N tho
P alo
P ela
R FP
R SL
S C
i ti
k m
m g
n koe
p ment
t j
u gh
v elo
Ġ 00
Ġ roala
Ġe so
Ġe fela
ha pa
Ġho helang
Ġle to
Ġle bane
Ġle fo
Ġle bela
Ġba ha
Ġba hahlaoli
re meli
Ġt jotjo
Ġse ki
Ġse nngoa
Ġse kisetsoa
Ġli olompiki
Ġka lima
Ġbo pe
Ġmo khachane
Ġmo riana
Ġmo koloko
he llo
Ġo etse
be letsa
ko ele
Ġma mele
Ġma tjo
Ġma nyalo
me ro
Ġp oela
hla na
ke nana
ma s
Ġsa lang
Ġsa llang
ĠMo fe
ĠMo fi
ĠMo suoe
ĠMo bishopo
ĠMo Afrika
Ġi che
si mo
Ġme tje
ro n
ro thole
Ġhla bela
ĠLe kola
ĠLe kitla
po rt
ĠMa kho
ĠMa ku
Ġne pe
hi p
ĠB ona
fa tsoa
Se tereke
Se babatso
Mo ke
Mo ra
Mo khoa
ti ba
ti loeng
tha ng
Ġhlo tsoeng
Ġhlo llang
Ġhlo mp
Ġlo ho
Ġlo polla
nya tsi
the r
Ġko kelong
lle litseng
Ġnaha nang
Ġthu pa
Ġkho lang
Ġkho kahanyo
llo eng
ĠLi be
ĠLi kha
ĠLi tÅ¡ebeletso
ĠLi keleli
Ha ntle
ĠSe si
ĠSe rvi
Ġkha nyetso
Ġkha rafu
Le fa
Le oto
ĠA U
ĠA ust
ĠN ke
ĠN tsu
Ġthe kong
ĠR E
ĠR wanda
Ma i
Ma po
pi ng
Ġleng oe
Ġmong oaha
Ka holimo
Ġbu loe
Ġbu leha
Ġ1 000
ĠBo sebeletsi
ĠBo hahlaoli
Ġpha te
Ġkopa nngoa
Ġro ka
Li q
Ġbole loang
Ġpa kile
Ġpo li
Ġqe pha
fi loe
tu oa
Ġqa leho
Ġqa bana
Ġlina la
Ġhloka hetseng
Ġseng ata
Ġbolo kiloe
ĠtÅ¡ehe tsana
Ġbapa llang
ĠH le
bu rg
Ġfu pu
ĠD o
tlho bo
Ġkhotha tsang
Ġnepa hale
ĠKa o
Ġliq ho
ĠtÅ¡oe roeng
Ġetse tsoe
ĠF okothi
Ġamo ha
Ġlikha thatso
ĠTona kholo
ĠKo ranta
Ġbola ileng
Ġlefu ba
Ġbaa mani
Me tse
Me tsi
Me sebetsi
Ġlike tsong
Ġlitlho phiso
ĠPa ul
Ġlite boho
Ġpe n
ĠBe sele
Ġbi na
Ġhloa hloeng
Ġbopaki ng
ĠTe fo
Ġpuo ng
Ġlithethefa tsing
mello e
ĠTÅ¡i tso
Ġsehla ba
Ġtheo hetse
Ġata me
Ġkhethe ha
Ġsiti loeng
Ġtlale hiloe
Ġlie tsa
Ġmoa hisane
Ġbolaea ng
Ġlefe lloeng
Ġpotla kisetsoa
Ġboka ka
ĠMaha se
Ġmahlo mola
ĠCo moro
Ko panong
Ġbopha tÅ¡oa
wana zi
ĠKe nya
Ġbaru i
Ġhu lela
Ġj ela
Ġito kisa
ĠTi eho
ĠCa mero
Ġhaka na
ĠMatla li
Ġborokho ng
Ġlitha hasello
Ġbahla bolli
Ġlao le
Ġhana na
Ġitla mme
Ġje oa
rg ent
Ġmao ba
Male bohang
Ġlibe ha
Ġleoto ng
Ġsefu beng
qu suoa
Ġikho po
Ġikho pola
ĠUni on
Ġrekisetsa ng
ĠMoro kole
ĠtÅ¡epe tsoe
Ġmatha teng
ĠJo ha
Ġphara lletseng
Ġnga la
Ġlikhakanyo ng
Ġmeo kho
ĠTsa ma
Ġhlokomele hile
Tlha hiso
Ġnyaha misa
202 4
Ġboitlho mpho
Ġlebi tleng
Ġphatlalla litse
ĠLiko tsi
bisho p
Ġphethaha tse
Ġmerafo ng
eme nt
Ġmahlako reng
ĠLN OC
ĠLN BS
ĠMoho kahanyi
Ġhati kela
Ġfokotse hile
ci s
ĠtÅ¡oari sane
ĠMara be
Man thabiseng
Ġlimi lione
ĠSefa li
Ġ198 6
laba ta
ĠMoi loa
ĠDe velo
ĠMora peli
Ġsete rateng
kunya ta
hatholi ki
ĠMakoe tje
ĠLitÅ¡i tso
Tl hekefetso
Ġfura lla
ĠTru mp
Ġlingo loa
ĠAd v
ĠFre e
Ġsetu long
Ġlikara bo
ĠMela to
ĠRus sia
ĠHloa hloeng
sione r
ĠMaki binyane
ĠMukwa shi
Ġmapu tulo
Ġmere bele
Ġmohoalo tso
Pela elo
Ġmatjo ing
Ġpoela no
Ġmetje ko
ĠComoro s
ĠCamero on
ĠDevelo pment
2 1
2 2
3 8
7 00
A BC
E SCO
N O
N ka
R A
a rs
f fa
n tso
n ki
o si
v u
y o
Ġ ts
ho mphutha
Ġe pa
Ġe bileng
li c
li me
Ġle sa
Ġba loa
Ġli la
Ġli che
Ġli fofane
Ġli koetliso
Ġka bong
tse hile
Ġbo q
Ġbo tha
Ġbo kuli
Ġa khang
Ġmo khothaletsuoa
Ġmo cheng
tsa nyane
he leng
be long
ĠM kh
Ġha tisa
Ġre ne
Ġre koe
Ġma se
Ġma tÅ¡oe
Ġma tlung
me nte
ma meli
ma mpoli
ma tlafatsi
se tere
se thunya
ĠL u
ĠMo lete
ĠMo sha
ĠMo ye
ĠMo khutlisi
ra liphatlalatso
to ko
Ġi polesa
Ġi tjoe
bo she
Ġme ea
Ġme naha
Ġme gawatts
ĠLe qha
ĠLe sia
po ne
ĠMa hle
Ġne pile
Ġfe lang
Ġfe llang
pha tla
pha thi
pe r
oe tsi
ri lla
Mo ko
Mo ja
Ġhlo ela
Ġphe ha
Ġphe phethe
Ġte kela
phe n
the be
lle ha
ĠBa ba
ĠBa taung
Ġkho nang
nye tsoa
ĠbontÅ¡ oa
ĠSe fu
ĠSe utloali
Ġkha n
ĠA sso
ĠA tang
ona ld
Ġtso soa
Ġtha ka
Ġtha hase
Ġtha belang
Ġthe tsa
Ma tÅ¡e
Ma tlho
Ġsebetsa ne
ĠBo nga
ĠBo ys
loe s
ku nyane
Ba hlanka
Ġtlho ekiso
Ġro ha
Ġti ngoa
Ġchelete ng
Li ta
Li palo
Li tlolo
Ġpa kang
hoa nto
ĠC ross
fi ka
fi ni
fi shi
Ġkhe lo
lletsa ng
Ġra pa
Ġra mo
tloa no
tloa neng
Ġkhu tso
Ġlipa le
tÅ¡oa eli
tlala tso
Ġtho ba
ĠD IFA
Ġlipo lo
Ġhlahi sitsoe
Bo raro
Ġfeto loe
Ġbobeli ng
ĠKa nono
ĠtÅ¡oe la
nyo ra
ĠF er
ĠF ran
ĠKo tsoane
Ġmafu belu
Ġtu long
ane la
mpo l
Me khoa
hekefe tsong
Ġche ss
Ġhloe ka
Ġmoho peng
ĠtÅ¡ire letsa
ĠPa kiso
Ġbosholu ng
ĠPhe ello
Ġlite raka
Ġara joa
Pu ong
ĠTa mpane
Ġno nyana
ĠRama rothole
Ġhloa uoa
Ġhlahlo bela
Ġiphe to
ĠTÅ¡i lo
ĠBu ffa
Ġipabo lang
ĠW est
Ġhlekefe litsoe
Ġkomiti ng
Ġ0 8
Ġtlale hile
Ġlie hile
Ġlife fo
Ġitlha losa
Ġpotla ke
Ġmaha hapa
Ġtlatse letsa
Ġnyolo he
Kamo ra
Ġlate lla
Ġkhotsofa tse
Ġkhotsofa tseng
ĠQa la
Ġngoli sitse
ĠLebo ea
Ġhu lang
mu oa
Ġfo le
Ġfo romo
ĠMoko tjo
mphe te
Ġane tse
Ġbahla ba
ĠLeha na
ĠLeha ta
ĠtÅ¡oenye ha
Ġmehla leng
Ġpholo ho
ĠPe ter
ĠPe shoane
Ġhoe bisa
Ġhoe bang
Ġikopa nye
rali a
Ġqha loa
Ġphetho ho
Ġballoa ng
Ġhlophi sa
Ġkala neng
kau bere
Ġmathe la
Ġipha panyetsa
Ġqhe ke
ĠLipha pang
Ġmatsoa lo
Mona moli
ĠSta te
ĠSta dium
Tha bo
Ġhoke loe
Ġmehloli ng
Pha tÅ¡oa
Ġsoa bile
ĠCom mis
ĠRale bitso
Ġboho be
Ġipe hetseng
ĠMabi ta
ĠMakhoa khoa
Phe toho
Ġboipela etsong
ĠMoti nyane
Ġboitha opo
Ġmeeli ng
Moho o
ĠTebello ng
ĠSpo rt
Ġleli boho
ĠKoa labata
Ġliti koloho
Ġsusume tsoa
Ġsusume tsang
Joalo ka
Ġitu kisetsa
ĠtÅ¡oaetsa nang
Maka tleho
Mohlo mong
ĠLebi na
ĠLise ma
Ġbake lang
Makho tso
ĠJoa chim
Ġarabe loa
Tu mellano
ĠMotÅ¡e remeli
Ġlokele hang
Ġkhobo kane
LC A
Ġutso itse
Ġngongore ho
Malie pe
ĠKhi ro
Ġfelehe tsa
Su perintendent
Ġitokise tse
Ġbatlisi sa
Ġseno tlolo
Mola oa
GC S
ĠLete te
Ġhlobo lisa
Ġsimo lla
ĠSpe ars
Thu pelo
Ġthele fishi
Ġmabi tla
ĠSeba pala
ĠMosebe tsane
Ġinoe sa
ĠLika mano
ĠSephe tho
Ġhofi hlela
Ġboinaha no
Ġtsitsipa no
Ġqhau tsa
ĠMare tlane
ĠGar me
ugh ty
ĠAust ralia
Liq holotso
Ġlietsa hala
NO KA
ĠMoye ni
ĠLeqha shasha
rilla s
ĠAsso cia
ĠBuffa loes
% ,
3 3
7 0
7 5
A M
A U
B eng
C U
E aba
K i
K he
K oe
K olo
N tsie
O na
R uri
e pane
h liso
i tu
i setso
k hi
n ile
s kara
Ġ co
le lloa
la belang
Ġe mong
ha skara
Ġho lo
Ġle metseng
Ġle shano
Ġle nyora
Ġba t
Ġba kha
Ġba pali
Ġba chochisi
Ġm p
re li
Ġse fe
Ġse mathi
Ġse roala
Ġse lia
Ġli tl
Ġka lo
Ġka limo
Ġbo lisa
Ġmo tÅ¡ehetsi
Ġmo roho
ne ral
ba keng
ĠM phu
ka moso
ko bo
ko ena
Ġma na
Ġma tse
Ġma soabi
tho n
ta li
ke tla
se hang
Ġna mane
ĠMo so
ĠMo che
tla mi
Ġn tsa
Ġn thu
Ġn tja
ra de
Ġi tsoe
bo koane
hu ng
si moli
Ġme ke
Ġme dale
ĠMa nya
ĠMa khe
ĠMa nd
ĠMa rasi
ĠB er
ĠB haskara
Se khahla
ri so
ri sang
Mo le
Mo kete
Mo thehi
ti a
Ġhlo pha
Ġhlo kile
Ġphe tseng
ntÅ¡ eng
Ġko b
Ġko ptjoa
lle tsong
ĠBa tÅ¡oaruoa
Ġkho le
Ġkho lla
ĠP ele
ĠP resident
Ġfa lli
ĠLi ba
ĠSe bi
ĠSe oli
ĠSe kete
ĠSe nyesemane
Ġkha ti
Le khetlo
Le khotleng
ĠA r
ĠK ele
ĠN cha
ĠN tÅ¡a
Ġtlo long
Ġtlo tlisa
Ma ke
Ma te
Ma ja
Ma lapa
sho p
Ġbu oa
ku ku
ĠS halane
tlha re
Ġqo qa
Ġling oli
Ġti ile
Ġu tsu
ĠtÅ¡oa bo
ĠtÅ¡oa uoa
Li khoebo
Li tÅ¡ebeletso
ĠRa fone
Ġpa tala
pho letsa
ĠHa kane
Ġphethe le
Ġqe tileng
setsa no
Ġra toang
pu leng
Ġtsama ileng
Ġkamor Ã¡
Ġntlafa lo
Ġleba le
Ġike mele
shoe tla
Ġlebo he
Ġlebo llong
Ġlitse beng
Ġpu tlama
ĠD MA
Ġkhotso fatsa
Ġbai kiti
ĠtÅ¡oe tse
Ġkene tse
Ġlipe to
Ġmola la
Ġmola oana
wa rd
Ġphetha hetse
Ġlitla tse
Ġlahle ha
Ġphu ra
Ġpho qa
Ġpho pholetsa
Ġkhutle lang
Ġmatlafa la
Ġmatlafa litse
Ġnya ku
Ġnya mella
Ġche soa
Ġmoe tsi
Ġmoho kahanyi
ĠPa sane
Ġpe ipi
ngoa neng
Ġkenyele litse
Ġhlaba ng
ĠRama ka
Ġhlahlo joe
ĠTe nte
Ġiphe tela
ĠMpha rane
Ġphatlala litsoe
Ġphepo ng
ĠRe filoe
Ġtlale he
Ġlie ma
Ġlaka litse
Ġmoa mani
ĠNa ughty
Ġ6 2
Ġ7 2
Ġmali mabe
Ġngo tse
bala la
Ġlefe ela
Ġpotla kisa
Ġ15 0
Ġlahleheloa ng
Ġeme loa
Ġipo pa
Ġipo laea
Ġboloke he
Ġmatho ko
Ġboke lle
Ġboke lletse
DC EO
Ġika mo
Ġhlokaha lla
ĠNtÅ¡e khe
Ġhe ma
ĠtÅ¡o hloa
Ġtoboke litseng
Ġbaru ti
CO SAFA
Ġlifa to
Ġkeke tseho
ĠThe sele
Ġlume lloang
Ġseke pele
ĠntÅ¡etsa pele
Ġboha leng
Ġmapa ki
Ġlitha po
Ġlitha pelo
ĠMote ne
ĠMote te
Ġraro lloa
Ġlibo ko
tÅ¡oane lo
ĠHlo melang
Ġtlalehoa ng
Ra ma
Ġbale beli
Ġnolofa lloa
mbe r
Ġliho reng
Ġithe ke
Ġ199 4
ĠFo so
Ġphunyele tse
Ġlipi lisi
Ġhate lla
Ġkhiro ng
ĠFu neral
Ġnyaha ma
Po lelo
do m
Kho tso
rama tsete
ĠMose nene
ĠNtha ne
Ġlira fshoa
Qo song
Ġthefu leha
The ko
ĠMakhoa li
ĠlitÅ¡enye helong
Ġfokotse he
Ġboitha telo
ĠNkha bu
ĠJe su
Ġtoti ng
ĠtÅ¡oaro eng
Ġmoketja na
Ġlefifi ng
Ġseko ele
Ġseko ti
ĠTlho mola
ĠGo mes
ĠitÅ¡oa rela
Ġlitoropo ng
ĠMake nete
Ġshasha ra
Ġrupe loa
ĠCho bokoane
Ġmakho ba
Ġnyaka lletse
Ġese re
ĠSou ru
Ġmata mo
Ġsusumeli tsoe
Ġsusumeli tseng
Ġsebele litseng
rou nd
ĠWi lli
Ġkhekhetha ne
Ġkhahlame tsoa
ĠLesu tu
ĠNtÅ¡o nyana
ĠSco tt
Ġitoa nela
Sebo ka
Moru ti
Ġpara fini
lome thara
ĠPaba llo
ĠJona se
ĠRaliko nelo
Ġleto to
Ġlefo fo
Ġbotha teng
ĠMkh wanazi
ĠBonga ni
ĠCommis sioner
GCS E
itu metse
ĠRafone ke
. .
C L
N o
N khono
P uso
Q eto
S F
d ro
g y
g ue
j ele
o d
o tho
o lang
s ca
u i
w ela
z ola
Ã ©
Ġ chochi
la ni
Ġe tseng
ha na
li pa
li sitse
lo vu
Ġle tsete
Ġle tÅ¡eare
Ġba tsi
Ġba nya
Ġba tli
Ġba tleng
Ġba tsoetse
re tsoe
re en
Ġse bu
Ġli vo
Ġli tlama
Ġli tsu
Ġli matlafatsi
oa i
Ġbo koetlisi
Ġbo tsana
Ġbo nono
Ġbo piloe
Ġa joa
Ġa fe
Ġmo be
Ġmo ena
Ġmo qo
Ġo li
be lli
ka karetso
Ġha piloeng
tso sa
Ġre koang
Ġma rotholi
Ġma qu
Ġma selese
Ġf olo
mo lao
mo song
ta ry
te tse
ma selese
hlo mpho
Ġla bo
Ġla pileng
Ġla pisa
ĠMo cha
ĠMo sali
ĠMo tsie
ĠMo lumo
ĠMo tiki
ĠMo khele
ĠMo soeu
ĠMo tÅ¡oene
Ġn tsi
Ġi me
Ġtla maha
Ġme tha
Ġme leng
Ġme riting
Ġhla ma
Ġhla kola
ĠLe tÅ¡
ĠLe si
ĠLe che
ĠMa tse
ĠMa hali
ĠMa pho
ĠMa qa
ĠMa nda
ĠMa tÅ¡eliso
ĠMa utloela
ĠMa koto
ĠB ela
Ġfe lisoa
Se baka
ĠT ea
ĠT hoa
ĠT lela
Mo sotho
Mo hlankana
Mo nga
Ġbe o
Ġhlo phe
Ġhlo koa
Ġhlo loang
Ġsebe lelitse
Ġsebe letsoa
Ġphe letso
Ġlo tho
Ġte re
ĠtÅ¡e hali
ĠtÅ¡e loa
the hong
Ġko llang
Ġkho ro
Ġkho lisa
Ġfa lime
ĠLi ntle
Ġkha tiso
Ġkha hloe
ĠA rea
ĠA ction
Ġboi kha
ĠK h
ĠK u
Ġtha beng
Ġtha pelong
ĠN tse
ĠN ti
bi llione
Ġthe kisong
ela ne
Ma tona
Ma ntÅ¡ebo
Ġbu ele
Ġbu uoe
ĠBo bolu
Ba ng
Ġtli sitse
Ġro be
Ġlu melloe
ĠtÅ¡oa nela
ĠtÅ¡oa ntÅ¡iso
Li n
Li ka
ĠHa sha
fi keng
Ġliba nkeng
pu si
pu tsoa
ĠMase terata
Ġen ta
Ġmora long
ĠtÅ¡ehe tsong
Ġbapa loang
Ġshe bele
Ġntlafa tsang
bu nyane
ĠI sa
Ġtho le
Ġtho ta
Ġlipo ntÅ¡o
Ġ3 00
Ġru ile
Ġliko panong
Bo sholu
Ġkhotha tso
hetse ke
Ġetse tsoang
ĠF or
Ġkoe tla
Ġkoe tlisi
ĠPha kisi
Ġipa ta
Ġele tsoa
oto n
ĠG er
ĠG round
Ġlikha fa
noa ne
Ġtu mme
Ġtu mmeng
qe o
qe ko
qe qeko
Ġbola oang
Ġ4 00
Ġlika ro
hoe be
Ġkoa lletsoe
Ġmatlafa tse
Ġ5 4
Ġhlahe llang
tja na
Ġete letse
Ġpe te
Ġhopo tse
Ġhopo lang
ĠMoe ketse
ĠTa kali
ĠPhu sumane
Ġno ele
Ġno nyetsa
Ġfeti se
Ġithuta ng
Ġnke tse
ĠMohale s
Ġkaho lim
she li
Ġata meloa
Ġkhethe loe
qhe e
qhe ku
Ġlino nyana
Ġ0 1
Ġ0 5
Ġku lang
ĠO MI
Ġ6 4
Ġngo le
Ġbolaea na
Ġlokisa ng
Ġpotla kele
Ġboka mosong
Ġhi rile
Ġeke tsoe
Ġkhi tla
ĠntÅ¡a ng
DC O
ĠKha u
Ġ8 00
Ġteke netse
Ġpolo ko
Ġfele tsoe
ĠfumantÅ¡ oang
Ġ200 2
Ġ200 4
ĠTo wn
Ġkhothalletsa ng
Ġikha pe
Ġmi lone
Ġmi llion
mu nye
Ġkeke tso
Ġbehe lletsoe
Ġfo no
Ġotla ng
Ġsireletse hang
Ġimo ne
Ġtete mang
Ġikho lisa
Ġikakhe le
Ġnkoa ng
Ġphunye lletse
ĠtÅ¡epe tsoeng
oane lo
Ġphara latsa
Ġmpho hali
Ġphetho a
ĠSeli a
Ġ199 8
Ġitho ka
Ng oahola
Tha ba
Tha pelo
ĠKolo i
Ġkhefu tsa
ĠMose na
tÅ¡ire letsi
ĠTsi etsi
ĠtÅ¡oane lo
ĠCH E
Ġmeho o
ĠtÅ¡epaha lle
Kha ho
Ġmasapo ng
ĠY o
Ġletse tsoa
Ġbaballe ha
Ġki ki
Ġboite balo
ĠSekho nyana
ĠSekho hola
Ġipu sa
ĠNg aka
ĠtÅ¡oaetsa neng
ĠTja tja
Ġbelaelloa ng
Ġhaha malla
Ġtsejoa ng
Ġnate fe
ĠLise meng
kunya pane
ĠMothe tjoa
ĠMok halinyane
ĠAma nda
Ġnchafa tsoa
Ġemi soa
Ġalo sitseng
Ġotlo lla
ĠSte phen
Ġala fshoa
ĠMore moholo
Ġikitla etsa
Moi fo
ĠCent re
ĠCent ral
Ġsese pa
Ġsekho bo
Ġputla meng
ĠLihla piso
ĠMota nyane
ĠBoro tho
ĠBoe meli
ĠTra ns
Ġboithu so
Ġvo lleyball
Ġhamo nate
Ġlili beng
ĠBole pi
Hlo oho
ĠServi ces
Ġfupu tsa
Ġboq hetseke
ĠmatÅ¡oe nyeho
Lita beng
ĠFran cis
Ġthelefishi ni
ĠGarme nts
Koe tliso
Kolo i
Ġbakha nni
Ġliema hale
Ġbanya lani
Ġlivo utu
Ġlitsu onyana
ĠLeche sa
ĠMakoto ko
ĠThoa hlane
ĠHasha tsi
ĠTakali mane
1 500
2 3
6 00
A R
E sale
E DCO
L A
P ro
S D
T E
T O
b lic
e w
f ele
k reste
n no
o ce
p h
p tjoe
t ra
x y
la xy
ha noe
li ra
Ġle pe
Ġle mang
Ġle shoetla
Ġba pha
Ġba kileng
Ġba pisa
Ġs hoe
Ġm uso
re semese
Ġt ele
Ġse sa
Ġse tlhare
Ġli thi
Ġbo fe
Ġbo noe
Ġbo tata
Ġa a
Ġa ngoe
Ġa tileng
Ġa mmeng
Ġmo ele
Ġmo qhaka
Ġmo roro
Ġmo qusuoa
tsa no
Ġea ne
Ġo kha
ba lla
pa ro
be i
ka ota
Ġha piloe
Ġtse biso
ko pa
ko se
ko reng
ko melo
Ġma lo
Ġma metse
Ġma poleseng
Ġma nyesemane
mo tÅ¡oaeli
Ġp hi
Ġp residente
ke t
ma peng
ma katso
Ġsa lletsoe
Ġna tsoe
ĠMo koe
ĠMo bu
ĠMo seli
ĠMo presidente
tsi tseng
tla ng
Ġn tha
bo li
bo long
bo siu
hu bu
Ġme k
Ġme ha
Ġme khelo
Ġme tale
Ġme lomong
Ġhla pho
ĠtÅ¡ olo
no ko
ĠLe tsa
ĠLe loko
ĠLe luma
tlo e
ĠMa tu
ĠMa anela
fa tsi
Se hlo
Se sole
ĠT sha
Ġhlo lang
Ġphe lisoa
Ġlo kisitsoe
ĠtÅ¡e tiso
nya li
the tsa
Ġko lu
ĠBa i
Ġkho thetse
tÅ¡e betso
nye ng
Ġtl hekefetsong
ĠLi a
ĠLi ra
ĠLi hoai
ĠLi ue
ĠSe hong
Ġkha nyang
ĠA nna
ĠK la
ĠK hali
ĠN on
ĠN ye
ĠN RA
bi loeng
Ġthe peng
Ġtlo tse
Ġta boha
pole lo
ĠR oad
Ma ha
Ma thata
Ma tÅ¡epo
Ġleng ata
Ġbu sang
Ġbu kana
ku oa
Ba ru
Ba bu
Ba tlotlehi
Ba hoebi
pele ng
Ġkopa nela
Ġlitaba tabelo
ĠS wi
Ġro me
tlafa tsong
Ġti isi
Ġu nang
Ġu tsuoa
Li te
Ġbole loa
Ġpa qa
Ġpa nnoe
fo r
ĠHa ntÅ¡i
hoa li
Ġqe nehelo
Ġtlil Ã³
Ġtsoa lla
su pi
ni a
Ġbatla tsi
tÅ¡oa reli
ĠH e
ĠH ua
Ġleba toa
bu ka
Ġhabo nolo
Ġlipo so
ĠMe t
ĠMe ja
hale hang
Ġkete kela
ĠtÅ¡oe u
Ġmaba keng
Ġkene tseng
ĠQ halehang
Ġfoko letsa
Ġithu tela
ĠtÅ¡i mong
Ġamo hetsoe
Ġlebe lloa
Ġlebe lletseng
Ġlebe nkele
Ġutloa hale
Ġbola cha
Ġlahle loa
Ġlahle hetsoeng
Ġsehlo hong
Ġliphoofolo ng
khu ni
Ġboikarabello ng
Ġsheba ng
Ġpho nyo
ropo li
Ġ5 8
Ġhlahe letse
Ġboo tloane
ĠTÅ¡e hla
ĠPa kali
misa ng
Ġpe ke
tsu mi
Ġcha tsi
Ġcha isa
Ġbi tsitse
ĠMokho ema
Ġncha fatso
ĠTe kane
Ġlumella neng
Ġmale lele
ĠloantÅ¡a na
Ġame he
Ġofisi ri
Ġsenye nyane
Ġtii soa
Na lane
ĠRe itumetse
Ġholisa ng
Ġsebeli sitseng
Ġlino keng
Ġite bala
Ġholi se
Ġku tloano
Ġutloisi si
Ġ6 9
Ġkopane tsoeng
Ġ7 6
Ġ7 9
Ġitlho mmeng
Ġmetso fe
Ġboro ko
Ġngo loa
Ġboka e
Ġeke letsoa
Ġbape pisi
ĠMaha pa
Ġnyolo hileng
Ġkhi ba
Ġipo tsang
Ġipo naha
Ġmaka lla
Ġmaka tsoa
tÅ¡o ele
Ġhlahla ma
Ġhlahla ngoa
ĠKe ketsi
Ġqoso e
Ġikha ntÅ¡a
ĠSA CU
ĠMakha bane
ĠtÅ¡epa halang
ĠRo tary
ĠRamo hanoe
ĠMote bang
Ġsiea ng
Mase ru
ï»¿ ï»¿
ĠUN ESCO
Ġlebele tseng
ĠSi wela
ĠTho lang
TÅ¡e beliso
Ġlibe se
Ġbule loa
Ġhlahle lloa
Ġphuthe hong
Ġnana beletsa
Ġnolofa letsa
Ġnolofa lletsa
Ġshoa laneng
Ġ199 3
Ġkhethi sa
ĠFa latsa
ĠMaso we
202 3
ĠMi llione
Ġmea hong
Ġmotso ka
Ġmotso tsong
Ġmenye tleng
ĠtÅ¡epi sitsoe
Ġhlase lang
ch bishop
Ġsoa bi
ĠMohla koana
ĠBi shop
ĠTsi koane
ĠMoho kare
Ġtsitsi sa
Eka ba
ĠLea gue
Bai tÅ¡okoli
Ġlifo no
Ġmoru ti
Ġlokolo hile
Ġbara ti
Ġsethiba thibane
Ġlimi llione
Ġlimi lone
ĠDa vid
ĠSele kane
ĠGo rillas
ĠMou nt
ĠMpe sa
ĠLekha nya
Ġkaro hano
Ġitha o
ĠMoru ti
ĠBolo etse
Ġboito kiso
Ġmeba raka
Ġsisi nya
Ġbitse tsoa
Ġkhobo kana
ĠSou lo
Ġc hoa
Ġroa lla
Malie pollo
ĠMape sela
ĠPolo keho
ou th
Ġita hlela
ĠMafu be
ĠQho boshe
Litse la
Ġakhe la
ĠTloko tsing
Ġnyaro sang
loba l
ĠLetla tsa
ĠNku ebe
ĠtÅ¡oha nyetso
lomi thara
ĠZwa kala
ĠTÅ¡eno la
ĠThota nyana
Ġtsitla llela
ĠMotlale pula
Ġmeqo mo
Ġkhaba reng
ĠtÅ¡oarisa neng
Mu ela
Ġloho tha
ĠSesi oana
Mai kutlo
ĠTsama iso
Ġitjoe tsa
ĠAssocia tion
Ki ck
ĠBhaskara n
ĠLiba esekele
ĠWilli am
ĠTlela se
Ġmoele lo
ĠMatu keng
ĠTsha balala
ĠPakali tha
3 7
3 9
4 1
4 6
4 8
B AP
E ona
G OA
H TC
L t
T sa
T aka
T eboho
V odacom
a nga
e k
e neng
i ty
l gi
n ce
o t
q oko
t che
ho lla
la s
la se
ha e
li ni
li sh
lo he
Ġle metse
Ġle eme
Ġba n
Ġba lisa
Ġba lang
Ġm pha
Ġm peng
re ko
Ġt je
Ġt luoa
Ġse jalo
Ġse khele
Ġse oeso
Ġli tona
Ġli polelo
Ġka lla
Ġbo tse
Ġa li
Ġmo sa
Ġmo tsoa
Ġmo hatsa
Ġmo sing
Ġmo fani
Ġmo hlolohali
Ġmo hoanto
he letso
ne sa
Ġo tle
be se
ĠM da
ka be
ko m
ko ko
Ġre hoa
Ġre kisetsoa
Ġma qa
Ġma mellano
Ġma tala
Ġma melang
mo hang
mo nd
me tsi
ke li
Ġsa letseng
se kele
hlo ng
Ġna mo
ĠL A
ĠL ua
ĠL TDC
ĠMo qosuoa
ĠMo siu
ĠMo babatsehi
Ġn q
Ġn kiloe
Ġn tloaneng
ra ndo
to ria
Ġi phile
Ġtla tsitse
bo ne
bo fa
bo lla
bo heng
Ġme si
Ġme kitlane
ro la
ro ja
ro je
kho e
Ġhla hetse
Ġhla simo
ĠLe thoko
po te
po residente
ĠMa pa
ĠMa mo
ĠMa ri
ĠMa khotla
ĠMa fumahali
ĠMa kala
ĠMa raka
ĠMa mello
ĠMa da
ĠMa thole
ĠMa kunyapane
ĠB raille
Ġjoa leng
tle li
Se sotho
ĠT hala
ĠT aba
ĠT umane
Mo ta
Mo kha
Mo shoeshoe
Ġq hoa
Ġphe ti
Ġphe lise
Ġlo kile
ntÅ¡ e
Ġte kileng
the le
the loana
Ġko nyana
lle lo
lle tsoang
lle litsoe
Ġboe melong
ĠBa fokeng
Ho ba
Ġfa telang
che lane
ĠLi e
ĠLi lala
ĠSe pa
ĠSe thala
ĠSe qhee
Ġkha lemo
Ġkha kolo
Ġkha ntÅ¡a
Ġboi meng
ĠK um
Ġtha kali
ĠN khe
olo e
bi la
bi si
bi loe
Ġthe hileng
ja batho
Ma fu
Ma polesa
Ma mpho
Ma she
Ma hlompho
Ġto koloho
Ġto kisong
Ġleng openg
Ka hlolo
Ġbu elloa
Ġbu elella
ĠBo mpoli
Ba nka
tli loe
mi ng
mi setsa
Ġtli sitsoe
ĠS oai
Ġro metse
Ġqo lla
Ġling ang
Ġti ea
Ġti ee
Ġti tima
Ġti kolong
ĠtÅ¡oa se
Li jo
Li tlho
Li mpho
Li ntlha
Li jabatho
Ġbole lletsoe
ĠRa tlali
ĠRa pelang
ĠRa puleng
ĠHa li
Ġlin tlafatsong
Ġphethe tseng
ĠC e
ĠC y
ĠC hile
ĠC oton
ĠC ity
su la
tu me
Ġra teng
pu blic
Ġbolo kile
Ġbolo tsana
Ġmang anga
Ġfumane loa
ĠTÅ¡ oanelo
ĠH O
Ġleba toeng
Ġtle la
Ġtho tse
Ġtho tho
Ġtho eng
Ġsebelisa ne
Ġfu tsane
ca l
ĠD onald
Ġru oa
Bo ngata
Ġfeto hang
Ġfeto hileng
Ġkenye lletse
ĠMe dium
nd u
Ġnepa halang
ĠKa tse
ĠKa karetso
Ġkete koe
ĠPha fa
ĠtÅ¡i ba
Ġama ha
Ġlihla hlobong
ĠKo po
Ġkolo fo
Ġkoa le
Ġmatlafa tsang
Ġche fo
phi ri
tÅ¡i ng
Ġboo ki
ĠPa pali
Ġlite fo
Ġmpe fala
Ġara belang
Ġpe iso
Ġkhetho lla
ĠBe lgi
Ġfeti sitsoeng
ĠRama ili
Ġhloa ile
Ġthakho long
Pa ramente
ĠTe tsa
Ġlumella nang
ĠPu leng
ĠPu isanong
Ġnyo llang
Ġphatlala tse
ĠTÅ¡i a
Ġipabo le
Ġbaba tsehang
ĠMohale nyane
Ġsenye he
Na tional
Ġsiti soa
Ġ0 3
Ġ0 4
Ġtlale heloa
Ġku ta
Ġmoa paro
ĠNa za
Ġ7 00
Ġmasi sa
Ġtloa ela
Ġkhi noa
ĠLa olang
ĠLa zola
Ġken tsoeng
Ġ18 24
Ġabe loang
ĠKha ti
ĠKha tleli
ĠPo pa
ĠtÅ¡episa ng
tÅ¡o kuli
Ġlate le
Ġteke nneng
Ġkhotsofa litse
ĠKe resemese
Ġ200 9
SA DP
ĠTo loane
Ġphomo le
ĠMoo pisa
Ġlipha pusi
we i
Ġhu le
mu si
Ġlifa hleho
ĠThe mba
Ġbehe lloe
Ġbehe lletsoeng
Ġsoko le
Ġseke hele
ĠMatla keng
Ġbosu pisi
Ġmoha sula
Ġlibo keng
ĠMole fe
Ġtsi tsa
Ġlia khe
ĠCha ka
ĠCha mpi
ĠHlo phe
Ġpholo ha
ĠMahla pe
Ġje se
ĠTho ola
Ġsireletse he
Ġlenaneo ng
Ġmahafi ng
Ġtete kile
ĠTu misang
Ġpala me
ĠlitÅ¡i a
Ġmabe long
Ġketekoa ng
Ġithe ka
Ġithe kela
Ġhlophi setsa
Ġlipi na
Ġhate lloa
ĠLeba tooeng
Ġamohele hile
ĠMi lle
ĠSebo ka
Ġiqa lle
ĠMakoa e
Kho ebo
Ġsefa teng
ĠMasu pa
ĠLekho ele
Boe meli
ĠMpho song
Ġrutoa ng
Ġreke loa
Ġliketsa halong
Ġmapo tulo
Ġlae tsoe
Ġlim marakeng
Ġipe ha
Ġkhatha tsa
Ġboitha pollo
Ġkhatelo pele
hli loe
Ġima mella
Ġhlapa ntÅ¡i
Ne heng
ĠletÅ¡o llo
Ġmara bele
ĠMokhe hle
ĠMokhe seng
Maba taung
Ġfepe loa
Ġthatafa lloa
ĠTlho pho
Ġhiri loeng
ĠitÅ¡oa ra
ĠSefa pano
ĠGa laxy
ĠtÅ¡oae tsana
ĠSehla ba
Ġnyolle loa
Ġitlhoko mele
ĠAma de
Ġsisi mo
LN OC
Ġbokane loa
ĠEng lish
LC S
ĠChi ef
ĠKhi ba
Su b
Ġtsu ba
ĠHu ni
Bae ti
Ġthunthe tsa
Ġchaba na
SetÅ¡oantÅ¡o ng
ĠTloko tsi
Ġtiti mela
ĠKala ke
Si x
ĠMatha ba
Ġkhot hali
ĠNd lovu
wo ndo
Metso tsong
ĠsetÅ¡oa ntso
Ġmelele le
Ġnelehe tsano
ĠMofe likoane
ĠBona ng
Ġliqho ku
ĠJoha nne
Ġphephethe la
ĠFer rando
Ġipheto tse
tali ana
ĠMand ela
ĠSebi lo
Lekhetlo ng
Maja ntja
sca r
Ġhlama tsehang
ĠMaqa lika
ĠTea m
ĠYo ung
Pro f
nno ro
Ġbotata isi
ĠLiue t
ĠNye nyane
ĠHua wei
Taka tso
ek wondo
ĠLua nda
ĠMosiu oa
bofa noe
ĠMaraka bei
Mashe shena
ĠBelgi um
ĠNaza re
1 50
C a
C hi
D MA
L ona
P ho
Q a
S M
S a
T oko
a pi
e nyana
g ra
i nyane
l son
m pu
n toa
o ma
o pi
o heng
q oane
r k
r ming
t te
z ulu
Ġ jo
le lli
la t
Ġe loe
li koe
li suoa
Ġho hola
Ġle n
Ġle tlo
Ġle reng
Ġle supi
Ġba sotho
Ġba ketse
Ġba shemane
Ġs hopo
Ġm pole
re letsi
Ġt olo
Ġse sotho
Ġse kise
Ġse tisa
Ġse phali
Ġli mela
Ġli jana
Ġli halahala
Ġka mano
Ġka lala
Ġka tlung
Ġbo tleng
Ġa te
Ġa nya
Ġa tile
Ġmo nong
Ġmo hlokomeli
ne tsi
ne peng
Ġo tlolo
ba theng
ba go
be a
Ġha nya
Ġke noe
ko llo
Ġre kiloeng
Ġma khetho
Ġma rato
Ġma tlole
Ġma ketse
Ġma tsoele
Ġma soba
Ġma anong
Ġf or
mo o
me tala
hla pe
ke tseng
te leng
te ndent
te kano
ma ka
ma tsi
ma ny
Ġsa k
Ġsa lle
Ġsa keng
se ha
se tiki
Ġna mme
ĠL GCSE
ĠMo lu
ĠMo koa
ĠMo lomo
ĠMo rai
ĠMo eletsi
ĠMo koai
tsi bolo
Ġn kha
Ġn tÅ¡o
to ng
to loso
Ġi tsama
Ġi tÅ¡o
Ġi soang
bo to
cha el
Ġme ngoa
Ġme tsamao
Ġme suoe
Ġme kaubere
kho oa
kho si
kho sheli
ĠLe ko
ĠLe khoa
ĠLe uta
po ro
po lang
ĠMa tlo
ĠMa ti
ĠMa lu
ĠMa loti
ĠMa khu
ĠMa tichere
ĠMa ll
ĠMa liba
ĠB EDCO
Ġfe fo
Ġfe nsetere
tle ha
pe n
fa lang
hle hong
Se hla
Se thiba
Se tsebi
ri ty
ri el
ĠT l
ĠT su
Mo ruo
Mo rao
Mo roetsana
Ġbe nghali
Ġbe ili
Ġhlo ele
Ġphe hang
Ġlo ea
Ġte ha
ĠtÅ¡e nyeho
phe po
Ġko pileng
Ġko petse
Ġhlalo selitsoe
Ġthu ntse
ĠBa hlomphehi
Ġpele hi
Ho o
Ġkho tse
Ġkho ra
Ġkho roana
ru s
nye litse
ĠP la
ĠP hi
ĠP ola
Ġfa sa
ĠLi makatso
ĠSe tla
Ġkha bile
Ġsena te
ĠA pi
ĠA ce
Ġboi kho
Ġboi tlha
Ġboi eane
ĠK ene
ĠK halane
ĠN che
ĠN or
fu oe
ĠR eli
Ma kha
Ma kala
Ma rang
Ma tichere
Ma teboho
Ġto tile
Ġto kete
Ġleng oa
Ka tleho
Ġbu letse
Ġbu iloe
ĠBo cha
ĠBo menemene
Ba qhobi
Ġpha fa
Ġpha posi
Ġsi ela
Ġsi bollo
Ġtlho keho
ĠS pa
ĠS an
Ġro ri
Ġu tu
ĠtÅ¡oa neng
Li tokelo
Ġbole lle
ĠRa kaota
fo le
fo no
ĠHa bofanoe
Ġpo tileng
Ġqe toe
ĠC h
ĠC ement
Ġkhe ea
setsa na
Ġqa li
Ġqa ka
Ġtsama ella
Ġbolo kiloeng
Ġbatla na
Ġkhu tÅ¡oane
Ġtseba hatsa
tÅ¡oa ri
ĠlitÅ¡e pe
ĠI ns
ĠTha a
Ġtho llo
Ġtho koana
Ġlebo hisa
Ġpu long
Ġpu mp
ĠD PC
Ġru ru
Ġliko to
Ġatle hi
Ġlehla nya
ĠJ ere
ĠMe ndu
Ġeka ng
Ġlijo ng
Ġliq api
lapa ne
Ġqete tsoe
Ġmaba toa
Ġmaba tooana
mella nong
Ġloa nang
ĠtÅ¡i ea
ĠMate bele
ĠG u
ĠG lobal
ĠKo se
Ġlebe tse
Ġlebe lle
Ġlebe llang
Ġmafu ng
Ġkolo eana
Ġutloa halang
ue en
Ġtu lo
Ġtu ka
Ġlahle hile
Ġlefu ng
Ġphu pu
Ġkoa tsi
ĠE co
phu thing
Ġpho liso
Ġmatlafa le
Ġnya loa
Ġnya mele
Ġche le
ntu de
Ġtiisa ng
Ġmohla hlobi
Ġete llang
Ġara betse
Ġpe pa
Ġpe pela
ngoa ne
ĠTa kisi
Ġcha ella
Ġahlo le
Ġahlo loe
Ġahlo lela
ĠSo lane
ĠSo otho
ĠV o
ĠRama the
ĠRama rou
Ġhloa ileng
ĠKho liso
ĠKho lumo
ĠKho zi
Ġ19 5
Pa pisong
ĠPu tsoa
ĠPu lane
ĠMpha sa
Ġphatlala litsoeng
Ġnke loe
ĠW o
Ġtheo le
Ġtheo tse
Ġtheo he
Ġhlekefe tsang
ĠMoha si
Ġkhethe tsoe
thuto ng
Ġ0 6
Ġtlale hiloeng
Ġlie hisa
ĠO l
ĠNa tional
Ġ6 1
Ġ7 1
