{
  "version": "1.0",
  "truncation": null,
  "padding": null,
  "added_tokens": [
    {
      "id": 0,
      "content": "<|endoftext|>",
      "single_word": false,
      "lstrip": false,
      "rstrip": false,
      "normalized": false,
      "special": true
    }
  ],
  "normalizer": null,
  "pre_tokenizer": {
    "type": "ByteLevel",
    "add_prefix_space": false,
    "trim_offsets": true,
    "use_regex": true
  },
  "post_processor": {
    "type": "ByteLevel",
    "add_prefix_space": true,
    "trim_offsets": false,
    "use_regex": true
  },
  "decoder": {
    "type": "ByteLevel",
    "add_prefix_space": true,
    "trim_offsets": true,
    "use_regex": true
  },
  "model": {
    "type": "BPE",
    "dropout": null,
    "unk_token": null,
    "continuing_subword_prefix": "",
    "end_of_word_suffix": "",
    "fuse_unk": false,
    "vocab": {
      "<|endoftext|>": 0,
      "!": 1,
      "\"": 2,
      "#": 3,
      "$": 4,
      "%": 5,
      "&": 6,
      "'": 7,
      "(": 8,
      ")": 9,
      "*": 10,
      "+": 11,
      ",": 12,
      "-": 13,
      ".": 14,
      "/": 15,
      "0": 16,
      "1": 17,
      "2": 18,
      "3": 19,
      "4": 20,
      "5": 21,
      "6": 22,
      "7": 23,
      "8": 24,
      "9": 25,
      ":": 26,
      ";": 27,
      "=": 28,
      "?": 29,
      "A": 30,
      "B": 31,
      "C": 32,
      "D": 33,
      "E": 34,
      "F": 35,
      "G": 36,
      "H": 37,
      "I": 38,
      "J": 39,
      "K": 40,
      "L": 41,
      "M": 42,
      "N": 43,
      "O": 44,
      "P": 45,
      "Q": 46,
      "R": 47,
      "S": 48,
      "T": 49,
      "U": 50,
      "V": 51,
      "W": 52,
      "X": 53,
      "Y": 54,
      "Z": 55,
      "[": 56,
      "\\": 57,
      "]": 58,
      "a": 59,
      "b": 60,
      "c": 61,
      "d": 62,
      "e": 63,
      "f": 64,
      "g": 65,
      "h": 66,
      "i": 67,
      "j": 68,
      "k": 69,
      "l": 70,
      "m": 71,
      "n": 72,
      "o": 73,
      "p": 74,
      "q": 75,
      "r": 76,
      "s": 77,
      "t": 78,
      "u": 79,
      "v": 80,
      "w": 81,
      "x": 82,
      "y": 83,
      "z": 84,
      "¡": 85,
      "£": 86,
      "¤": 87,
      "¨": 88,
      "©": 89,
      "¬": 90,
      "²": 91,
      "³": 92,
      "´": 93,
      "»": 94,
      "¼": 95,
      "¿": 96,
      "Â": 97,
      "Ã": 98,
      "Ä": 99,
      "Å": 100,
      "Ê": 101,
      "â": 102,
      "ï": 103,
      "Ġ": 104,
      "Ģ": 105,
      "Ĥ": 106,
      "ĩ": 107,
      "į": 108,
      "ĵ": 109,
      "Ķ": 110,
      "ķ": 111,
      "ĺ": 112,
      "Ľ": 113,
      "Ŀ": 114,
      "ł": 115,
      "Ń": 116,
      "le": 117,
      "ho": 118,
      "Ġb": 119,
      "ts": 120,
      "la": 121,
      "Ġe": 122,
      "ha": 123,
      "ng": 124,
      "li": 125,
      "Ġho": 126,
      "Ġk": 127,
      "lo": 128,
      "na": 129,
      "Ġle": 130,
      "Ġba": 131,
      "Ġs": 132,
      "Ġm": 133,
      "re": 134,
      "Ġt": 135,
      "Ġse": 136,
      "Ġli": 137,
      "Ġka": 138,
      "tse": 139,
      "oa": 140,
      "Ġbo": 141,
      "Ġa": 142,
      "Ġmo": 143,
      "tsa": 144,
      "he": 145,
      "Ġea": 146,
      "ne": 147,
      "Ġhore": 148,
      "Ġo": 149,
      "ba": 150,
      "pa": 151,
      "be": 152,
      "ĠM": 153,
      "ka": 154,
      "Ġha": 155,
      "tso": 156,
      "Ġke": 157,
      "Å¡": 158,
      "Ġtse": 159,
      "ile": 160,
      "ko": 161,
      "sa": 162,
      "Ġre": 163,
      "so": 164,
      "Ġma": 165,
      "Ġf": 166,
      "mo": 167,
      "me": 168,
      "tho": 169,
      "ta": 170,
      "Ġp": 171,
      "hla": 172,
      "ke": 173,
      "te": 174,
      "ma": 175,
      "Ġoa": 176,
      "Ġsa": 177,
      "Ġtsa": 178,
      "se": 179,
      "hlo": 180,
      "Ġna": 181,
      "ĠL": 182,
      "Ġla": 183,
      "ĠMo": 184,
      "tsi": 185,
      "tla": 186,
      "Ġn": 187,
      "ra": 188,
      "to": 189,
      "tÅ¡": 190,
      "Ġi": 191,
      "Ġtla": 192,
      "bo": 193,
      "hu": 194,
      "cha": 195,
      "si": 196,
      "Ġme": 197,
      "Ġbona": 198,
      "ny": 199,
      "Ġ'": 200,
      "ele": 201,
      "ro": 202,
      "kho": 203,
      "Ġhla": 204,
      "ĠtÅ¡": 205,
      "no": 206,
      "ĠLe": 207,
      "tlo": 208,
      "po": 209,
      "ĠMa": 210,
      "tsoe": 211,
      "hali": 212,
      "Ġne": 213,
      "Ġile": 214,
      "hi": 215,
      "joa": 216,
      "holo": 217,
      "Ġeo": 218,
      "ĠB": 219,
      "âĢ": 220,
      "sotho": 221,
      "âĢĺ": 222,
      "Ġjoa": 223,
      "Ġfe": 224,
      "pha": 225,
      "tle": 226,
      "ĠâĢĺ": 227,
      "pe": 228,
      "fa": 229,
      "hle": 230,
      "oe": 231,
      "uma": 232,
      "chaba": 233,
      "Se": 234,
      "ri": 235,
      "ĠT": 236,
      "loa": 237,
      "Ġkaha": 238,
      "Mo": 239,
      "nghali": 240,
      "Ġq": 241,
      "ti": 242,
      "Ġbe": 243,
      "tseng": 244,
      "Ġena": 245,
      "tha": 246,
      "Ġhlo": 247,
      "lemo": 248,
      "ki": 249,
      "kha": 250,
      "lla": 251,
      "Ġsebe": 252,
      "sebe": 253,
      "Ġphe": 254,
      "tsoa": 255,
      "Ġlo": 256,
      "Ġmoo": 257,
      "Ġsechaba": 258,
      "ntÅ¡": 259,
      "Ġte": 260,
      "Ġjoalo": 261,
      "ĠtÅ¡e": 262,
      "nya": 263,
      "phe": 264,
      "the": 265,
      "Ġko": 266,
      "Ġhlalo": 267,
      "lle": 268,
      "Ġboe": 269,
      "pali": 270,
      "Ġnaha": 271,
      "kolo": 272,
      "Ġthu": 273,
      "Ġetsa": 274,
      "sebetsi": 275,
      "ĠBa": 276,
      "Ġpele": 277,
      "\",": 278,
      "Ho": 279,
      "Ġkho": 280,
      "uso": 281,
      "lisa": 282,
      "Ġfuma": 283,
      "lu": 284,
      "hlopha": 285,
      "llo": 286,
      "tÅ¡e": 287,
      "ru": 288,
      "nye": 289,
      "ĠP": 290,
      "ileng": 291,
      "Ġtl": 292,
      "Ġfa": 293,
      "fe": 294,
      "Ġ2": 295,
      "Ġhae": 296,
      "che": 297,
      "lang": 298,
      "Ġnako": 299,
      "soa": 300,
      "ĠLi": 301,
      "ĠLesotho": 302,
      "Ġbana": 303,
      "Ha": 304,
      "ĠbontÅ¡": 305,
      "lao": 306,
      "ĠSe": 307,
      "keng": 308,
      "Ġkha": 309,
      "Ġsena": 310,
      "Le": 311,
      "ĠA": 312,
      "isa": 313,
      "koa": 314,
      "ĠBasotho": 315,
      "thu": 316,
      "ona": 317,
      "Ġntse": 318,
      "Ġtso": 319,
      "ĠMonghali": 320,
      "papali": 321,
      "Ġboi": 322,
      "ĠK": 323,
      "khe": 324,
      "Ġtha": 325,
      "ĠN": 326,
      "ata": 327,
      "Ġloke": 328,
      "Ġhaholo": 329,
      "Ġlita": 330,
      "oana": 331,
      "Ġsu": 332,
      "tl": 333,
      "fu": 334,
      "alo": 335,
      "olo": 336,
      "bi": 337,
      "Ġbatho": 338,
      "Ġng": 339,
      "Ġfi": 340,
      "mpa": 341,
      "khotla": 342,
      "beli": 343,
      "Ġthe": 344,
      "Ġtlo": 345,
      "Ġta": 346,
      "baka": 347,
      "Ġsehlopha": 348,
      "bane": 349,
      "pole": 350,
      "sitse": 351,
      "fuma": 352,
      "muso": 353,
      "ja": 354,
      "ea": 355,
      "ĠR": 356,
      "lete": 357,
      "Ġteng": 358,
      "hala": 359,
      "leng": 360,
      "Ġempa": 361,
      "00": 362,
      "chelete": 363,
      "ela": 364,
      "Ma": 365,
      "Ġto": 366,
      "Ġseo": 367,
      "Ġtsena": 368,
      "pi": 369,
      "Ġlilemo": 370,
      "Ġleng": 371,
      "nong": 372,
      "Ġtsoe": 373,
      "sho": 374,
      "Ġsebetsa": 375,
      "Ġmong": 376,
      "Ka": 377,
      "Ġbu": 378,
      "Ġmona": 379,
      "pile": 380,
      "Ġtseo": 381,
      "Ġlokela": 382,
      "fumahali": 383,
      "Ġny": 384,
      "Ke": 385,
      "neng": 386,
      "Ġ1": 387,
      "Ġri": 388,
      "hile": 389,
      "Ġ20": 390,
      "Ġrialo": 391,
      "Ġneng": 392,
      "ĠBo": 393,
      "Ġmolao": 394,
      "loe": 395,
      "ku": 396,
      "Ġmosebetsi": 397,
      "Ġhlalosa": 398,
      "polesa": 399,
      "kala": 400,
      "Ba": 401,
      "tli": 402,
      "Ġpha": 403,
      "Ġthusa": 404,
      "pele": 405,
      "mi": 406,
      "Ġkopa": 407,
      "Ġeona": 408,
      "Ġsi": 409,
      "Ġfeta": 410,
      "Ġhona": 411,
      "Ġileng": 412,
      "phelo": 413,
      "Ġtli": 414,
      "Ġlitaba": 415,
      "Ġbacha": 416,
      "lloa": 417,
      "Ġtlho": 418,
      "mela": 419,
      "ena": 420,
      "Ġtsoela": 421,
      "ĠS": 422,
      "Ġfumana": 423,
      "Ġbang": 424,
      "tlha": 425,
      "Ġona": 426,
      "Monghali": 427,
      "Ġro": 428,
      "tsatsi": 429,
      "khatlo": 430,
      "tlafa": 431,
      "Ġqo": 432,
      "Ġlu": 433,
      "beng": 434,
      "ebo": 435,
      "Ġlena": 436,
      "Ġling": 437,
      "Ġsupa": 438,
      "Ġkamo": 439,
      "itse": 440,
      "Ġti": 441,
      "long": 442,
      "litse": 443,
      "Ġbohlo": 444,
      "Ġu": 445,
      "Ġhlalositse": 446,
      "nna": 447,
      "Ġchelete": 448,
      "ĠtÅ¡oa": 449,
      "Ġitse": 450,
      "Ġbile": 451,
      "Ġbophelo": 452,
      "Ġlekhotla": 453,
      "Li": 454,
      "letsa": 455,
      "Ġselemo": 456,
      "Ġbole": 457,
      "ĠRa": 458,
      "Ġboetse": 459,
      "letso": 460,
      "ĠbontÅ¡itse": 461,
      "eli": 462,
      "meli": 463,
      "Ġpa": 464,
      "Ġtaba": 465,
      "fo": 466,
      "mong": 467,
      "roa": 468,
      "pho": 469,
      "Ġtsona": 470,
      "ngoe": 471,
      "Re": 472,
      "ĠHa": 473,
      "hoa": 474,
      "Ġlin": 475,
      "kaha": 476,
      "ĠbontÅ¡a": 477,
      "Ġphethe": 478,
      "ĠtÅ¡ebe": 479,
      "Ġpapali": 480,
      "Ġmotho": 481,
      "nyane": 482,
      "khetho": 483,
      "Ġpo": 484,
      "Ġhobane": 485,
      "Ġqe": 486,
      "sali": 487,
      "rang": 488,
      "Ġtlil": 489,
      "ĠC": 490,
      "Ġtsoa": 491,
      "rena": 492,
      "Ġfihle": 493,
      "Ġmesebetsi": 494,
      "limo": 495,
      "su": 496,
      "Ġsepolesa": 497,
      "fi": 498,
      "Ġlikho": 499,
      "nte": 500,
      "bile": 501,
      "tona": 502,
      "Ġ(": 503,
      "Ġkhe": 504,
      "Ġfeela": 505,
      "ni": 506,
      "Ġlefa": 507,
      "Ġsekolo": 508,
      "Ġlipapali": 509,
      "setsa": 510,
      "rika": 511,
      "ntle": 512,
      "tu": 513,
      "Ġmatla": 514,
      "rero": 515,
      "Ġqa": 516,
      "Ġlina": 517,
      "hang": 518,
      "Ġnang": 519,
      "Ġkapa": 520,
      "Ġletsatsi": 521,
      "Ġ202": 522,
      "oli": 523,
      "lletsa": 524,
      "Ġra": 525,
      "moho": 526,
      "abo": 527,
      "Ġliba": 528,
      "pu": 529,
      "Ġhloka": 530,
      "ĠAf": 531,
      "tela": 532,
      "Ġlebaka": 533,
      "koe": 534,
      "Ġtsama": 535,
      "tsong": 536,
      "Ġseng": 537,
      "Ġkholo": 538,
      "Ġbohlokoa": 539,
      "Ġlikolo": 540,
      "rolo": 541,
      "Ġrona": 542,
      "Ġnakong": 543,
      "ĠMase": 544,
      "Ġkamor": 545,
      "tsoeng": 546,
      "Ġbolo": 547,
      "Ġkena": 548,
      "Ġmang": 549,
      "Ġnka": 550,
      "Ġen": 551,
      "ĠAfrika": 552,
      "tloa": 553,
      "Ġtsela": 554,
      "Ġjoana": 555,
      "Ġphethela": 556,
      "Ġfumane": 557,
      "jo": 558,
      "tsing": 559,
      "thi": 560,
      "Ġmolemo": 561,
      "Ġipile": 562,
      "hela": 563,
      "Ġbatla": 564,
      "Ġmora": 565,
      "ĠMaseru": 566,
      "Ġfana": 567,
      "Ġkhu": 568,
      "Sena": 569,
      "eoe": 570,
      "Ġtseba": 571,
      "ĠtÅ¡ehe": 572,
      "Ġeena": 573,
      "Ġlipa": 574,
      "bela": 575,
      "ĠMofumahali": 576,
      "Ġboela": 577,
      "tsoho": 578,
      "tÅ¡oa": 579,
      "Ġmetsi": 580,
      "Ġsona": 581,
      "oko": 582,
      "ĠTÅ¡": 583,
      "meng": 584,
      "Ġbapa": 585,
      "Ġhloko": 586,
      "Ġshe": 587,
      "khoa": 588,
      "tlala": 589,
      "ĠH": 590,
      "tere": 591,
      "thata": 592,
      "kane": 593,
      "lli": 594,
      "tlisi": 595,
      "tleng": 596,
      "Ġmorero": 597,
      "Ġbohle": 598,
      "Ġntlafa": 599,
      "Ġleba": 600,
      "mane": 601,
      "nyetla": 602,
      "leho": 603,
      "Ġtle": 604,
      "ketsa": 605,
      "nka": 606,
      "reng": 607,
      "ĠlitÅ¡e": 608,
      "bu": 609,
      "ĠLabo": 610,
      "Ġike": 611,
      "ĠI": 612,
      "ĠTha": 613,
      "Ġkahar": 614,
      "kameli": 615,
      "Ġtho": 616,
      "nta": 617,
      "kelo": 618,
      "shoe": 619,
      "Ġtloha": 620,
      "Ġkarolo": 621,
      "Ġlebo": 622,
      "Ġhantle": 623,
      "Ġngata": 624,
      "Ġthuto": 625,
      "Ġsebelisa": 626,
      "Ġbonahala": 627,
      "Ġfu": 628,
      "hetseng": 629,
      "Ġhabo": 630,
      "Ġbeha": 631,
      "Ġlekala": 632,
      "Ġtsebe": 633,
      "Ġipiletsa": 634,
      "Ġlitse": 635,
      "Ġqosoa": 636,
      "hoai": 637,
      "heng": 638,
      "kholo": 639,
      "Ġpuso": 640,
      "ngata": 641,
      "Ġnyeoe": 642,
      "ca": 643,
      "Ġbasali": 644,
      "holotso": 645,
      "Ġtlha": 646,
      "Ġpu": 647,
      "ruo": 648,
      "Ġtlang": 649,
      "Ġhar": 650,
      "Ġbao": 651,
      "Ġlinaha": 652,
      "kisa": 653,
      "Ġlito": 654,
      "belo": 655,
      "ĠlitÅ¡ebe": 656,
      "ĠD": 657,
      "toa": 658,
      "Ġlipo": 659,
      "bello": 660,
      "Ġlekho": 661,
      "Ġlibapali": 662,
      "Ġ3": 663,
      "Ġmofu": 664,
      "Ġru": 665,
      "lletse": 666,
      "Ġthata": 667,
      "ntsoe": 668,
      "isi": 669,
      "teng": 670,
      "lile": 671,
      "Ġkhotso": 672,
      "Ġfihla": 673,
      "Ġleha": 674,
      "Ġthepa": 675,
      "cho": 676,
      "sita": 677,
      "Ġhlaha": 678,
      "kara": 679,
      "Ġfapa": 680,
      "tlho": 681,
      "Ġliko": 682,
      "Ġfihlela": 683,
      "Ġatle": 684,
      "Ġhlahi": 685,
      "Ġkhahla": 686,
      "tsang": 687,
      "Ġphaha": 688,
      "Ġlehla": 689,
      "000": 690,
      "ĠtÅ¡ebetso": 691,
      "koloho": 692,
      "tileng": 693,
      "Bo": 694,
      "ĠlitÅ¡ebeletso": 695,
      "qo": 696,
      "Ġbua": 697,
      "ĠBoroa": 698,
      "hileng": 699,
      "Ġfeto": 700,
      "Ġlona": 701,
      "Ġlikhoebo": 702,
      "kefe": 703,
      "lisoa": 704,
      "Ġh": 705,
      "Ġebile": 706,
      "Ġmonyetla": 707,
      "nt": 708,
      "Ġngoana": 709,
      "Ġhoa": 710,
      "Ġlithu": 711,
      "Ġmotla": 712,
      "lisano": 713,
      "Ġtsohle": 714,
      "Ġbai": 715,
      "Ġtemo": 716,
      "phatlala": 717,
      "Ġmoruo": 718,
      "Ġkenye": 719,
      "Ġlikhetho": 720,
      "elloa": 721,
      "Mofumahali": 722,
      "je": 723,
      "ĠJ": 724,
      "koetlisi": 725,
      "Ġmorao": 726,
      "Ġlihoai": 727,
      "ce": 728,
      "Ġlitlo": 729,
      "ĠMe": 730,
      "lane": 731,
      "Ġleo": 732,
      "Ġmokhatlo": 733,
      "Ġoo": 734,
      "loeng": 735,
      "Ġseba": 736,
      "Ġlitho": 737,
      "Ġisa": 738,
      "nd": 739,
      "okameli": 740,
      "Ġebe": 741,
      "Ġeka": 742,
      "Ġlitabeng": 743,
      "Ġkhotha": 744,
      "Ġnepa": 745,
      "Leha": 746,
      "vo": 747,
      "ĠtÅ¡oana": 748,
      "Ġbobeli": 749,
      "Ġhape": 750,
      "hale": 751,
      "Ġkenya": 752,
      "Ġkhoebo": 753,
      "Ġmarang": 754,
      "ĠKa": 755,
      "Ġlijo": 756,
      "hetse": 757,
      "Ġboemo": 758,
      "Ġliq": 759,
      "Ġmonghali": 760,
      "Ġkete": 761,
      "song": 762,
      "lapa": 763,
      "Ġqete": 764,
      "Ġboemong": 765,
      "ĠtÅ¡oe": 766,
      "Ġmaba": 767,
      "Ġtikoloho": 768,
      "Ġlintlha": 769,
      "bele": 770,
      "kase": 771,
      "ola": 772,
      "mella": 773,
      "kela": 774,
      "Ġlihlopha": 775,
      "Ġkene": 776,
      "Ġsephe": 777,
      "Ġesita": 778,
      "chi": 779,
      "Ġmonna": 780,
      "Ġtobo": 781,
      "Ġmotlakase": 782,
      "Ġetse": 783,
      "folo": 784,
      "ĠQ": 785,
      "sole": 786,
      "nyo": 787,
      "rame": 788,
      "isanong": 789,
      "kahalo": 790,
      "Ġfoko": 791,
      "Ġana": 792,
      "Ġbae": 793,
      "Ġntseng": 794,
      "Ġfetileng": 795,
      "Ġsetsi": 796,
      "hlano": 797,
      "Ġithu": 798,
      "ĠF": 799,
      "raro": 800,
      "Ġjoale": 801,
      "ns": 802,
      "Ġpeli": 803,
      "Ġntle": 804,
      "tlehi": 805,
      "Ġetsoa": 806,
      "nang": 807,
      "Ġjoang": 808,
      "cate": 809,
      "dvo": 810,
      "Ġholimo": 811,
      "Ġkoe": 812,
      "dvocate": 813,
      "eto": 814,
      "ĠPha": 815,
      "thuti": 816,
      "Ġbapala": 817,
      "tapele": 818,
      "beliso": 819,
      "toho": 820,
      "Ġloa": 821,
      "Ġbileng": 822,
      "Ġlichelete": 823,
      "metse": 824,
      "tlama": 825,
      "Ġlekhotleng": 826,
      "kile": 827,
      "suoa": 828,
      "Ġleka": 829,
      "eng": 830,
      "Ġtlhokahalo": 831,
      "Ġmolemong": 832,
      "Ġletsoho": 833,
      "Ġlipe": 834,
      "Ġnepahetseng": 835,
      "Ġthi": 836,
      "seng": 837,
      "ĠtÅ¡i": 838,
      "ĠLekala": 839,
      "tsoali": 840,
      "Ġipa": 841,
      "ĠMate": 842,
      "emo": 843,
      "Ġele": 844,
      "tlotlehi": 845,
      "Ġama": 846,
      "Ġjoaloka": 847,
      "Ġqala": 848,
      "Ġlipho": 849,
      "ntÅ¡o": 850,
      "oto": 851,
      "sha": 852,
      "pheng": 853,
      "tsana": 854,
      "Ġbothata": 855,
      "Ġamo": 856,
      "ramente": 857,
      "Ġboholo": 858,
      "llang": 859,
      "Ġsire": 860,
      "Ġlula": 861,
      "qosuoa": 862,
      "Ġliki": 863,
      "Ġmola": 864,
      "Ġmokhoa": 865,
      "hlale": 866,
      "ĠG": 867,
      "Ġlikha": 868,
      "Ġtsamaea": 869,
      "tereke": 870,
      "Ġkenyelletsa": 871,
      "ĠtÅ¡oanang": 872,
      "ntaha": 873,
      "noa": 874,
      "Ġlatela": 875,
      "Ġhlahisa": 876,
      "Ġsupile": 877,
      "ĠLetona": 878,
      "qa": 879,
      "ĠMorena": 880,
      "pelo": 881,
      "leha": 882,
      "Ġlihla": 883,
      "raka": 884,
      "ĠTona": 885,
      "chabeng": 886,
      "elele": 887,
      "Ġkhahlanong": 888,
      "Ġbaithuti": 889,
      "Ġ201": 890,
      "aba": 891,
      "Ġlitsi": 892,
      "meha": 893,
      "Ġetsang": 894,
      "elo": 895,
      "peng": 896,
      "Ġphelang": 897,
      "ĠKo": 898,
      "melo": 899,
      "bisa": 900,
      "fisi": 901,
      "Ġlebe": 902,
      "Ġmafu": 903,
      "Ġtelele": 904,
      "Ġphela": 905,
      "Ġlehlako": 906,
      "kare": 907,
      "wa": 908,
      "Ġphetha": 909,
      "hlanka": 910,
      "fapha": 911,
      "mise": 912,
      "Ġmai": 913,
      "Ġkolo": 914,
      "Ġutloa": 915,
      "Ġlitlolo": 916,
      "Ġloko": 917,
      "Ġboletse": 918,
      "ofolo": 919,
      "Ġsebakeng": 920,
      "ue": 921,
      "hiso": 922,
      "Ġbanna": 923,
      "Ġtu": 924,
      "Ġsepheo": 925,
      "Ġtharo": 926,
      "qe": 927,
      "Ġao": 928,
      "hloli": 929,
      "ane": 930,
      "Ġmatsoho": 931,
      "nyana": 932,
      "koane": 933,
      "ĠlefatÅ¡e": 934,
      "ano": 935,
      "Ġbola": 936,
      "Ġ4": 937,
      "rata": 938,
      "ĠLioli": 939,
      "Ġlika": 940,
      "Ġbone": 941,
      "hoe": 942,
      "Ġlitla": 943,
      "Ġbeile": 944,
      "iso": 945,
      "Ġlahle": 946,
      "eo": 947,
      "Ġlefu": 948,
      "khahle": 949,
      "Ġleboha": 950,
      "Ġsehlo": 951,
      "loti": 952,
      "Ġphahameng": 953,
      "Ġhoo": 954,
      "Ġphu": 955,
      "fatsa": 956,
      "kutlo": 957,
      "halang": 958,
      "oho": 959,
      "ĠMatekane": 960,
      "nete": 961,
      "Ġkoa": 962,
      "ntÅ¡a": 963,
      "ĠAdvocate": 964,
      "mpo": 965,
      "or": 966,
      "Ġlokelang": 967,
      "holimo": 968,
      "tor": 969,
      "Ġtoboketsa": 970,
      "ĠtÅ¡ebeliso": 971,
      "Ġboikara": 972,
      "Ġlehlakoreng": 973,
      "Ġbasebetsi": 974,
      "Ġmoholo": 975,
      "Ġlintho": 976,
      "tlotlo": 977,
      "Ġoona": 978,
      "Ġham": 979,
      "sholu": 980,
      "Ġliphoofolo": 981,
      "Ġbatsoali": 982,
      "Ġmosali": 983,
      "ctor": 984,
      "ĠLentsoe": 985,
      "ĠThaba": 986,
      "ĠE": 987,
      "nyele": 988,
      "Ġfuoa": 989,
      "Ġutlo": 990,
      "phu": 991,
      "ĠtÅ¡epo": 992,
      "khu": 993,
      "tsie": 994,
      "Ġkhoeli": 995,
      "Ġbolela": 996,
      "ĠMatlama": 997,
      "khethoa": 998,
      "Ġbaa": 999,
      "Ġboikarabello": 1000,
      "Ġlikolong": 1001,
      "Ġntlo": 1002,
      "nela": 1003,
      "kola": 1004,
      "Ġntlafatsa": 1005,
      "Ġsesole": 1006,
      "Ġboko": 1007,
      "Ġliqholotso": 1008,
      "Ġmachaba": 1009,
      "pela": 1010,
      "pector": 1011,
      "Ġentse": 1012,
      "terekeng": 1013,
      "Me": 1014,
      "koloi": 1015,
      "Ġlithe": 1016,
      "hekefe": 1017,
      "ĠtÅ¡oara": 1018,
      "Ġsheba": 1019,
      "nspector": 1020,
      "Ġmaikutlo": 1021,
      "terata": 1022,
      "Ġkoloi": 1023,
      "komane": 1024,
      "shoeshoe": 1025,
      "sitsoe": 1026,
      "Ġlibaka": 1027,
      "miti": 1028,
      "Ġphetoho": 1029,
      "Ġmekhatlo": 1030,
      "ĠMofo": 1031,
      "tliso": 1032,
      "Ġpho": 1033,
      "Ġkhutle": 1034,
      "on": 1035,
      "Ġbopa": 1036,
      "tsama": 1037,
      "melaelloa": 1038,
      "Ġmatlafa": 1039,
      "Ġpapaling": 1040,
      "Ġlike": 1041,
      "Ġmotlotlo": 1042,
      "ĠtÅ¡ehetso": 1043,
      "Ġ000": 1044,
      "ral": 1045,
      "hekefetso": 1046,
      "Ġkahare": 1047,
      "Lekhotla": 1048,
      "'s": 1049,
      "seterata": 1050,
      "Ġnya": 1051,
      "ĠtÅ¡ebetsong": 1052,
      "oaha": 1053,
      "ĠMokhatlo": 1054,
      "Ġche": 1055,
      "Ġlipapaling": 1056,
      "Ġtloko": 1057,
      "heloa": 1058,
      "Ġbokooa": 1059,
      "letse": 1060,
      "Ġhapa": 1061,
      "Ġhloe": 1062,
      "Ġsebaka": 1063,
      "Ġtlameha": 1064,
      "bebe": 1065,
      "ntu": 1066,
      "Ġreng": 1067,
      "Ġtlhahiso": 1068,
      "one": 1069,
      "Ġlitsela": 1070,
      "Ġmoe": 1071,
      "ĠtÅ¡ehetsa": 1072,
      "Tse": 1073,
      "phi": 1074,
      "ropo": 1075,
      "kileng": 1076,
      "Ġhoba": 1077,
      "Ġkapele": 1078,
      "helo": 1079,
      "ĠMoshoeshoe": 1080,
      "Ġqholotso": 1081,
      "bitsong": 1082,
      "tile": 1083,
      "siu": 1084,
      "Ġmoho": 1085,
      "Ġnete": 1086,
      "Ġselemong": 1087,
      "hato": 1088,
      "ĠMookameli": 1089,
      "tÅ¡i": 1090,
      "Ġmetseng": 1091,
      "Ġhlahile": 1092,
      "thunya": 1093,
      "ohle": 1094,
      "metseng": 1095,
      "Ġtlhekefetso": 1096,
      "Ġ5": 1097,
      "Ġsekolong": 1098,
      "chochi": 1099,
      "Ġhlahe": 1100,
      "Ġkhetha": 1101,
      "Ġboo": 1102,
      "ĠtÅ¡ire": 1103,
      "Ġmatsatsi": 1104,
      "Ġlitlho": 1105,
      "tooa": 1106,
      "er": 1107,
      "shome": 1108,
      "Ġsitoa": 1109,
      "ĠTÅ¡e": 1110,
      "Ġnaheng": 1111,
      "nongoaha": 1112,
      "tja": 1113,
      "oeng": 1114,
      "ĠPa": 1115,
      "Ġmakoloi": 1116,
      "Sehlopha": 1117,
      "Ġtlholisano": 1118,
      "Ġtiisa": 1119,
      "Ġmohla": 1120,
      "nolo": 1121,
      "Letona": 1122,
      "chochisi": 1123,
      "phatlalatsi": 1124,
      "karetso": 1125,
      "Ġboleng": 1126,
      "Ġbosholu": 1127,
      "tÅ¡olo": 1128,
      "tloana": 1129,
      "misa": 1130,
      "Ġsebelisoa": 1131,
      "ĠPhe": 1132,
      "ĠLabohlano": 1133,
      "Ġthuso": 1134,
      "Ġboima": 1135,
      "Ġlite": 1136,
      "Ġqalile": 1137,
      "Ġlipakeng": 1138,
      "hoebi": 1139,
      "Ġete": 1140,
      "khetlo": 1141,
      "Ġeaba": 1142,
      "Ġmathata": 1143,
      "ĠntÅ¡e": 1144,
      "Ġmpe": 1145,
      "Ġara": 1146,
      "Ġpe": 1147,
      "kiso": 1148,
      "lotiki": 1149,
      "Ġkhetho": 1150,
      "lha": 1151,
      "hisoa": 1152,
      "mpha": 1153,
      "Ġbongata": 1154,
      "Ġmala": 1155,
      "Ġbeke": 1156,
      "lletsoe": 1157,
      "Pu": 1158,
      "mele": 1159,
      "tsu": 1160,
      "Ġtlas": 1161,
      "Ġbangata": 1162,
      "putso": 1163,
      "Ġlitokelo": 1164,
      "Ġbaahi": 1165,
      "Ġhopo": 1166,
      "ĠBantu": 1167,
      "liso": 1168,
      "Ġfapaneng": 1169,
      "ngoa": 1170,
      "ĠMoe": 1171,
      "ĠBe": 1172,
      "Ġsechabeng": 1173,
      "rato": 1174,
      "noe": 1175,
      "ase": 1176,
      "ĠU": 1177,
      "Ġmoqosuoa": 1178,
      "ĠTa": 1179,
      "phatlalatso": 1180,
      "DF": 1181,
      "khahla": 1182,
      "Ġlitsebo": 1183,
      "Ġcha": 1184,
      "Ġahlo": 1185,
      "Ġmafapha": 1186,
      "Ġkenyele": 1187,
      "Ġmetse": 1188,
      "Ġmolato": 1189,
      "Ġeketsa": 1190,
      "Ġhau": 1191,
      "Ġhlaba": 1192,
      "Ġ\"": 1193,
      "ĠPhu": 1194,
      "Ġsireletsa": 1195,
      "Ġleholimo": 1196,
      "Ġmaoto": 1197,
      "Ġno": 1198,
      "Ġlibakeng": 1199,
      "mpho": 1200,
      "pileng": 1201,
      "us": 1202,
      "uelli": 1203,
      "Ġbobebe": 1204,
      "Ġhlola": 1205,
      "Tla": 1206,
      "Ġbi": 1207,
      "ĠtÅ¡oare": 1208,
      "Ġkakaretso": 1209,
      "Ġhle": 1210,
      "ĠSo": 1211,
      "Ġtlokotsing": 1212,
      "Muso": 1213,
      "Ġbahlanka": 1214,
      "Ġpolao": 1215,
      "tlatsi": 1216,
      "Ġikemise": 1217,
      "Ġatleha": 1218,
      "ĠMotlotlehi": 1219,
      "Ġtlaase": 1220,
      "hong": 1221,
      "sale": 1222,
      "Ġhlokang": 1223,
      "Ġleeto": 1224,
      "rao": 1225,
      "thefa": 1226,
      "Ġ2023": 1227,
      "ĠV": 1228,
      "Ġtlaleho": 1229,
      "Ġfeti": 1230,
      "Ġlithuto": 1231,
      "Ġlihlahisoa": 1232,
      "Ġsekhahla": 1233,
      "Ġmakhotla": 1234,
      "Ġeohle": 1235,
      "ĠRama": 1236,
      "Ġrekisa": 1237,
      "Ġhloa": 1238,
      "chere": 1239,
      "Ġthakho": 1240,
      "tlele": 1241,
      "Ġlilemong": 1242,
      "Ġhlahlo": 1243,
      "fela": 1244,
      "ĠKho": 1245,
      "Tlaleho": 1246,
      "Ġreka": 1247,
      "Ġetsahala": 1248,
      "Ġ19": 1249,
      "Ġbopaki": 1250,
      "Ġfela": 1251,
      "Pa": 1252,
      "letsi": 1253,
      "Ġja": 1254,
      "Ġmoko": 1255,
      "ĠMokho": 1256,
      "Ġhangata": 1257,
      "Ġncha": 1258,
      "Ġil": 1259,
      "ĠTe": 1260,
      "ĠHla": 1261,
      "ĠLabobeli": 1262,
      "kong": 1263,
      "Ġmalapa": 1264,
      "Ġiko": 1265,
      "ĠSechaba": 1266,
      "de": 1267,
      "Ġiphe": 1268,
      "tulo": 1269,
      "Kholo": 1270,
      "Ġlisebe": 1271,
      "Ġkang": 1272,
      "Ġmatlafatsa": 1273,
      "qho": 1274,
      "hahla": 1275,
      "Ġlipu": 1276,
      "Ġmaemo": 1277,
      "Ġlumella": 1278,
      "Ġithuta": 1279,
      "ene": 1280,
      "Ġntho": 1281,
      "Ġpuo": 1282,
      "Ġkantle": 1283,
      "tÅ¡a": 1284,
      "ĠPu": 1285,
      "Ġnyo": 1286,
      "Ġlelapa": 1287,
      "Ġbahoebi": 1288,
      "Ġsethunya": 1289,
      "tsipa": 1290,
      "Ġparamente": 1291,
      "Ġlithethefa": 1292,
      "Ġmale": 1293,
      "mello": 1294,
      "ĠLDF": 1295,
      "tleho": 1296,
      "kuli": 1297,
      "qapi": 1298,
      "co": 1299,
      "rea": 1300,
      "ĠMpha": 1301,
      "pisa": 1302,
      "lela": 1303,
      "tÅ¡oana": 1304,
      "Ġtobane": 1305,
      "ĠloantÅ¡a": 1306,
      "Puisanong": 1307,
      "Ġmofumahali": 1308,
      "seli": 1309,
      "bong": 1310,
      "âĢĵ": 1311,
      "Ġphatlala": 1312,
      "bileng": 1313,
      "Ġame": 1314,
      "Ġlisebelisoa": 1315,
      "apa": 1316,
      "lekane": 1317,
      "Ġsetereke": 1318,
      "mokeng": 1319,
      "roe": 1320,
      "Ġikemiselitse": 1321,
      "Taba": 1322,
      "tsane": 1323,
      "Ġmelao": 1324,
      "Ġmekhoa": 1325,
      "ĠTÅ¡i": 1326,
      "Ġbaeti": 1327,
      "jena": 1328,
      "Ġofisi": 1329,
      "ĠBu": 1330,
      "koana": 1331,
      "Ġipabo": 1332,
      "Ġ2022": 1333,
      "),": 1334,
      "ntlha": 1335,
      "Ġaha": 1336,
      "Ġnke": 1337,
      "Ġkhale": 1338,
      "an": 1339,
      "Ġbaba": 1340,
      "Ġtjena": 1341,
      "kete": 1342,
      "ĠMohale": 1343,
      "Ġamohela": 1344,
      "Ġtlisa": 1345,
      "hleng": 1346,
      "EC": 1347,
      "Ġntlha": 1348,
      "tsoang": 1349,
      "ĠDr": 1350,
      "Ġkopo": 1351,
      "Ġboloka": 1352,
      "mpoli": 1353,
      "mang": 1354,
      "piso": 1355,
      "Ġtlhoko": 1356,
      "tlafatso": 1357,
      "Ġqeta": 1358,
      "Ġlithethefatsi": 1359,
      "Ġlerato": 1360,
      "Ġsehla": 1361,
      "FA": 1362,
      "ĠW": 1363,
      "Ġletho": 1364,
      "Ġsenye": 1365,
      "Ġmonongoaha": 1366,
      "Ġsebetse": 1367,
      "theo": 1368,
      "jeno": 1369,
      "Ġhaufi": 1370,
      "lele": 1371,
      "Ġtheo": 1372,
      "Ġtii": 1373,
      "Na": 1374,
      "Ġsebetsang": 1375,
      "Ġkaho": 1376,
      "Ġlefapha": 1377,
      "she": 1378,
      "Ġata": 1379,
      "Ġphepo": 1380,
      "Ġhlalosetsa": 1381,
      "Ġtlolo": 1382,
      "ĠRe": 1383,
      "Ġmangolo": 1384,
      "ĠtÅ¡ireletso": 1385,
      "Ġhlekefe": 1386,
      "Ġhare": 1387,
      "ngoana": 1388,
      "ĠMoha": 1389,
      "ofela": 1390,
      "ĠSepolesa": 1391,
      "Ġenoa": 1392,
      "Ġholisa": 1393,
      "Ġkomiti": 1394,
      "Ġketeka": 1395,
      "Ġbotle": 1396,
      "Mantaha": 1397,
      "Ġhlokomela": 1398,
      "Ġhammoho": 1399,
      "di": 1400,
      "hlolo": 1401,
      "sebeletsi": 1402,
      "tichere": 1403,
      "Ġkaofela": 1404,
      "telo": 1405,
      "ĠTlha": 1406,
      "kisetsa": 1407,
      "ĠGene": 1408,
      "Ġnetefatsa": 1409,
      "Ġtlala": 1410,
      "Ġmera": 1411,
      "Ġsebeli": 1412,
      "Ġqoba": 1413,
      "joe": 1414,
      "Ġmabapi": 1415,
      "Ġmeng": 1416,
      "thati": 1417,
      "Ġkhethe": 1418,
      "Ġfapana": 1419,
      "qhe": 1420,
      "uli": 1421,
      "ĠMolimo": 1422,
      "thuto": 1423,
      "ĠtÅ¡oaroa": 1424,
      "ĠGeneral": 1425,
      "toe": 1426,
      "ĠMaja": 1427,
      "Ġruta": 1428,
      ").": 1429,
      "Ġlino": 1430,
      "Ġmarena": 1431,
      "Ġite": 1432,
      "Ġsebeletsa": 1433,
      "Ġkopana": 1434,
      "Ġsiti": 1435,
      "Ġ0": 1436,
      "Ġholi": 1437,
      "Ġmokoetlisi": 1438,
      "Ġpela": 1439,
      "Ġtlale": 1440,
      "Ġbonahalang": 1441,
      "Monna": 1442,
      "lisanong": 1443,
      "Ġtsoelapele": 1444,
      "Ġqetella": 1445,
      "tlisa": 1446,
      "Ġku": 1447,
      "Ġlie": 1448,
      "maha": 1449,
      "Ġmosebetsing": 1450,
      "Ġlinaheng": 1451,
      "ĠO": 1452,
      "Ġntloana": 1453,
      "Ġjoalokaha": 1454,
      "ĠNe": 1455,
      "Ġbon": 1456,
      "Ġbohloko": 1457,
      "Ġfokotsa": 1458,
      "Ġutloisi": 1459,
      "Ġlaka": 1460,
      "ĠMahlale": 1461,
      "Ġmoa": 1462,
      "ĠNa": 1463,
      "Ġ6": 1464,
      "Ġeba": 1465,
      "Ġsebo": 1466,
      "Ġhang": 1467,
      "Ġkopane": 1468,
      "Ġrere": 1469,
      "Ġlenane": 1470,
      "Ġ7": 1471,
      "Ġbakoa": 1472,
      "Ġlife": 1473,
      "Ġmasi": 1474,
      "Ġitlho": 1475,
      "Ġlehlo": 1476,
      "ĠMafe": 1477,
      "Ġemetse": 1478,
      "ĠletÅ¡olo": 1479,
      "Ġmali": 1480,
      "Ġtsamaisa": 1481,
      "Tona": 1482,
      "Ġeleng": 1483,
      "usti": 1484,
      "sitseng": 1485,
      "Ġmetso": 1486,
      "Ġmabaka": 1487,
      "Ġmenyetla": 1488,
      "Ġboike": 1489,
      "khahlelo": 1490,
      "eu": 1491,
      "ĠMosotho": 1492,
      "Ġfumanoa": 1493,
      "Ġlitokomane": 1494,
      "Ġlipolotiki": 1495,
      "muelli": 1496,
      "moli": 1497,
      "ĠLetsie": 1498,
      "ustice": 1499,
      "nane": 1500,
      "Ġmehleng": 1501,
      "Ġtokelo": 1502,
      "Ġqeto": 1503,
      "Ġpuisanong": 1504,
      "Ġboro": 1505,
      "Ġmorena": 1506,
      "Ġtebello": 1507,
      "ĠfatÅ¡e": 1508,
      "Ġngo": 1509,
      "Ġlikoloi": 1510,
      "Ġbolaea": 1511,
      "Ġesale": 1512,
      "Ġtata": 1513,
      "Ġitlha": 1514,
      "ĠLina": 1515,
      "Ġ10": 1516,
      "bala": 1517,
      "ĠtÅ¡ele": 1518,
      "Ġkajeno": 1519,
      "Ġmobu": 1520,
      "Ġmakala": 1521,
      "huto": 1522,
      "tlong": 1523,
      "Ġlokisa": 1524,
      "da": 1525,
      "ĠâĢĵ": 1526,
      "hele": 1527,
      "lletseng": 1528,
      "Ġkhutlela": 1529,
      "tsamaisi": 1530,
      "lello": 1531,
      "Ġlefe": 1532,
      "Ġbaka": 1533,
      "Ġsepe": 1534,
      "Ġmantlha": 1535,
      "riti": 1536,
      "kubele": 1537,
      "Ġpotla": 1538,
      "halo": 1539,
      "oang": 1540,
      "nteraka": 1541,
      "Ġntlafatso": 1542,
      "\".": 1543,
      "Ġmaha": 1544,
      "tlisiso": 1545,
      "Ġfetola": 1546,
      "Ġboka": 1547,
      "Ġbekeng": 1548,
      "Ġ15": 1549,
      "Ġkamoo": 1550,
      "Ġentseng": 1551,
      "20": 1552,
      "Ġhi": 1553,
      "Ġrata": 1554,
      "Ġipilelitse": 1555,
      "Ġlitlhoko": 1556,
      "honolo": 1557,
      "Ġeke": 1558,
      "Ġbuile": 1559,
      "Ġleano": 1560,
      "Ġlitlha": 1561,
      "sela": 1562,
      "ĠLekhotla": 1563,
      "Ġbape": 1564,
      "morao": 1565,
      "Ġtlatse": 1566,
      "moka": 1567,
      "taba": 1568,
      "ĠMaha": 1569,
      "oetse": 1570,
      "tise": 1571,
      "Ġlumela": 1572,
      "ĠtÅ¡ebelisano": 1573,
      "hahlauli": 1574,
      "Ġlema": 1575,
      "Ġbompoli": 1576,
      "tsokoane": 1577,
      "Ġmahlo": 1578,
      "ĠLoetse": 1579,
      "Ġmela": 1580,
      "kise": 1581,
      "ĠTlhakubele": 1582,
      "hola": 1583,
      "Ġbaphatlalatsi": 1584,
      "Ġtloa": 1585,
      "Ġlitsing": 1586,
      "Ġnta": 1587,
      "ĠCo": 1588,
      "ĠII": 1589,
      "Ġfane": 1590,
      "Ġbanana": 1591,
      "karabe": 1592,
      "Ġkenyelletsang": 1593,
      "ĠMafeteng": 1594,
      ",\"": 1595,
      "aka": 1596,
      "Ġnyolo": 1597,
      "Ġ2025": 1598,
      "Ġthoko": 1599,
      "Ġfuoe": 1600,
      "osa": 1601,
      "ĠMotlatsi": 1602,
      "hiloe": 1603,
      "ĠNtsokoane": 1604,
      "Ġlipalo": 1605,
      "ĠInspector": 1606,
      "ello": 1607,
      "Ġhlano": 1608,
      "Ġsupileng": 1609,
      "Ġlitlaleho": 1610,
      "Ny": 1611,
      "liphatlalatso": 1612,
      "Ġhole": 1613,
      "etsa": 1614,
      "Ġlahleheloa": 1615,
      "am": 1616,
      "Ġkhi": 1617,
      "Ġikarabe": 1618,
      "Ġnehela": 1619,
      "Ġeme": 1620,
      "papa": 1621,
      "ĠLa": 1622,
      "Ġnyeoeng": 1623,
      "Ġkoetliso": 1624,
      "Ġbabeli": 1625,
      "teli": 1626,
      "Ġipo": 1627,
      "tsoalle": 1628,
      "ĠSu": 1629,
      "Ko": 1630,
      "Ġleshome": 1631,
      "Ġbopha": 1632,
      "Ġboraro": 1633,
      "peli": 1634,
      "sso": 1635,
      "Ġbakuli": 1636,
      "Ġmotse": 1637,
      "ĠLikho": 1638,
      "Ġkhaho": 1639,
      "Lekala": 1640,
      "Ġboloke": 1641,
      "mellano": 1642,
      "ngoli": 1643,
      "Ġken": 1644,
      "Sechaba": 1645,
      "Ġthatise": 1646,
      "Ġtheha": 1647,
      "Ġsieo": 1648,
      "Ġaro": 1649,
      "mano": 1650,
      "Kamo": 1651,
      "Ġ18": 1652,
      "Ġthoho": 1653,
      "Ġseterekeng": 1654,
      "ĠitÅ¡e": 1655,
      "ĠLefa": 1656,
      "wana": 1657,
      "Ġmatho": 1658,
      "metsa": 1659,
      "ance": 1660,
      "Ġsepetlele": 1661,
      "Ġhoja": 1662,
      "Ġabe": 1663,
      "Ġmaka": 1664,
      "Ġmahla": 1665,
      "loana": 1666,
      "Ġlipatlisiso": 1667,
      "hatsa": 1668,
      "bocha": 1669,
      "Ġtlholisanong": 1670,
      "Ġthibela": 1671,
      "ĠMphalane": 1672,
      "Nyeoe": 1673,
      "ent": 1674,
      "ĠBophelo": 1675,
      "Ġtsoang": 1676,
      "ĠMofoka": 1677,
      "Ġitseng": 1678,
      "bolu": 1679,
      "bitso": 1680,
      "Ġnye": 1681,
      "Ġlekholong": 1682,
      "Ġmalapeng": 1683,
      "Ġhohle": 1684,
      "Ġmota": 1685,
      "tsopele": 1686,
      "rofe": 1687,
      "Mookameli": 1688,
      "Ġpusong": 1689,
      "Ġmofuta": 1690,
      "ĠtÅ¡eletseng": 1691,
      "tje": 1692,
      "lula": 1693,
      "ĠLabone": 1694,
      "hlile": 1695,
      "tsebe": 1696,
      "Ġboke": 1697,
      "ĠTemo": 1698,
      "Ġkhutli": 1699,
      "ID": 1700,
      "etso": 1701,
      "lelitse": 1702,
      "Ġmatichere": 1703,
      "Ġhlahloba": 1704,
      "Ġhola": 1705,
      "loko": 1706,
      "ĠntÅ¡a": 1707,
      "Ġbonahetse": 1708,
      "oek": 1709,
      "loang": 1710,
      "Ġlintlafatso": 1711,
      "Ġmotabo": 1712,
      "DC": 1713,
      "Ġseto": 1714,
      "Ġlitereke": 1715,
      "Ġmocha": 1716,
      "Ġketsa": 1717,
      "Ġika": 1718,
      "Ġmookameli": 1719,
      "ĠKha": 1720,
      "Ġmangata": 1721,
      "ĠHoek": 1722,
      "khahlelong": 1723,
      "Ġ9": 1724,
      "Ġtona": 1725,
      "Ġikemetseng": 1726,
      "ssor": 1727,
      "Ġliterekeng": 1728,
      "sang": 1729,
      "Ġmabeli": 1730,
      "maseterata": 1731,
      "isano": 1732,
      "rofessor": 1733,
      "in": 1734,
      "sana": 1735,
      "ribe": 1736,
      "Ġbeng": 1737,
      "Ġthupelo": 1738,
      "ĠPo": 1739,
      "kahanyo": 1740,
      "ĠBerea": 1741,
      "Ġboqapi": 1742,
      "ĠtÅ¡episa": 1743,
      "lloe": 1744,
      "Ġ25": 1745,
      "Ġhaeba": 1746,
      "ĠJustice": 1747,
      "Kamor": 1748,
      "maraka": 1749,
      "tÅ¡o": 1750,
      "Ġhlokaha": 1751,
      "lala": 1752,
      "Ġlebitsong": 1753,
      "bana": 1754,
      "Ġlate": 1755,
      "Ġtabeng": 1756,
      "Ġtlile": 1757,
      "Ġhlokome": 1758,
      "ĠSontaha": 1759,
      "Ġ8": 1760,
      "Ġteke": 1761,
      "ĠThabo": 1762,
      "Ġlokolloa": 1763,
      "Ġhlahelletse": 1764,
      "Ġmakha": 1765,
      "misi": 1766,
      "Ġfetoha": 1767,
      "shanyana": 1768,
      "aparo": 1769,
      "Ġbophara": 1770,
      "Inspector": 1771,
      "hameng": 1772,
      "litsoe": 1773,
      "Ġlef": 1774,
      "Ġkae": 1775,
      "Morena": 1776,
      "Ġkhutla": 1777,
      "tÅ¡oaru": 1778,
      "rekho": 1779,
      "kae": 1780,
      "hloa": 1781,
      "Ġkotsi": 1782,
      "Ġtsoetse": 1783,
      "Ġ30": 1784,
      "ĠtÅ¡oere": 1785,
      "ĠMohapi": 1786,
      "Ġee": 1787,
      "Ġema": 1788,
      "Ġletona": 1789,
      "bollo": 1790,
      "tlole": 1791,
      "ĠThuto": 1792,
      "tÅ¡ea": 1793,
      "thing": 1794,
      "belaelloa": 1795,
      "llione": 1796,
      "Ġlikhau": 1797,
      "tÅ¡oaruoa": 1798,
      "Ġpolo": 1799,
      "mana": 1800,
      "Ġhlahla": 1801,
      "hisetsa": 1802,
      "Ġphelisa": 1803,
      "Ġhopola": 1804,
      "Lesotho": 1805,
      "Ġthusang": 1806,
      "Ġkopano": 1807,
      "Ġkhotsofa": 1808,
      "Ġsehlopheng": 1809,
      "ya": 1810,
      "Ġbonyane": 1811,
      "ĠLeribe": 1812,
      "tswana": 1813,
      "Ġlekhetlo": 1814,
      "Ġbobolu": 1815,
      "Ġfele": 1816,
      "tooeng": 1817,
      "Ġmekha": 1818,
      "Ġfumaneng": 1819,
      "Ġbatlang": 1820,
      "ĠQa": 1821,
      "ĠPhahameng": 1822,
      "Ġmoja": 1823,
      "ĠNtÅ¡e": 1824,
      "nior": 1825,
      "Ġtsebang": 1826,
      "Ġlebatooa": 1827,
      "ĠHlakola": 1828,
      "Ġmathomo": 1829,
      "emong": 1830,
      "Ġhe": 1831,
      "Ġ2024": 1832,
      "Ġlebaleng": 1833,
      "Ġsebapali": 1834,
      "mphani": 1835,
      "Ġbakeng": 1836,
      "ĠKe": 1837,
      "shoa": 1838,
      "mme": 1839,
      "tabelo": 1840,
      "ĠCO": 1841,
      "tÅ¡oantÅ¡o": 1842,
      "Ġetsoe": 1843,
      "Ġlibu": 1844,
      "Ġmofe": 1845,
      "Ġmaemong": 1846,
      "kele": 1847,
      "ĠfumantÅ¡": 1848,
      "Lebitsong": 1849,
      "Ġfumanang": 1850,
      "Ġlikhoeli": 1851,
      "Ġbaetapele": 1852,
      "Ġmatona": 1853,
      "Ġ200": 1854,
      "piletso": 1855,
      "ĠRapapa": 1856,
      "Ġpalo": 1857,
      "ĠPhato": 1858,
      "qhobi": 1859,
      "mahane": 1860,
      "ĠMahao": 1861,
      "SA": 1862,
      "tjoa": 1863,
      "hloko": 1864,
      "ĠtÅ¡o": 1865,
      "ĠLieu": 1866,
      "Ġngoli": 1867,
      "tjane": 1868,
      "hetsi": 1869,
      "Ġhlalosoa": 1870,
      "kuena": 1871,
      "Ġlipolao": 1872,
      "Ġtoboke": 1873,
      "Papali": 1874,
      "ee": 1875,
      "Ġseabo": 1876,
      "Ġsetsing": 1877,
      "Ġmoea": 1878,
      "Ġmahlale": 1879,
      "nyetsi": 1880,
      "Ġngoa": 1881,
      "Ġmafura": 1882,
      "qebelo": 1883,
      "ĠLebo": 1884,
      "ĠTo": 1885,
      "Ġtsoele": 1886,
      "ĠBotswana": 1887,
      "Ġkhothaletsa": 1888,
      "Ġtsebo": 1889,
      "ĠMoqebelo": 1890,
      "Ġnkile": 1891,
      "joale": 1892,
      "Ġhampe": 1893,
      "Ġbaru": 1894,
      "ĠMolao": 1895,
      "Ġlithunya": 1896,
      "Ġlipehelo": 1897,
      "Ġikarabellang": 1898,
      "itseng": 1899,
      "uthing": 1900,
      "loso": 1901,
      "moso": 1902,
      "tebo": 1903,
      "maloa": 1904,
      "tlamo": 1905,
      "Ġkotlo": 1906,
      "Ġqoso": 1907,
      "Ġlla": 1908,
      "Ġsesu": 1909,
      "Ġboletsoe": 1910,
      "ĠPhup": 1911,
      "Ġsesupo": 1912,
      "ck": 1913,
      "oantÅ¡o": 1914,
      "Ġbofuma": 1915,
      "kisoa": 1916,
      "lungoana": 1917,
      "nyenyane": 1918,
      "ĠLinare": 1919,
      "ĠPhuptjane": 1920,
      "litseng": 1921,
      "Ġtlhopho": 1922,
      "Ġtikolohong": 1923,
      "Ġmaano": 1924,
      "Ġmaqhe": 1925,
      "ĠMola": 1926,
      "Ġiphu": 1927,
      "tÅ¡ehetsi": 1928,
      "Ġtokomane": 1929,
      "Ġkhothalletsa": 1930,
      "Ġlikamano": 1931,
      "Ġphomo": 1932,
      "rekhong": 1933,
      "Ġsetho": 1934,
      "side": 1935,
      "luoa": 1936,
      "Ġboithuto": 1937,
      "khethe": 1938,
      "poleseng": 1939,
      "Ġamang": 1940,
      "Ġliketso": 1941,
      "Ġamehang": 1942,
      "ĠZ": 1943,
      "reke": 1944,
      "Ġmotha": 1945,
      "tala": 1946,
      "Ġnalane": 1947,
      "Tseka": 1948,
      "ĠPulungoana": 1949,
      "com": 1950,
      "Ġfeng": 1951,
      "fetse": 1952,
      "khethi": 1953,
      "bia": 1954,
      "Ġtsamaiso": 1955,
      "Ġlikhethong": 1956,
      "ĠPherekhong": 1957,
      "Ġkaalo": 1958,
      "betse": 1959,
      "fane": 1960,
      "Ġhlalose": 1961,
      "Ġfumanoe": 1962,
      "Ġtheko": 1963,
      "Ġtlotla": 1964,
      "Ġsehlooho": 1965,
      "Ġselekane": 1966,
      "kaneng": 1967,
      "Ġkelello": 1968,
      "ĠMoo": 1969,
      "tiso": 1970,
      "ĠQuthing": 1971,
      "chane": 1972,
      "Ġtoka": 1973,
      "Ġmeralo": 1974,
      "19": 1975,
      "CO": 1976,
      "eki": 1977,
      "Ġemela": 1978,
      "Ġleqe": 1979,
      "reside": 1980,
      "Ġlihlo": 1981,
      "Ġlipha": 1982,
      "Ġboea": 1983,
      "ndent": 1984,
      "phihle": 1985,
      "Ġtobokelitse": 1986,
      "La": 1987,
      "ana": 1988,
      "we": 1989,
      "Ġhu": 1990,
      "Ġbosiu": 1991,
      "betsa": 1992,
      "Ġikha": 1993,
      "peri": 1994,
      "tsoana": 1995,
      "ĠSA": 1996,
      "Ġutloisisa": 1997,
      "Ġlibuka": 1998,
      "Ġsha": 1999,
      "Ġmafe": 2000,
      "ĠLC": 2001,
      "khotleng": 2002,
      "tlela": 2003,
      "Mokhatlo": 2004,
      "Har": 2005,
      "Ġbuisa": 2006,
      "Ġketsahalo": 2007,
      "Ġmi": 2008,
      "batho": 2009,
      "kang": 2010,
      "khetha": 2011,
      "Ġrobeli": 2012,
      "Ġshebane": 2013,
      "Ġananela": 2014,
      "Ġlifeme": 2015,
      "25": 2016,
      "lho": 2017,
      "Ġlekhetho": 2018,
      "moro": 2019,
      "mehla": 2020,
      "tena": 2021,
      "ĠMale": 2022,
      "khang": 2023,
      "phetoho": 2024,
      "Ġboiphihle": 2025,
      "ĠNo": 2026,
      "Maseterata": 2027,
      "Ġhlokahala": 2028,
      "Ġqosoang": 2029,
      "mu": 2030,
      "Ġlifa": 2031,
      "Ġkeke": 2032,
      "Ġhlahang": 2033,
      "Ġlule": 2034,
      "Ġsebelisang": 2035,
      "tsuoa": 2036,
      "Ġbokamoso": 2037,
      "ĠQacha": 2038,
      "Ġboiphihlelo": 2039,
      "FP": 2040,
      "TÅ¡": 2041,
      "Ġj": 2042,
      "Ġmoke": 2043,
      "Ġmotle": 2044,
      "Ġito": 2045,
      "ĠMakha": 2046,
      "ĠTi": 2047,
      "ĠThe": 2048,
      "Ġmothamahane": 2049,
      "Ġbala": 2050,
      "Ġkatleho": 2051,
      "Ġmoi": 2052,
      "tholi": 2053,
      "Ġtlaleha": 2054,
      "Ġboitelo": 2055,
      "Ġmohope": 2056,
      "Ġkenyeletsang": 2057,
      "toana": 2058,
      "Ġliphu": 2059,
      "ĠMona": 2060,
      "ĠtÅ¡epa": 2061,
      "pisitse": 2062,
      "Ġetsoang": 2063,
      "mpi": 2064,
      "hatsana": 2065,
      "Ġboele": 2066,
      "Ġbehe": 2067,
      "fumahatsana": 2068,
      "Ġtumellano": 2069,
      "tenant": 2070,
      "Moe": 2071,
      "rs": 2072,
      "ung": 2073,
      "Ġsoko": 2074,
      "Ġbotsi": 2075,
      "Ġtemong": 2076,
      "Ġthabile": 2077,
      "ĠRo": 2078,
      "Ġ12": 2079,
      "Ġekaba": 2080,
      "Ġitefe": 2081,
      "Ġtsamaisang": 2082,
      "ĠMokoetlisi": 2083,
      "ĠPi": 2084,
      "ĠKhe": 2085,
      "Ġfetang": 2086,
      "Ġlulang": 2087,
      "ntendent": 2088,
      "Ġlikopo": 2089,
      "Ġlehlatsipa": 2090,
      "perintendent": 2091,
      "Ġmohato": 2092,
      "Ġtseleng": 2093,
      "ĠDC": 2094,
      "Ġhlahlamang": 2095,
      "oda": 2096,
      "hamphani": 2097,
      "Ġsepoleseng": 2098,
      "Ġkamehla": 2099,
      "tolo": 2100,
      "sitsoeng": 2101,
      "Ġbohloeki": 2102,
      "nate": 2103,
      "ĠLija": 2104,
      "Ġ13": 2105,
      "Ġlume": 2106,
      "Ġpaki": 2107,
      "Ġkhoebong": 2108,
      "Ġarabela": 2109,
      "ĠLikhokahanyo": 2110,
      "odacom": 2111,
      "Ġbabu": 2112,
      "Ġsohle": 2113,
      "ĠtoantÅ¡o": 2114,
      "ĠTÅ¡itoe": 2115,
      "ll": 2116,
      "ĠHo": 2117,
      "thala": 2118,
      "Ġteropo": 2119,
      "Ġkhoe": 2120,
      "Ġboitlamo": 2121,
      "Ġtaolo": 2122,
      "ĠRaba": 2123,
      "Ġtlhabollo": 2124,
      "Ġlikotsi": 2125,
      "Ġliqeto": 2126,
      "Ġnyolla": 2127,
      "Ġbotsitso": 2128,
      "Advocate": 2129,
      "Ġeng": 2130,
      "Ġlemo": 2131,
      "Ġseke": 2132,
      "Ġmeputso": 2133,
      "Ġqho": 2134,
      "Ġteka": 2135,
      "Hape": 2136,
      "ĠRamo": 2137,
      "ĠCa": 2138,
      "Ġfihlella": 2139,
      "ĠntÅ¡etsa": 2140,
      "Ġiphelisa": 2141,
      "Ġbaballa": 2142,
      "Ġmokhahlelong": 2143,
      "Ġfo": 2144,
      "rolong": 2145,
      "Ġhloloa": 2146,
      "ĠLikuena": 2147,
      "ĠKi": 2148,
      "Ġfihlile": 2149,
      "Ġsebetsana": 2150,
      "Basotho": 2151,
      "Ġelelloa": 2152,
      "ĠMofosi": 2153,
      "MP": 2154,
      "Ġletlole": 2155,
      "ĠbatÅ¡oaruoa": 2156,
      "Ġboha": 2157,
      "Ġhaka": 2158,
      "Ġmapa": 2159,
      "khotha": 2160,
      "Motlotlehi": 2161,
      "Ġkhakha": 2162,
      "Ġbophelong": 2163,
      "letsong": 2164,
      "Ġlitholoana": 2165,
      "Ġekasita": 2166,
      "ĠParamente": 2167,
      "lelo": 2168,
      "ĠMoko": 2169,
      "ĠbontÅ¡itseng": 2170,
      "biso": 2171,
      "Ġmalebela": 2172,
      "Ġmasimo": 2173,
      "Empa": 2174,
      "mphe": 2175,
      "Ġkahlolo": 2176,
      "Ġmaoa": 2177,
      "ĠMatla": 2178,
      "hina": 2179,
      "hisa": 2180,
      "Ġ16": 2181,
      "Ġphano": 2182,
      "Ġborokho": 2183,
      "ling": 2184,
      "Ġbabelaelloa": 2185,
      "reki": 2186,
      "Ġlitha": 2187,
      "Ġotla": 2188,
      "ĠMoholo": 2189,
      "Ġmengata": 2190,
      "Sepolesa": 2191,
      "Ġboipiletso": 2192,
      "Ġpula": 2193,
      "Ġithutile": 2194,
      "Ġthipa": 2195,
      "Ġhlekefetsa": 2196,
      "ĠMajara": 2197,
      "ĠmofetÅ¡e": 2198,
      "tsetsa": 2199,
      "Ġmaho": 2200,
      "Ġmashome": 2201,
      "Ġsala": 2202,
      "ĠMote": 2203,
      "Ġtlase": 2204,
      "Ġmeko": 2205,
      "Ġthuse": 2206,
      "fetseng": 2207,
      "Ġ17": 2208,
      "Ġsiea": 2209,
      "nda": 2210,
      "Ġthatiselletsa": 2211,
      "Ġngoahola": 2212,
      "Ġeseng": 2213,
      "Mase": 2214,
      "Ġhlokometse": 2215,
      "residente": 2216,
      "Ġemisa": 2217,
      "ĠmatÅ¡oa": 2218,
      "Mokoetlisi": 2219,
      "Ġsebelitse": 2220,
      "theng": 2221,
      "kulo": 2222,
      "Ġliking": 2223,
      "ĠVodacom": 2224,
      "tÅ¡eanong": 2225,
      "Ġmorolo": 2226,
      "Ġmakhetlo": 2227,
      "ĠMotÅ¡eanong": 2228,
      "ĠSesotho": 2229,
      "Ġbafu": 2230,
      "Ġbula": 2231,
      "Ġmoralo": 2232,
      "Ġholim": 2233,
      "Ġbakoang": 2234,
      "Ġlitlhare": 2235,
      "Ġtja": 2236,
      "Ġane": 2237,
      "Ġketso": 2238,
      "Ġmatlo": 2239,
      "tello": 2240,
      "rosi": 2241,
      "nyang": 2242,
      "ĠPuso": 2243,
      "Bacha": 2244,
      "Ġkamoso": 2245,
      "ĠRaliphatlalatso": 2246,
      "Ġlebohile": 2247,
      "Ġngoanana": 2248,
      "Ġkenyeletsa": 2249,
      "Ġatamela": 2250,
      "ĠSuperintendent": 2251,
      "»¿": 2252,
      "ï»¿": 2253,
      "lise": 2254,
      "ĠProfessor": 2255,
      "Ġkhao": 2256,
      "Ġsusu": 2257,
      "Litaba": 2258,
      "Ġraro": 2259,
      "tÅ¡oaro": 2260,
      "lliance": 2261,
      "Ġphethahatsa": 2262,
      "Ġtiisitse": 2263,
      "Ġitefella": 2264,
      "Ġbahla": 2265,
      "Ġsello": 2266,
      "Ġbosu": 2267,
      "Ġmotheo": 2268,
      "setulo": 2269,
      "Ġlapeng": 2270,
      "Ġmerero": 2271,
      "ĠLeha": 2272,
      "Ġetsahetse": 2273,
      "ĠSee": 2274,
      "okoli": 2275,
      "Ġhloekileng": 2276,
      "Ġmohlala": 2277,
      "Ġmojao": 2278,
      "Ea": 2279,
      "Ġleseli": 2280,
      "Ġseholo": 2281,
      "kotsebe": 2282,
      "ĠtÅ¡enyo": 2283,
      "Ġlebala": 2284,
      "Ġatlehile": 2285,
      "ĠUN": 2286,
      "Ġofising": 2287,
      "Ġreretsoe": 2288,
      "Ġbohla": 2289,
      "Ġbocha": 2290,
      "elella": 2291,
      "hiloeng": 2292,
      "ĠPhupu": 2293,
      "ĠMokhotlong": 2294,
      "ga": 2295,
      "Ġlebele": 2296,
      "Ġmoha": 2297,
      "kanyo": 2298,
      "sisa": 2299,
      "khono": 2300,
      "Ġnahana": 2301,
      "soang": 2302,
      "futa": 2303,
      "Ġ11": 2304,
      "Ġqetela": 2305,
      "Ġkenang": 2306,
      "Ġpelaelo": 2307,
      "ĠLieutenant": 2308,
      "letsuoa": 2309,
      "Ġbaholo": 2310,
      "Ġlibo": 2311,
      "ĠMole": 2312,
      "Ġntoa": 2313,
      "kitla": 2314,
      "khachane": 2315,
      "ĠAlliance": 2316,
      "ĠboitÅ¡oaro": 2317,
      "Ġtumelo": 2318,
      "ĠNek": 2319,
      "Ġbonngoe": 2320,
      "Ġntate": 2321,
      "ĠMoorosi": 2322,
      "MPS": 2323,
      "nne": 2324,
      "hase": 2325,
      "Ġbakoetlisi": 2326,
      "tseha": 2327,
      "Ġbosebeletsi": 2328,
      "Ġmafa": 2329,
      "Ġmantsoe": 2330,
      "thoko": 2331,
      "kelong": 2332,
      "Ġtlohe": 2333,
      "Ġlebatooeng": 2334,
      "Ġtharollo": 2335,
      "Ġbahlankana": 2336,
      "noana": 2337,
      "Ġtsi": 2338,
      "Ġlia": 2339,
      "Ġhlole": 2340,
      "langoang": 2341,
      "ĠCha": 2342,
      "Ġshebe": 2343,
      "ĠtÅ¡oenye": 2344,
      "Ġlebelletse": 2345,
      "ĠTÅ¡ebeliso": 2346,
      "Ġahlotsoe": 2347,
      "Ġlakatsa": 2348,
      "ĠRabasotho": 2349,
      "mba": 2350,
      "laea": 2351,
      "ĠbatÅ¡ehetsi": 2352,
      "Ġeang": 2353,
      "ĠMoa": 2354,
      "tÅ¡okoli": 2355,
      "hiri": 2356,
      "loane": 2357,
      "Ġshebile": 2358,
      "Ġkahoo": 2359,
      "VID": 2360,
      "Ġela": 2361,
      "Ġseriti": 2362,
      "Ġlitje": 2363,
      "tseteli": 2364,
      "Ġbotho": 2365,
      "pano": 2366,
      "Ġlao": 2367,
      "Ġhlasela": 2368,
      "Ġfetela": 2369,
      "Ġtlholo": 2370,
      "Ġmolaong": 2371,
      "roane": 2372,
      "ĠIII": 2373,
      "Ġnyoloha": 2374,
      "Ġnyenyane": 2375,
      "IV": 2376,
      "Ġhora": 2377,
      "Ġlaela": 2378,
      "Ġfenya": 2379,
      "Morero": 2380,
      "ĠSenior": 2381,
      "ĠAme": 2382,
      "jane": 2383,
      "Ġfanang": 2384,
      "Ġbapalang": 2385,
      "Ġmabala": 2386,
      "Ġthoholetsa": 2387,
      "Ġliphuputso": 2388,
      "va": 2389,
      "lenta": 2390,
      "Ġbakhethoa": 2391,
      "soe": 2392,
      "ĠMabo": 2393,
      "ĠTla": 2394,
      "Ġ26": 2395,
      "Ġ14": 2396,
      "tÅ¡oane": 2397,
      "ĠHlo": 2398,
      "ision": 2399,
      "ntja": 2400,
      "Ġkoetli": 2401,
      "Ġtobaneng": 2402,
      "Ġhlokahalang": 2403,
      "ĠCOVID": 2404,
      "Ġbarutoana": 2405,
      "Dr": 2406,
      "Ġbaqosuoa": 2407,
      "Ġlinye": 2408,
      "Ġlimpho": 2409,
      "Ġnolo": 2410,
      "Ġmehla": 2411,
      "Ġmefuta": 2412,
      "elehe": 2413,
      "Ġjele": 2414,
      "ĠLijabatho": 2415,
      "fisa": 2416,
      "rile": 2417,
      "uoa": 2418,
      "Ġlio": 2419,
      "Ġako": 2420,
      "Ġhapile": 2421,
      "ketsi": 2422,
      "ĠLMPS": 2423,
      "Ġmekhahlelo": 2424,
      "ĠKoe": 2425,
      "Ġlengolo": 2426,
      "ĠHIV": 2427,
      "Ġatlehe": 2428,
      "Ġqetelletse": 2429,
      "Ġparamenteng": 2430,
      "khothaletsuoa": 2431,
      "jalo": 2432,
      "Ġlik": 2433,
      "Ġmokete": 2434,
      "hetsoe": 2435,
      "pang": 2436,
      "hlobo": 2437,
      "hlooho": 2438,
      "ĠMongoli": 2439,
      "boroane": 2440,
      "Ġnena": 2441,
      "Ġnepo": 2442,
      "Ġthehiloe": 2443,
      "jana": 2444,
      "Ġ2021": 2445,
      "choboroane": 2446,
      "Ġmabatooa": 2447,
      "bisano": 2448,
      "Ġsebelisoang": 2449,
      "Ġetela": 2450,
      "Ġbareki": 2451,
      "bang": 2452,
      "Ġmararo": 2453,
      "mola": 2454,
      "Ġpholo": 2455,
      "llano": 2456,
      "thehi": 2457,
      "ĠPe": 2458,
      "Ġkhotsofetse": 2459,
      "Ġipabola": 2460,
      "thile": 2461,
      "Ġtsie": 2462,
      "Ġlebelo": 2463,
      "Ġmochochisi": 2464,
      "Ġhajoale": 2465,
      "ĠMochoboroane": 2466,
      "Ġkhau": 2467,
      "Bosiu": 2468,
      "Eena": 2469,
      "za": 2470,
      "hopo": 2471,
      "Ġlele": 2472,
      "Ġameha": 2473,
      "Ġmate": 2474,
      "meloa": 2475,
      "tion": 2476,
      "ĠSi": 2477,
      "Ġphethetse": 2478,
      "nkaneng": 2479,
      "ĠFC": 2480,
      "Ġmatsohong": 2481,
      "Ġlipuisano": 2482,
      "BC": 2483,
      "Tlho": 2484,
      "etse": 2485,
      "Ġbararo": 2486,
      "Ġseoa": 2487,
      "keho": 2488,
      "ĠLeka": 2489,
      "ĠLephe": 2490,
      "ĠMahla": 2491,
      "lisana": 2492,
      "ĠLipa": 2493,
      "Ġqale": 2494,
      "Ġfapakaneng": 2495,
      "Ġlithuso": 2496,
      "roetsana": 2497,
      "ĠNtÅ¡etsopele": 2498,
      "Ġlitjeo": 2499,
      "AP": 2500,
      "qha": 2501,
      "netso": 2502,
      "moea": 2503,
      "Ġmehala": 2504,
      "ĠMaho": 2505,
      "Ġfelisa": 2506,
      "Ġhlooho": 2507,
      "lletsoeng": 2508,
      "Ġkhatello": 2509,
      "Mamo": 2510,
      "Ġthomo": 2511,
      "ĠMokhothu": 2512,
      "Ġhoe": 2513,
      "lomo": 2514,
      "Ġsetsoalle": 2515,
      "Ġbophatlalatsi": 2516,
      "Ġhana": 2517,
      "Ġmanane": 2518,
      "Ġitla": 2519,
      "lletso": 2520,
      "Ġtsote": 2521,
      "ĠlefatÅ¡eng": 2522,
      "tsamao": 2523,
      "Ġmohoo": 2524,
      "ĠButha": 2525,
      "ĠLefatÅ¡e": 2526,
      "Ġlinyeoe": 2527,
      "Athe": 2528,
      "th": 2529,
      "Ġje": 2530,
      "Ġbolu": 2531,
      "Ġmotseng": 2532,
      "Banna": 2533,
      "Lipapali": 2534,
      "Ġfumaneha": 2535,
      "Ġntlong": 2536,
      "ĠButhe": 2537,
      "Ġkahona": 2538,
      "Ġkutlo": 2539,
      "Ġlefshoa": 2540,
      "ĠMolapo": 2541,
      "DP": 2542,
      "ihlo": 2543,
      "ngo": 2544,
      "Ġleihlo": 2545,
      "Ġkathoko": 2546,
      "Ġbokho": 2547,
      "tang": 2548,
      "ĠLefapha": 2549,
      "Ġkopile": 2550,
      "llong": 2551,
      "kheo": 2552,
      "Ġlipaki": 2553,
      "Ġkoala": 2554,
      "Ġbonnete": 2555,
      "Ġkopanelo": 2556,
      "Ġreretsoeng": 2557,
      "Ġtataiso": 2558,
      "Ġlifate": 2559,
      "ig": 2560,
      "ste": 2561,
      "Ġtseka": 2562,
      "Ġmachabeng": 2563,
      "mon": 2564,
      "Ġtlasa": 2565,
      "sing": 2566,
      "ĠMachaba": 2567,
      "ĠTho": 2568,
      "shoelella": 2569,
      "Ġchankaneng": 2570,
      "Ġtlalehoa": 2571,
      "Ġhlokomelisa": 2572,
      "Ġmaqheku": 2573,
      "ĠKick": 2574,
      "hasello": 2575,
      "rg": 2576,
      "Ġbohahlauli": 2577,
      "Ġoela": 2578,
      "Ġmao": 2579,
      "Ġmabo": 2580,
      "noeng": 2581,
      "Ġbehile": 2582,
      "Ġlinako": 2583,
      "Ġ2017": 2584,
      "Ġipabotseng": 2585,
      "Ġbapetse": 2586,
      "Ġkhoebisano": 2587,
      "SCO": 2588,
      "lafa": 2589,
      "Ġseaparo": 2590,
      "Ġliphetoho": 2591,
      "mathi": 2592,
      "llela": 2593,
      "Ġetsahalang": 2594,
      "Hona": 2595,
      "ĠRFP": 2596,
      "Ġnkang": 2597,
      "Ġmillione": 2598,
      "ĠSeeiso": 2599,
      "Ġliofisi": 2600,
      "Ra": 2601,
      "netse": 2602,
      "ĠMpo": 2603,
      "kello": 2604,
      "ĠMohlo": 2605,
      "ranta": 2606,
      "kolohi": 2607,
      "Ġkhato": 2608,
      "Male": 2609,
      "Bana": 2610,
      "Ġkoetlisa": 2611,
      "Ġnetefa": 2612,
      "Ġboiketlo": 2613,
      "Ġnehelana": 2614,
      "ĠfumantÅ¡oa": 2615,
      "TÅ¡e": 2616,
      "ĠLekaleng": 2617,
      "500": 2618,
      "ver": 2619,
      "naha": 2620,
      "ĠMaka": 2621,
      "rica": 2622,
      "Ġtsoile": 2623,
      "ĠSa": 2624,
      "Ġbolokolohi": 2625,
      "Ġkenela": 2626,
      "Ġsireletse": 2627,
      "hloliloeng": 2628,
      "Ġikopa": 2629,
      "ĠMajantja": 2630,
      "ĠKhetheng": 2631,
      "Ġekasitana": 2632,
      "Ġmahokela": 2633,
      "Ġmafapheng": 2634,
      "Ġhokae": 2635,
      "Ġsetse": 2636,
      "Ġlijalo": 2637,
      "Ġbotlo": 2638,
      "Ġmoshoelella": 2639,
      "Ġmamela": 2640,
      "ran": 2641,
      "Ġbebo": 2642,
      "Ġ29": 2643,
      "Ġentsoeng": 2644,
      "Tsena": 2645,
      "Ġmalala": 2646,
      "Moetapele": 2647,
      "ĠMabote": 2648,
      "30": 2649,
      "Ġbale": 2650,
      "Ġboteng": 2651,
      "Ġmohala": 2652,
      "belang": 2653,
      "katso": 2654,
      "metso": 2655,
      "sele": 2656,
      "rotholi": 2657,
      "polotiki": 2658,
      "Ġ21": 2659,
      "Ġ28": 2660,
      "Ġpono": 2661,
      "ĠCor": 2662,
      "Ġlikhomo": 2663,
      "Ġkhothatsa": 2664,
      "Ġsephetho": 2665,
      "Ġfokolang": 2666,
      "Ġlokolla": 2667,
      "Ġmoetapele": 2668,
      "ĠTlali": 2669,
      "ĠLephema": 2670,
      "Ġbakhethi": 2671,
      "Ġbatseteli": 2672,
      "ĠsetÅ¡oantÅ¡o": 2673,
      "Ġlibe": 2674,
      "Ġpelo": 2675,
      "Ġnkhono": 2676,
      "Ġphele": 2677,
      "Ġthabo": 2678,
      "Ġlipotso": 2679,
      "Ġlenaneo": 2680,
      "laeano": 2681,
      "ĠAmerika": 2682,
      "ĠCorpo": 2683,
      "lie": 2684,
      "Ġleta": 2685,
      "Ġletsoa": 2686,
      "Ġkarolong": 2687,
      "Ġmoleng": 2688,
      "betso": 2689,
      "Ġimo": 2690,
      "lumo": 2691,
      "Ġbule": 2692,
      "Ġbolella": 2693,
      "ĠChina": 2694,
      "fiso": 2695,
      "Ġloanela": 2696,
      "hlankana": 2697,
      "misetso": 2698,
      "Ġmahafi": 2699,
      "tjo": 2700,
      "litsoeng": 2701,
      "Ġmahe": 2702,
      "Ġmaloti": 2703,
      "metsoe": 2704,
      "Ġpi": 2705,
      "boko": 2706,
      "lung": 2707,
      "Ġ24": 2708,
      "laotsoe": 2709,
      "Ġkopanong": 2710,
      "eboho": 2711,
      "Ġmoetso": 2712,
      "ĠMoetapele": 2713,
      "Ġmokonteraka": 2714,
      "losa": 2715,
      "Ġseka": 2716,
      "Ġbochochisi": 2717,
      "bapali": 2718,
      "betsoe": 2719,
      "sea": 2720,
      "rali": 2721,
      "hisi": 2722,
      "Ġfanoa": 2723,
      "ĠLibaka": 2724,
      "Ġqothi": 2725,
      "Ġmorerong": 2726,
      "ĠbaitÅ¡okoli": 2727,
      "ĠQoa": 2728,
      "ĠTÅ¡epo": 2729,
      "Ġmahlatsipa": 2730,
      "Ġsetopo": 2731,
      "Ġkhakhatha": 2732,
      "Ġakofisa": 2733,
      "ĠCorporal": 2734,
      "nngoa": 2735,
      "vi": 2736,
      "Ġbaleha": 2737,
      "Ġmonye": 2738,
      "kano": 2739,
      "sane": 2740,
      "Ġhlahle": 2741,
      "pelong": 2742,
      "Ġ22": 2743,
      "Ġ23": 2744,
      "Ġpotolo": 2745,
      "Ġpolelo": 2746,
      "Ġlefapheng": 2747,
      "Ġkhahlametsa": 2748,
      "Ġleoto": 2749,
      "Ġloana": 2750,
      "Ġamanang": 2751,
      "Mesa": 2752,
      "UL": 2753,
      "Ġeletsa": 2754,
      "loho": 2755,
      "Ġbaqhobi": 2756,
      "Ġsefu": 2757,
      "Ġmole": 2758,
      "Ġmotsamao": 2759,
      "ĠMolula": 2760,
      "Ġipole": 2761,
      "boho": 2762,
      "ĠMasi": 2763,
      "tiki": 2764,
      "Ġtete": 2765,
      "nyetsa": 2766,
      "Ġentsoe": 2767,
      "Ġlipere": 2768,
      "Ġpel": 2769,
      "Paki": 2770,
      "ia": 2771,
      "ntse": 2772,
      "lisi": 2773,
      "Ġlebitso": 2774,
      "Ġso": 2775,
      "Ġsenya": 2776,
      "Ġbotsamaisi": 2777,
      "Ġtsepa": 2778,
      "saoana": 2779,
      "Ġrea": 2780,
      "ĠTu": 2781,
      "Ġbela": 2782,
      "Ġhloleha": 2783,
      "Ġ27": 2784,
      "ĠLijo": 2785,
      "ĠABC": 2786,
      "roala": 2787,
      "Ġmesebetsing": 2788,
      "khulo": 2789,
      "ĠPitso": 2790,
      "ĠKoetliso": 2791,
      "Ġmatekoane": 2792,
      "wi": 2793,
      "Ġapa": 2794,
      "Ġmokhahlelo": 2795,
      "ĠPri": 2796,
      "Ġtoropo": 2797,
      "Ġlehlokoa": 2798,
      "Ġitlhahisetsa": 2799,
      "Ġtloaele": 2800,
      "Ġtsietsing": 2801,
      "ty": 2802,
      "Ġbanyenyane": 2803,
      "Ġkaholimo": 2804,
      "sosa": 2805,
      "Ġmenoana": 2806,
      "Ġpheletsong": 2807,
      "Ġtsoso": 2808,
      "Ġphatla": 2809,
      "Ġpale": 2810,
      "Ġpala": 2811,
      "putsoe": 2812,
      "Ġlihlapiso": 2813,
      "Ġheso": 2814,
      "ĠmatÅ¡oao": 2815,
      "RC": 2816,
      "es": 2817,
      "ld": 2818,
      "qu": 2819,
      "Ġnama": 2820,
      "Ġikho": 2821,
      "roho": 2822,
      "ĠLesaoana": 2823,
      "Ġqha": 2824,
      "llelitse": 2825,
      "ĠLiphatlalatso": 2826,
      "pisong": 2827,
      "Ġlipolaeano": 2828,
      "ĠMesebetsi": 2829,
      "chini": 2830,
      "ĠMoeketsi": 2831,
      "Ġtheoha": 2832,
      "Ġikakhe": 2833,
      "Ġhula": 2834,
      "Ġbuisana": 2835,
      "ĠQoaling": 2836,
      "letsoa": 2837,
      "Ġbasebeletsi": 2838,
      "rela": 2839,
      "Ġsethala": 2840,
      "Ġmoshanyana": 2841,
      "Ġlaola": 2842,
      "ĠMori": 2843,
      "ĠtÅ¡u": 2844,
      "kiloeng": 2845,
      "Ġthahasello": 2846,
      "Ġngola": 2847,
      "Ġtoto": 2848,
      "fofane": 2849,
      "Ġbaoki": 2850,
      "ĠtÅ¡oeroe": 2851,
      "ĠtÅ¡itiso": 2852,
      "Ġphethahala": 2853,
      "Ġhloekisa": 2854,
      "Ġlinoko": 2855,
      "Ġtataisa": 2856,
      "Ġmoketeng": 2857,
      "Ġrarolla": 2858,
      "Ġbohlasoa": 2859,
      "50": 2860,
      "CC": 2861,
      "nnete": 2862,
      "Ġbakhothaletsuoa": 2863,
      "relane": 2864,
      "ĠMopeli": 2865,
      "Ġnkoa": 2866,
      "ĠLehlo": 2867,
      "ĠBAP": 2868,
      "Seo": 2869,
      "kiloe": 2870,
      "Ġlokisoa": 2871,
      "Ġboemeli": 2872,
      "ĠNto": 2873,
      "Ġlitsiane": 2874,
      "Ġphunye": 2875,
      "ĠUni": 2876,
      "Ġphatlalatsa": 2877,
      "Ġlatelang": 2878,
      "ĠtÅ¡oenyehile": 2879,
      "Ġbokhoni": 2880,
      "Ġbanka": 2881,
      "Ġsei": 2882,
      "Ġliea": 2883,
      "Ġkape": 2884,
      "Ġbochaba": 2885,
      "Ġbonolo": 2886,
      "Ġathe": 2887,
      "Ġakare": 2888,
      "Ġmokha": 2889,
      "pala": 2890,
      "kana": 2891,
      "Ġrekisetsa": 2892,
      "Ġpona": 2893,
      "Ġmehato": 2894,
      "ĠMajo": 2895,
      "Ġkhutlisa": 2896,
      "Ġfokola": 2897,
      "Ġphuthe": 2898,
      "Ġpolokeho": 2899,
      "ĠSADC": 2900,
      "Ġmafelo": 2901,
      "ĠLCS": 2902,
      "Te": 2903,
      "khisetsa": 2904,
      "Ġtsetela": 2905,
      "mene": 2906,
      "Ġnana": 2907,
      "Ġnakoana": 2908,
      "ĠMoro": 2909,
      "ĠMotheo": 2910,
      "Ġnkhisetsa": 2911,
      "ĠTeboho": 2912,
      "ĠtÅ¡epe": 2913,
      "ĠBoqapi": 2914,
      "Ġphethetsoe": 2915,
      "Ġmotlatsi": 2916,
      "ĠtÅ¡oereng": 2917,
      "Ġetella": 2918,
      "Ġsebelise": 2919,
      "thating": 2920,
      "elehetso": 2921,
      "Ġmaobane": 2922,
      "Ġkapel": 2923,
      "10": 2924,
      "ASCO": 2925,
      "Ã¡": 2926,
      "Ġmakhethe": 2927,
      "khoebo": 2928,
      "Ġetsahetseng": 2929,
      "Ġkholiso": 2930,
      "ĠPho": 2931,
      "mino": 2932,
      "Ġfihlele": 2933,
      "ĠIEC": 2934,
      "ĠDu": 2935,
      "Ġtumello": 2936,
      "Ġfetisisa": 2937,
      "Ġsitisa": 2938,
      "Ġkotloloho": 2939,
      "vate": 2940,
      "Ġnolofa": 2941,
      "lileng": 2942,
      "Ġshoa": 2943,
      "ĠlitÅ¡i": 2944,
      "Ġlikulo": 2945,
      "oane": 2946,
      "Ġmokhethoa": 2947,
      "Ġmabe": 2948,
      "ĠLerotholi": 2949,
      "ĠMaputsoe": 2950,
      "Sephe": 2951,
      "Ġthunya": 2952,
      "Ġthusitse": 2953,
      "Ġkhokelo": 2954,
      "Ġkhoelehetso": 2955,
      "Lentsoe": 2956,
      "Ġtalenta": 2957,
      "eane": 2958,
      "Lihlopha": 2959,
      "ndo": 2960,
      "Ġketekelo": 2961,
      "Ġseboko": 2962,
      "ĠletÅ¡olong": 2963,
      "Ġbapetseng": 2964,
      "rd": 2965,
      "Ġbookameli": 2966,
      "Ġmane": 2967,
      "Ġmatha": 2968,
      "meleng": 2969,
      "thabile": 2970,
      "nyalo": 2971,
      "lletsoa": 2972,
      "Ġsenang": 2973,
      "Ġtakatso": 2974,
      "Ġqobe": 2975,
      "Ġatlehileng": 2976,
      "Ġphahame": 2977,
      "Ġketekoa": 2978,
      "Ġlipeo": 2979,
      "Ġlitefiso": 2980,
      "Ġlumellang": 2981,
      "Ġkhutlisetsa": 2982,
      "ĠtoantÅ¡ong": 2983,
      "'.": 2984,
      "nngoe": 2985,
      "Ġhopole": 2986,
      "baba": 2987,
      "Ġmatloana": 2988,
      "mae": 2989,
      "Ġtlame": 2990,
      "Ġthetha": 2991,
      "Ġbue": 2992,
      "ĠbontÅ¡ang": 2993,
      "ĠJo": 2994,
      "Ġiphumana": 2995,
      "Ġhlaloselitse": 2996,
      "ĠNotÅ¡i": 2997,
      "Ġponaletso": 2998,
      "Ġntla": 2999,
      "tÅ¡oe": 3000,
      "fere": 3001,
      "ĠNtlo": 3002,
      "Batho": 3003,
      "Ġphara": 3004,
      "Ġletsatsing": 3005,
      "Ġbapalla": 3006,
      "Ġlitsebi": 3007,
      "Ġfetohile": 3008,
      "Ġlokollo": 3009,
      "Ġchechi": 3010,
      "Ġkentse": 3011,
      "Ġnkhisetsana": 3012,
      "mbe": 3013,
      "lisong": 3014,
      "Ġmpho": 3015,
      "Ġbotsa": 3016,
      "Ġkereke": 3017,
      "Ġmabitso": 3018,
      "setsoa": 3019,
      "ĠtÅ¡episo": 3020,
      "Ġthekiso": 3021,
      "Ġmonate": 3022,
      "Ġuna": 3023,
      "Ġqetellong": 3024,
      "Ġelelletsoe": 3025,
      "Ġkoaloa": 3026,
      "Ġaraba": 3027,
      "Ġtlatsetsa": 3028,
      "ĠPrivate": 3029,
      "Muelli": 3030,
      "emane": 3031,
      "Ġliho": 3032,
      "Ġoele": 3033,
      "ball": 3034,
      "Ġkeneng": 3035,
      "Ġmapolesa": 3036,
      "Ġmamello": 3037,
      "melong": 3038,
      "Ġnkileng": 3039,
      "Ġithe": 3040,
      "phato": 3041,
      "riha": 3042,
      "Ġsebelletsa": 3043,
      "Ġphetho": 3044,
      "ĠBacha": 3045,
      "ĠPC": 3046,
      "ĠSeli": 3047,
      "Ġnga": 3048,
      "Ġngoe": 3049,
      "Ġtai": 3050,
      "Ġpokello": 3051,
      "Ġlikobo": 3052,
      "ĠKamoli": 3053,
      "ĠTau": 3054,
      "Ġ199": 3055,
      "osane": 3056,
      "Ġmakhaola": 3057,
      "Ġballoa": 3058,
      "Ġbohlale": 3059,
      "pane": 3060,
      "Ġfile": 3061,
      "ĠMokhethoa": 3062,
      "ĠMofumahatsana": 3063,
      "Ġitho": 3064,
      "Ġhlophi": 3065,
      "Ġkomello": 3066,
      "Ġfarelane": 3067,
      "Ġtokiso": 3068,
      "Ġmongoli": 3069,
      "ĠAfrica": 3070,
      "ĠLaboraro": 3071,
      "Ġikeletsa": 3072,
      "Ġlikhakanyo": 3073,
      "Ġkhoeling": 3074,
      "Ġphoso": 3075,
      "ĠntÅ¡etsopele": 3076,
      "Ġleetong": 3077,
      "Ġlithutong": 3078,
      "Ġthakhola": 3079,
      "Ġshebaneng": 3080,
      "Ġbotlokotsebe": 3081,
      "Ng": 3082,
      "ry": 3083,
      "swa": 3084,
      "nga": 3085,
      "Ġbalisana": 3086,
      "Ġbohlano": 3087,
      "helang": 3088,
      "rasi": 3089,
      "ĠLichelete": 3090,
      "ĠSello": 3091,
      "Ġboiphe": 3092,
      "Ġfuoeng": 3093,
      "Ġbuang": 3094,
      "ĠFo": 3095,
      "Ġliphoso": 3096,
      "otong": 3097,
      "Ġlebese": 3098,
      "Ġlebelletsoe": 3099,
      "Ġlitlamong": 3100,
      "Naha": 3101,
      "Ġitlhophe": 3102,
      "Ġlefella": 3103,
      "Ġsokola": 3104,
      "ae": 3105,
      "lima": 3106,
      "Ġsecha": 3107,
      "Ġkala": 3108,
      "Ġmothating": 3109,
      "Ġmeo": 3110,
      "Ġmeroho": 3111,
      "hisong": 3112,
      "Ġfelloa": 3113,
      "fani": 3114,
      "Ġsebetsoa": 3115,
      "Ġphepelo": 3116,
      "kolosi": 3117,
      "Ġkhalala": 3118,
      "Ġsebetsanang": 3119,
      "Ġpapisong": 3120,
      "Ġtsoalo": 3121,
      "Ġiketsetsa": 3122,
      "Ġtlhaloso": 3123,
      "Ġipapisitse": 3124,
      "Ġphunyele": 3125,
      "Ġbitsoang": 3126,
      "Ġmoaho": 3127,
      "ĠLipalangoang": 3128,
      "zi": 3129,
      "Ġsehoai": 3130,
      "Ġlipi": 3131,
      "belu": 3132,
      "rakeng": 3133,
      "Ġmeno": 3134,
      "nono": 3135,
      "ĠTsa": 3136,
      "ĠTso": 3137,
      "Motlatsi": 3138,
      "Ġhloke": 3139,
      "Ġhlompha": 3140,
      "Ġthusetsa": 3141,
      "Ġboitse": 3142,
      "Ġkopanya": 3143,
      "Ġlutse": 3144,
      "Litho": 3145,
      "Life": 3146,
      "Ġbolele": 3147,
      "Ġtsamai": 3148,
      "Ġfumanehang": 3149,
      "Ġhlokomele": 3150,
      "Ġmakaleng": 3151,
      "ĠLehae": 3152,
      "Ġmaloting": 3153,
      "Ġseiboko": 3154,
      "um": 3155,
      "leli": 3156,
      "Ġbatle": 3157,
      "Ġhate": 3158,
      "tain": 3159,
      "setso": 3160,
      "rabo": 3161,
      "ĠLeba": 3162,
      "Mokhethoa": 3163,
      "Ġthusoa": 3164,
      "Ġkhomo": 3165,
      "ĠLipapali": 3166,
      "ĠLikhetho": 3167,
      "khele": 3168,
      "Ġthabetse": 3169,
      "Ġbuloa": 3170,
      "Ġkopanang": 3171,
      "ĠShe": 3172,
      "ĠtÅ¡oaea": 3173,
      "Ġkhethi": 3174,
      "Ġtlhahisong": 3175,
      "ĠFa": 3176,
      "bisang": 3177,
      "Ġfuoang": 3178,
      "Ġmoahi": 3179,
      "Ġkhiro": 3180,
      "Ġthoholelitse": 3181,
      "ĠitÅ¡etle": 3182,
      "tjoane": 3183,
      "Sele": 3184,
      "Tlha": 3185,
      "nke": 3186,
      "pholo": 3187,
      "Ġmpa": 3188,
      "kau": 3189,
      "ĠLEC": 3190,
      "Ġlata": 3191,
      "ĠMoja": 3192,
      "bolo": 3193,
      "bohong": 3194,
      "Ġmethati": 3195,
      "ĠMaso": 3196,
      "Ġfelile": 3197,
      "phala": 3198,
      "hleho": 3199,
      "Ġhlokolosi": 3200,
      "phethe": 3201,
      "Ġkholisong": 3202,
      "Ġngaka": 3203,
      "Ġtoro": 3204,
      "Karolo": 3205,
      "ĠBorena": 3206,
      "Ġthusana": 3207,
      "Ġfihletse": 3208,
      "ĠThamae": 3209,
      "ĠKabi": 3210,
      "ĠFu": 3211,
      "Ġamohele": 3212,
      "Ġnyaha": 3213,
      "Ġlipula": 3214,
      "Ġpotlakela": 3215,
      "202": 3216,
      "ĠLefapheng": 3217,
      "Ġsetotsoana": 3218,
      "Ġbahlahisi": 3219,
      "ĠMpotjoane": 3220,
      "Ġpotoloha": 3221,
      "Ġakaretsang": 3222,
      "Po": 3223,
      "Ġboa": 3224,
      "Ġhoseng": 3225,
      "Ġleruo": 3226,
      "Ġsele": 3227,
      "ĠMi": 3228,
      "kale": 3229,
      "Ġmathe": 3230,
      "Ġipha": 3231,
      "Ġfete": 3232,
      "ria": 3233,
      "Ġqhe": 3234,
      "tisa": 3235,
      "thatha": 3236,
      "koloto": 3237,
      "ĠSebo": 3238,
      "Ġbuileng": 3239,
      "eliso": 3240,
      "Ġphahama": 3241,
      "Ġlikhoebong": 3242,
      "Ġ2019": 3243,
      "ĠKomisi": 3244,
      "phisi": 3245,
      "Ġtlhokomelo": 3246,
      "Ġmohau": 3247,
      "Ġtotoba": 3248,
      "ĠNtoi": 3249,
      "buso": 3250,
      "Ġbalekane": 3251,
      "rete": 3252,
      "Ġahoa": 3253,
      "ban": 3254,
      "Ġmariha": 3255,
      "ĠMotlo": 3256,
      "Ġiqa": 3257,
      "Ġmeja": 3258,
      "ĠMakhetha": 3259,
      "fetsa": 3260,
      "Ġ31": 3261,
      "Ġlitloli": 3262,
      "Ġbitsoa": 3263,
      "ĠRethabile": 3264,
      "Ġlieha": 3265,
      "Ġmoifo": 3266,
      "mpiri": 3267,
      "ĠMoahloli": 3268,
      "Ġbolulo": 3269,
      "do": 3270,
      "qele": 3271,
      "Ġhohela": 3272,
      "Ġtlung": 3273,
      "Ġlihloliloeng": 3274,
      "palo": 3275,
      "Ġrerile": 3276,
      "Ġmakhotleng": 3277,
      "seka": 3278,
      "Ġisoa": 3279,
      "Ġfeme": 3280,
      "tlebo": 3281,
      "ĠLipha": 3282,
      "ĠSehlopha": 3283,
      "ĠAD": 3284,
      "ĠNthati": 3285,
      "Ġtate": 3286,
      "Ġ35": 3287,
      "Ġphahamisa": 3288,
      "ĠKanetso": 3289,
      "ĠtÅ¡oarana": 3290,
      "Ġphatlalatso": 3291,
      "Ġtsotelle": 3292,
      "Ġtlamehang": 3293,
      "AF": 3294,
      "elli": 3295,
      "Ġbashanyana": 3296,
      "Ġsesosa": 3297,
      "Ġliaparo": 3298,
      "Ġbofu": 3299,
      "ĠMakoa": 3300,
      "Ġboitlho": 3301,
      "ĠNUL": 3302,
      "Ġthehoa": 3303,
      "Ġtlosa": 3304,
      "Ġtaelo": 3305,
      "Ġtsoelo": 3306,
      "ĠSt": 3307,
      "Ġ40": 3308,
      "Ġhloekile": 3309,
      "Ġnomoro": 3310,
      "Ġmalebana": 3311,
      "Ġmelaoana": 3312,
      "Ġabetsoeng": 3313,
      "Ġanetsa": 3314,
      "ĠMohlomi": 3315,
      "swati": 3316,
      "Fotong": 3317,
      "Kho": 3318,
      "rt": 3319,
      "Ġlitu": 3320,
      "Ġliqo": 3321,
      "Ġmothehi": 3322,
      "kotlo": 3323,
      "Ġfosa": 3324,
      "moholo": 3325,
      "Ġnoe": 3326,
      "rama": 3327,
      "Ġmea": 3328,
      "tsoela": 3329,
      "Ġkhaso": 3330,
      "pisi": 3331,
      "Kaho": 3332,
      "Ġrobong": 3333,
      "Ġntlafatsong": 3334,
      "Ġthutong": 3335,
      "Ġlekaneng": 3336,
      "Ġlikatleho": 3337,
      "ĠtÅ¡oaretsoe": 3338,
      "Ġmakhabane": 3339,
      "ĠMoteane": 3340,
      "Ġqothisana": 3341,
      "by": 3342,
      "ble": 3343,
      "ptjoa": 3344,
      "ptain": 3345,
      "que": 3346,
      "ve": 3347,
      "Ġbaneng": 3348,
      "Ġsefa": 3349,
      "tsete": 3350,
      "Ġmor": 3351,
      "Ġmohlankana": 3352,
      "Ġmatsoa": 3353,
      "Ġmahala": 3354,
      "ketse": 3355,
      "ĠMofolo": 3356,
      "ĠtÅ¡a": 3357,
      "ntÅ¡i": 3358,
      "ĠPoli": 3359,
      "Ġkhafetsa": 3360,
      "Letsatsi": 3361,
      "Ġlokeloa": 3362,
      "along": 3363,
      "Ġthekeng": 3364,
      "Ġtobana": 3365,
      "Ġkamora": 3366,
      "ĠTÅ¡eliso": 3367,
      "Ġruri": 3368,
      "Ġkoloing": 3369,
      "Ġsitiloe": 3370,
      "Ġntat": 3371,
      "Ġarolela": 3372,
      "ĠitÅ¡ema": 3373,
      "ĠLehlohonolo": 3374,
      "ese": 3375,
      "gby": 3376,
      "ipi": 3377,
      "iloeng": 3378,
      "Ġsea": 3379,
      "Ġmotso": 3380,
      "tsoele": 3381,
      "Ġmeholo": 3382,
      "ĠMasu": 3383,
      "Mona": 3384,
      "ĠtÅ¡episitse": 3385,
      "Ġhlalositsoe": 3386,
      "cheng": 3387,
      "ĠSesole": 3388,
      "Ġthaba": 3389,
      "Ġutsoa": 3390,
      "Ġpata": 3391,
      "ĠHale": 3392,
      "Ġqalang": 3393,
      "Ġntlafala": 3394,
      "isiso": 3395,
      "Ġlikoluoa": 3396,
      "Ġbolaoa": 3397,
      "Ġkhethoa": 3398,
      "ĠWASCO": 3399,
      "Ġngoliso": 3400,
      "Ġitlhophela": 3401,
      "Joa": 3402,
      "ss": 3403,
      "lehe": 3404,
      "Ġbapolotiki": 3405,
      "Ġsehopo": 3406,
      "Ġmohlo": 3407,
      "Ġmokho": 3408,
      "Ġmotsoali": 3409,
      "Ġhara": 3410,
      "Ġmaro": 3411,
      "Ġmasole": 3412,
      "ĠLekho": 3413,
      "risa": 3414,
      "ĠSetsi": 3415,
      "ĠSemon": 3416,
      "Ġfiloeng": 3417,
      "ĠTÅ¡osane": 3418,
      "Ġlekana": 3419,
      "Ġ2016": 3420,
      "Ġkhutlele": 3421,
      "Ġlikelello": 3422,
      "Ġnoka": 3423,
      "Ġratang": 3424,
      "ĠMahlaha": 3425,
      "Ġmolepo": 3426,
      "Boe": 3427,
      "lefa": 3428,
      "Ġlebi": 3429,
      "Ġmohloli": 3430,
      "ĠMpho": 3431,
      "Ġpsha": 3432,
      "tebong": 3433,
      "ĠMotho": 3434,
      "ĠLekhotleng": 3435,
      "ĠMala": 3436,
      "Ġbehoa": 3437,
      "ĠBanka": 3438,
      "Ġtsoileng": 3439,
      "ĠNtlafatso": 3440,
      "Ġlikhoho": 3441,
      "bula": 3442,
      "ĠlitÅ¡ebeletsong": 3443,
      "ĠKobo": 3444,
      "Ġutloile": 3445,
      "Ġ50": 3446,
      "Ġahlola": 3447,
      "Ġrekisang": 3448,
      "Ġhloaea": 3449,
      "Ġthakhoha": 3450,
      "ĠTikoloho": 3451,
      "Ġphatlalla": 3452,
      "mbers": 3453,
      "Ġtatellano": 3454,
      "NP": 3455,
      "mp": 3456,
      "Ġsetseng": 3457,
      "Ġbohali": 3458,
      "Ġmollo": 3459,
      "paki": 3460,
      "Ġkere": 3461,
      "Ġmenye": 3462,
      "ĠLeFA": 3463,
      "ĠMatso": 3464,
      "tlelong": 3465,
      "Setsi": 3466,
      "Ġkhotla": 3467,
      "ĠSenate": 3468,
      "ĠSehlooho": 3469,
      "Ġthello": 3470,
      "Ġkopaneng": 3471,
      "ĠSta": 3472,
      "Ġlingaka": 3473,
      "Ġlinku": 3474,
      "Ġkhethile": 3475,
      "thiba": 3476,
      "Ġlahlehetsoe": 3477,
      "Ġlitheko": 3478,
      "Ġfetisa": 3479,
      "hahlaoli": 3480,
      "ĠOfisi": 3481,
      "Ġbakang": 3482,
      "Ġlitlalehong": 3483,
      "ambia": 3484,
      "Ġikhapela": 3485,
      "Ġbabusi": 3486,
      "Ġsefuba": 3487,
      "Sepheo": 3488,
      "swatini": 3489,
      "Be": 3490,
      "Tha": 3491,
      "zam": 3492,
      "ĠmatÅ¡olo": 3493,
      "Ġnatse": 3494,
      "ralo": 3495,
      "sieo": 3496,
      "Ġmenya": 3497,
      "nyi": 3498,
      "Ġhlakileng": 3499,
      "Ġbehang": 3500,
      "Ġthupelong": 3501,
      "ĠLiko": 3502,
      "Ġboikoe": 3503,
      "ĠNya": 3504,
      "Matha": 3505,
      "Ġrutoa": 3506,
      "Ġsebokeng": 3507,
      "Ġtlatsetso": 3508,
      "Ġphomolong": 3509,
      "ĠRoma": 3510,
      "babatso": 3511,
      "ĠSemonkong": 3512,
      ",'": 3513,
      "mm": 3514,
      "ntseng": 3515,
      "vision": 3516,
      "Ġlentsoe": 3517,
      "Ġlesea": 3518,
      "Ġlenyalo": 3519,
      "Ġlikhu": 3520,
      "Ġmoqhobi": 3521,
      "Ġkea": 3522,
      "Ġmahlano": 3523,
      "semane": 3524,
      "Ġnoa": 3525,
      "ĠMantaha": 3526,
      "peho": 3527,
      "hlehelo": 3528,
      "Ġboetapele": 3529,
      "Ġkhaello": 3530,
      "Ġboiko": 3531,
      "ĠKhu": 3532,
      "ĠKolo": 3533,
      "ĠNtho": 3534,
      "Ġkhefu": 3535,
      "Ġrape": 3536,
      "Ġtsamaee": 3537,
      "Ġthoe": 3538,
      "Ġlebohela": 3539,
      "Bopaki": 3540,
      "ĠKabelo": 3541,
      "Ġlekaleng": 3542,
      "Ġthibelo": 3543,
      "orld": 3544,
      "ĠEc": 3545,
      "Ġngolisa": 3546,
      "Ġhira": 3547,
      "Ġthatiseletsa": 3548,
      "IDS": 3549,
      "Ġmafelong": 3550,
      "ĠThetsane": 3551,
      "ĠCaptain": 3552,
      "Ġapare": 3553,
      "iloe": 3554,
      "mpe": 3555,
      "zer": 3556,
      "Ġlea": 3557,
      "Ġbahahlauli": 3558,
      "Ġbafani": 3559,
      "Ġkathata": 3560,
      "Ġape": 3561,
      "Ġmolomo": 3562,
      "Ġhanyane": 3563,
      "Ġtsebisa": 3564,
      "ĠLance": 3565,
      "ĠMosi": 3566,
      "tlane": 3567,
      "Ġitlama": 3568,
      "Ġmebileng": 3569,
      "Ġmebuso": 3570,
      "ĠtÅ¡epi": 3571,
      "Ġthakela": 3572,
      "bisho": 3573,
      "halala": 3574,
      "Marea": 3575,
      "ĠlitÅ¡ebelletso": 3576,
      "ĠDi": 3577,
      "Ġfokotseha": 3578,
      "Ġphethaha": 3579,
      "onet": 3580,
      "Ġholima": 3581,
      "Ġmasimong": 3582,
      "ĠLebona": 3583,
      "Ġbabuelli": 3584,
      "Ġmaoala": 3585,
      "Ġntlafetseng": 3586,
      "AL": 3587,
      "Professor": 3588,
      "st": 3589,
      "Ġhoke": 3590,
      "Ġlethatha": 3591,
      "Ġbaroetsana": 3592,
      "ĠMose": 3593,
      "Ġmehloli": 3594,
      "ĠLetsoela": 3595,
      "Ġfella": 3596,
      "riana": 3597,
      "Ġfang": 3598,
      "Ġtahlehelo": 3599,
      "Ġtobileng": 3600,
      "thibeli": 3601,
      "ĠMembers": 3602,
      "Ġlikhato": 3603,
      "Ġtlokotsi": 3604,
      "Ġhloahloa": 3605,
      "Ġmerafo": 3606,
      "SAFA": 3607,
      "ĠLebohang": 3608,
      "Ġbohareng": 3609,
      "Ġmapatlelong": 3610,
      "Ġkoetlisong": 3611,
      "Ġbofumeng": 3612,
      "SL": 3613,
      "Ta": 3614,
      "lia": 3615,
      "lisitsoe": 3616,
      "Ġkannete": 3617,
      "kali": 3618,
      "Ġhapileng": 3619,
      "Ġrekisoa": 3620,
      "toeng": 3621,
      "Ġbonang": 3622,
      "Ġhlase": 3623,
      "ĠMacho": 3624,
      "ĠBea": 3625,
      "Ġhlalositseng": 3626,
      "Ġthula": 3627,
      "ĠSekolo": 3628,
      "Ġpakeng": 3629,
      "thibane": 3630,
      "Ġtsebahala": 3631,
      "Ġmoruong": 3632,
      "ĠJa": 3633,
      "Ġketekelong": 3634,
      "Ġetsetsa": 3635,
      "ĠFra": 3636,
      "Ġlikete": 3637,
      "Ġbitsa": 3638,
      "ĠKhotso": 3639,
      "Ġipona": 3640,
      "Ġbalateli": 3641,
      "Ġlaolang": 3642,
      "vers": 3643,
      "Ġphunyelletsa": 3644,
      "Ġkalafo": 3645,
      "Ġliqoso": 3646,
      "Pha": 3647,
      "ch": 3648,
      "eme": 3649,
      "etsang": 3650,
      "utlo": 3651,
      "letsoe": 3652,
      "Ġsoa": 3653,
      "tsaneng": 3654,
      "Ġreke": 3655,
      "Ġmekho": 3656,
      "ĠThi": 3657,
      "Ġkokelo": 3658,
      "Ġkomisi": 3659,
      "Ġbutsoe": 3660,
      "Ġmofuthu": 3661,
      "Ġlithupelo": 3662,
      "Ġipapi": 3663,
      "Ġmolaetsa": 3664,
      "Ġtsamaeang": 3665,
      "ĠEswatini": 3666,
      "Ġshebana": 3667,
      "ĠPhepo": 3668,
      "Ġhopotsa": 3669,
      "Ġlipuisanong": 3670,
      "Ġlehlohonolo": 3671,
      "Ġiphumane": 3672,
      "Ġsusumetsa": 3673,
      "Ġmananeo": 3674,
      "ĠMorija": 3675,
      "Tebello": 3676,
      "Ġboipheliso": 3677,
      "ĠShelile": 3678,
      "Ġsehopotso": 3679,
      "Mareabetsoe": 3680,
      "-'": 3681,
      "Tata": 3682,
      "el": 3683,
      "ere": 3684,
      "go": 3685,
      "letseng": 3686,
      "Ġlekile": 3687,
      "Ġboneng": 3688,
      "Ġmasholu": 3689,
      "Ġmakhulo": 3690,
      "keti": 3691,
      "ĠMohla": 3692,
      "ĠMozam": 3693,
      "rong": 3694,
      "rope": 3695,
      "Ġhlabo": 3696,
      "Moka": 3697,
      "Motho": 3698,
      "Mohla": 3699,
      "Ġkoranta": 3700,
      "tÅ¡epe": 3701,
      "thusi": 3702,
      "bique": 3703,
      "Ġmongata": 3704,
      "lloang": 3705,
      "Lihoai": 3706,
      "Ġphetheloa": 3707,
      "Ġikelelitse": 3708,
      "Boholo": 3709,
      "tÅ¡ire": 3710,
      "lisoe": 3711,
      "Ġaroha": 3712,
      "Ġliphahlo": 3713,
      "Ġmaparamente": 3714,
      "mphehi": 3715,
      "Ġbosupa": 3716,
      "Ġkutloisiso": 3717,
      "Ġmeaho": 3718,
      "ĠBeavers": 3719,
      "ar": 3720,
      "nti": 3721,
      "Ġ,": 3722,
      "Ġliketsa": 3723,
      "Ġkabo": 3724,
      "ketso": 3725,
      "ĠLE": 3726,
      "Ġmecha": 3727,
      "ĠBi": 3728,
      "ĠTsi": 3729,
      "Ġbeta": 3730,
      "ĠNtha": 3731,
      "ĠSam": 3732,
      "ĠtÅ¡oane": 3733,
      "Ġlintoa": 3734,
      "ĠTÅ¡u": 3735,
      "Ġshebisa": 3736,
      "Ġthobala": 3737,
      "Ġlitora": 3738,
      "ĠJane": 3739,
      "ĠEu": 3740,
      "mphato": 3741,
      "Ġutloisise": 3742,
      "Ġlefshoe": 3743,
      "Ġphelisang": 3744,
      "ĠZambia": 3745,
      "kitlaetso": 3746,
      "Ġpalama": 3747,
      "Ġmeoloane": 3748,
      "Ġboitsebiso": 3749,
      "ĠEconet": 3750,
      "ĠMozambique": 3751,
      "Khalala": 3752,
      "mmeng": 3753,
      "tball": 3754,
      "halong": 3755,
      "Ġleke": 3756,
      "Ġlefi": 3757,
      "Ġbahlo": 3758,
      "Ġlira": 3759,
      "Ġbosieo": 3760,
      "ĠMu": 3761,
      "Ġmapo": 3762,
      "Ġlae": 3763,
      "ĠMoli": 3764,
      "ĠMochochisi": 3765,
      "posi": 3766,
      "lisang": 3767,
      "luti": 3768,
      "Ġkhako": 3769,
      "Lebaka": 3770,
      "Ġboikitlaetso": 3771,
      "Ġtlohela": 3772,
      "Ġtora": 3773,
      "mibia": 3774,
      "Ġ2020": 3775,
      "ĠTÅ¡o": 3776,
      "Boi": 3777,
      "ĠMetsi": 3778,
      "Ġlipetlele": 3779,
      "ĠBereng": 3780,
      "Ġebang": 3781,
      "riting": 3782,
      "kisetsoa": 3783,
      "Ġtloaelo": 3784,
      "ĠCons": 3785,
      "ĠtÅ¡ohla": 3786,
      "Ġsehloohong": 3787,
      "Ġimona": 3788,
      "Che": 3789,
      "Qo": 3790,
      "Ġletsoele": 3791,
      "Ġmoloko": 3792,
      "Ġmaqe": 3793,
      "Ġnt": 3794,
      "nyolo": 3795,
      "Ġkobo": 3796,
      "ĠLipholo": 3797,
      "Ġthefu": 3798,
      "Ġnyane": 3799,
      "Ġpota": 3800,
      "tuka": 3801,
      "Ġfumanehe": 3802,
      "jone": 3803,
      "ĠJapa": 3804,
      "ĠMetsing": 3805,
      "Ġhlahisang": 3806,
      "Ġ2015": 3807,
      "Ġlitlholisano": 3808,
      "ĠRamakau": 3809,
      "ĠTekano": 3810,
      "selitsoe": 3811,
      "ĠWorld": 3812,
      "ĠNamibia": 3813,
      "Ġhiroa": 3814,
      "ĠCom": 3815,
      "Ġnehelane": 3816,
      "Ġmahlako": 3817,
      "ĠToka": 3818,
      "Ġlihlopheng": 3819,
      "Masenate": 3820,
      "ĠHlotse": 3821,
      "Ġiqalla": 3822,
      "Ntle": 3823,
      "bwe": 3824,
      "imba": 3825,
      "kh": 3826,
      "han": 3827,
      "Ġlim": 3828,
      "melang": 3829,
      "ĠLN": 3830,
      "ĠMoho": 3831,
      "ĠtÅ¡aba": 3832,
      "ĠMatela": 3833,
      "ĠMaroala": 3834,
      "khabane": 3835,
      "tÅ¡eng": 3836,
      "tÅ¡elisitsoe": 3837,
      "ĠLimpho": 3838,
      "Ġtheola": 3839,
      "Ġtimela": 3840,
      "ĠtÅ¡oaetso": 3841,
      "ĠRale": 3842,
      "Ġhabobebe": 3843,
      "Ġlipeipi": 3844,
      "Ġhlahella": 3845,
      "Ġikobela": 3846,
      "Ġlumellane": 3847,
      "Ġnkeloa": 3848,
      "Ġtlhokomelong": 3849,
      "Ġsenyeha": 3850,
      "Ġkhethehileng": 3851,
      "Ġmahareng": 3852,
      "ĠMonamoli": 3853,
      "Ġbosula": 3854,
      "Ġlihora": 3855,
      "ĠMatsoso": 3856,
      "imbabwe": 3857,
      "MD": 3858,
      "Mela": 3859,
      "The": 3860,
      "frika": 3861,
      "ope": 3862,
      "Ġjoe": 3863,
      "Ġsekheo": 3864,
      "Ġkaba": 3865,
      "Ġboho": 3866,
      "Ġborena": 3867,
      "ballo": 3868,
      "Ġhati": 3869,
      "sapo": 3870,
      "Ġipe": 3871,
      "ĠLetuka": 3872,
      "Senior": 3873,
      "Ġkokoana": 3874,
      "Ġthuthu": 3875,
      "tÅ¡eliso": 3876,
      "Ġkhatha": 3877,
      "ĠBoi": 3878,
      "Ġtlhompho": 3879,
      "Ġmorali": 3880,
      "ĠIn": 3881,
      "Ġkenyang": 3882,
      "Ġbaetsi": 3883,
      "ĠtÅ¡oareloa": 3884,
      "ĠVision": 3885,
      "Ġlumellana": 3886,
      "Ġhaufinyane": 3887,
      "Ġboikemisetso": 3888,
      "Ġitokisetsa": 3889,
      "Ġtsepamisa": 3890,
      "ĠLiphakoe": 3891,
      "Ġmaqeba": 3892,
      "ji": 3893,
      "nneng": 3894,
      "qolo": 3895,
      "Ġcho": 3896,
      "Ġlekola": 3897,
      "Ġbotebo": 3898,
      "Ġofe": 3899,
      "Ġkeng": 3900,
      "Ġtsebile": 3901,
      "Ġmatsa": 3902,
      "Ġmano": 3903,
      "Ġmakholo": 3904,
      "table": 3905,
      "setse": 3906,
      "seme": 3907,
      "Ġmetsoalle": 3908,
      "role": 3909,
      "Ġhlabi": 3910,
      "tlolo": 3911,
      "polo": 3912,
      "ĠMabi": 3913,
      "ĠMakhoa": 3914,
      "ĠMachabeng": 3915,
      "ĠBNP": 3916,
      "Ġfelletseng": 3917,
      "Ġkopela": 3918,
      "Ġkhola": 3919,
      "tÅ¡epo": 3920,
      "ĠPresidente": 3921,
      "ĠKhoa": 3922,
      "eant": 3923,
      "Ġtsamaile": 3924,
      "tÅ¡oanyane": 3925,
      "ĠlitÅ¡enye": 3926,
      "Ġlikhalala": 3927,
      "Ġmoemeli": 3928,
      "ĠntÅ¡etso": 3929,
      "Ġfetisetsa": 3930,
      "Ġtiisetsa": 3931,
      "Nakong": 3932,
      "Ġipotsa": 3933,
      "Ġqhoba": 3934,
      "Ġtsitsi": 3935,
      "Ġpholosa": 3936,
      "zamane": 3937,
      "Ġbebofa": 3938,
      "ĠMajoro": 3939,
      "Ġnanabetsa": 3940,
      "Ġlokollotsoe": 3941,
      "ĠSelibe": 3942,
      "Ġarolelana": 3943,
      "ĠitÅ¡ematlela": 3944,
      "ĠFrazer": 3945,
      "ĠEurope": 3946,
      "Phe": 3947,
      "my": 3948,
      "shi": 3949,
      "uoe": 3950,
      "lolo": 3951,
      "Ġlisa": 3952,
      "Ġlikheo": 3953,
      "Ġkata": 3954,
      "Ġbong": 3955,
      "Ġboroa": 3956,
      "Ġikoe": 3957,
      "Ġikhetha": 3958,
      "Ġbonahale": 3959,
      "ĠLejone": 3960,
      "ĠMafa": 3961,
      "ĠMathe": 3962,
      "ĠbontÅ¡e": 3963,
      "ĠSetho": 3964,
      "Ġmolaoli": 3965,
      "Ġmatlafetseng": 3966,
      "Ġ2026": 3967,
      "ĠHig": 3968,
      "Ġqetelle": 3969,
      "Ġlihlahlobo": 3970,
      "Ġlinthong": 3971,
      "ĠtÅ¡ireletse": 3972,
      "Ġmatsatsing": 3973,
      "Ġsebeletsang": 3974,
      "Ġpelaello": 3975,
      "Ġlieta": 3976,
      "Ġleqeme": 3977,
      "Ġhakaalo": 3978,
      "Tlholisano": 3979,
      "rgeant": 3980,
      "ĠTumelo": 3981,
      "esekele": 3982,
      "Eka": 3983,
      "nkeng": 3984,
      "sta": 3985,
      "utu": 3986,
      "laneng": 3987,
      "Ġbane": 3988,
      "Ġanela": 3989,
      "ĠMzamane": 3990,
      "Ġmanyolo": 3991,
      "rane": 3992,
      "ĠBri": 3993,
      "Ġqalong": 3994,
      "ĠtÅ¡ela": 3995,
      "ĠLiqho": 3996,
      "Ġboipela": 3997,
      "ĠNka": 3998,
      "ĠNta": 3999,
      "Basali": 4000,
      "kahanyi": 4001,
      "ĠCH": 4002,
      "Ġbapale": 4003,
      "Ġbapatsa": 4004,
      "Ġsebelisana": 4005,
      "Ġlehae": 4006,
      "Ġlehlabula": 4007,
      "Ġlitlolong": 4008,
      "Ġfokotse": 4009,
      "Ġlahlela": 4010,
      "Ġmaleka": 4011,
      "ĠRetÅ¡elisitsoe": 4012,
      "Ġphomolo": 4013,
      "mpiki": 4014,
      "ĠmenontÅ¡a": 4015,
      "Ġtotobatsa": 4016,
      "ĠMasupha": 4017,
      "Ġmenyenyetsi": 4018,
      "utloela": 4019,
      "Ġthobalano": 4020,
      "ĠConstable": 4021,
      "ci": 4022,
      "en": 4023,
      "ly": 4024,
      "les": 4025,
      "life": 4026,
      "Ġbatala": 4027,
      "Ġbokhabane": 4028,
      "thole": 4029,
      "marakeng": 4030,
      "ĠMoti": 4031,
      "ĠMohato": 4032,
      "Ġmeho": 4033,
      "Ġmeraro": 4034,
      "Ġbonahetseng": 4035,
      "ĠMacha": 4036,
      "ĠMatala": 4037,
      "ĠMaqele": 4038,
      "Ġsebetseng": 4039,
      "Ġkotu": 4040,
      "ĠAca": 4041,
      "koang": 4042,
      "Ġboitha": 4043,
      "khelo": 4044,
      "Ġ2030": 4045,
      "mis": 4046,
      "ĠSola": 4047,
      "Ġkholong": 4048,
      "Ġ36": 4049,
      "Ġrute": 4050,
      "Boroa": 4051,
      "Ġkenella": 4052,
      "Ġithutileng": 4053,
      "ĠKomiti": 4054,
      "Ġutloe": 4055,
      "Ġsebelitseng": 4056,
      "Ġikamaha": 4057,
      "ĠZimbabwe": 4058,
      "ĠChar": 4059,
      "Ġletamo": 4060,
      "Ġmohlomong": 4061,
      "Ġmarokho": 4062,
      "Ġthakelana": 4063,
      "Ġikhethang": 4064,
      "ĠMaqelepo": 4065,
      "ĠAcade": 4066,
      "usi": 4067,
      "Ġlime": 4068,
      "tsela": 4069,
      "bai": 4070,
      "Ġtsebeng": 4071,
      "Ġpeo": 4072,
      "mali": 4073,
      "ĠMonongoaha": 4074,
      "rai": 4075,
      "rakhoebo": 4076,
      "Ġmelemo": 4077,
      "ĠLea": 4078,
      "ĠMantÅ¡o": 4079,
      "Ġfepela": 4080,
      "Molao": 4081,
      "thaha": 4082,
      "thetse": 4083,
      "nyetso": 4084,
      "ĠSeko": 4085,
      "ĠSebabatso": 4086,
      "ĠKholo": 4087,
      "ĠNkha": 4088,
      "Ġloketse": 4089,
      "tlheng": 4090,
      "Bai": 4091,
      "isinyo": 4092,
      "Ġlithole": 4093,
      "Ġithute": 4094,
      "khubetsa": 4095,
      "Ġahloloa": 4096,
      "Ġnokeng": 4097,
      "dies": 4098,
      "Ġbokella": 4099,
      "Ġkhotsofatsang": 4100,
      "ĠtÅ¡epaha": 4101,
      "semese": 4102,
      "ĠAcademy": 4103,
      "EO": 4104,
      "nto": 4105,
      "ong": 4106,
      "Ġeno": 4107,
      "Ġhokaha": 4108,
      "Ġkile": 4109,
      "Ġleko": 4110,
      "Ġletsetsa": 4111,
      "Ġseea": 4112,
      "Ġserame": 4113,
      "Ġlitle": 4114,
      "Ġlifo": 4115,
      "Ġbobe": 4116,
      "Ġbonoa": 4117,
      "Ġmolula": 4118,
      "nene": 4119,
      "Ġof": 4120,
      "beleng": 4121,
      "Ġmabelo": 4122,
      "Ġmaeto": 4123,
      "Ġfola": 4124,
      "kemetseng": 4125,
      "tetso": 4126,
      "Ġlabala": 4127,
      "ĠMotse": 4128,
      "Ġmeeli": 4129,
      "ĠLetse": 4130,
      "ĠMache": 4131,
      "ĠMatona": 4132,
      "Ġfere": 4133,
      "Moho": 4134,
      "Ġkhatelo": 4135,
      "Ġphallela": 4136,
      "ĠtÅ¡oari": 4137,
      "letsane": 4138,
      "Ġpotso": 4139,
      "sumetso": 4140,
      "ĠIkemetseng": 4141,
      "Ġ38": 4142,
      "Ġ2014": 4143,
      "Ġutloahala": 4144,
      "anokeng": 4145,
      "Ġtheohile": 4146,
      "shena": 4147,
      "hlolohali": 4148,
      "Ġsebopeho": 4149,
      "Ġmelata": 4150,
      "Ġbolokehileng": 4151,
      "ĠfumantÅ¡oe": 4152,
      "qhaka": 4153,
      "Ġmabone": 4154,
      "Ġbebofatsa": 4155,
      "ĠtÅ¡usumetso": 4156,
      "Ġphunyeletsa": 4157,
      "Ġboitlhopho": 4158,
      "Kahona": 4159,
      "ĠPolice": 4160,
      "ĠNthomeng": 4161,
      "1000": 4162,
      "thileng": 4163,
      "ĠlitÅ¡oa": 4164,
      "Ġabela": 4165,
      "Ġamme": 4166,
      "Ġmoru": 4167,
      "heloe": 4168,
      "Ġhaele": 4169,
      "mes": 4170,
      "Ġilo": 4171,
      "Ġmechini": 4172,
      "ĠLebe": 4173,
      "ĠMahlo": 4174,
      "ĠMakara": 4175,
      "Mosebetsi": 4176,
      "Mongoli": 4177,
      "Ġhloba": 4178,
      "Ġphetse": 4179,
      "Ġlokolo": 4180,
      "theho": 4181,
      "Ġkoko": 4182,
      "Ġfumanoeng": 4183,
      "Ġfiloe": 4184,
      "baneng": 4185,
      "Matlama": 4186,
      "ĠBochaba": 4187,
      "kulu": 4188,
      "Libapali": 4189,
      "Ġqetile": 4190,
      "suoe": 4191,
      "Ġatlehang": 4192,
      "ĠJe": 4193,
      "Ġisang": 4194,
      "Ġlehlakore": 4195,
      "ĠTebello": 4196,
      "Ġmetsotso": 4197,
      "Ġeketse": 4198,
      "Ġeketseha": 4199,
      "Ġbolokehile": 4200,
      "Ġabeloa": 4201,
      "Ġbuisane": 4202,
      "Ġlemoha": 4203,
      "Ġhakanye": 4204,
      "Ġmekonteraka": 4205,
      "Ġlebeletse": 4206,
      "mathiso": 4207,
      "Ġikopanya": 4208,
      "Ġtsosolosa": 4209,
      "Ġngakeng": 4210,
      "bishopo": 4211,
      "Ġipapisitsoe": 4212,
      "Ġliketsahalo": 4213,
      "ĠSolar": 4214,
      "Kha": 4215,
      "Moa": 4216,
      "hli": 4217,
      "nkele": 4218,
      "ol": 4219,
      "Ġkatlehi": 4220,
      "neo": 4221,
      "Ġsalla": 4222,
      "ĠMosa": 4223,
      "ĠMokhethi": 4224,
      "Ġiku": 4225,
      "Ġmetsaneng": 4226,
      "ĠMafo": 4227,
      "petse": 4228,
      "riste": 4229,
      "ĠTlo": 4230,
      "thatso": 4231,
      "Ġsebete": 4232,
      "Ġetsahale": 4233,
      "Ġkhoa": 4234,
      "Hangata": 4235,
      "ĠSeka": 4236,
      "Ġlitaemane": 4237,
      "Ġtlholeho": 4238,
      "Lioli": 4239,
      "ĠRali": 4240,
      "Ġrapala": 4241,
      "ĠtÅ¡ehelitsoe": 4242,
      "Ġ34": 4243,
      "Ġlikonyana": 4244,
      "Bobeli": 4245,
      "Ġketekile": 4246,
      "Ġsephethe": 4247,
      "Ġetsetsoa": 4248,
      "Ġmolamu": 4249,
      "Ġthakhotse": 4250,
      "Ġmokokotlo": 4251,
      "Ġlinomoro": 4252,
      "Ġsitisang": 4253,
      "Ġ60": 4254,
      "ĠLadies": 4255,
      "Ġkenngoa": 4256,
      "Ġ80": 4257,
      "tÅ¡eare": 4258,
      "ĠCOSAFA": 4259,
      "Ġmaqhekoana": 4260,
      "Ġliphaposi": 4261,
      "Ġleseling": 4262,
      "Ġboahela": 4263,
      "Ġtsotellehe": 4264,
      "Ġtsoelopele": 4265,
      "Ġiponahatsa": 4266,
      "ĠLiqhomane": 4267,
      "PC": 4268,
      "liba": 4269,
      "nana": 4270,
      "Ġlera": 4271,
      "Ġleholo": 4272,
      "Ġlekane": 4273,
      "Ġmolli": 4274,
      "Ġhamorao": 4275,
      "koli": 4276,
      "Ġmatleng": 4277,
      "ĠMoke": 4278,
      "Ġtlama": 4279,
      "bola": 4280,
      "ĠMara": 4281,
      "ĠTRC": 4282,
      "Mofumahatsana": 4283,
      "Ġbehiloeng": 4284,
      "Ġsebeletse": 4285,
      "Ġlokisetsa": 4286,
      "lleng": 4287,
      "ĠLitaba": 4288,
      "ĠSekha": 4289,
      "ĠSergeant": 4290,
      "Ġfinye": 4291,
      "Ġtlohele": 4292,
      "Bao": 4293,
      "Babelaelloa": 4294,
      "tlile": 4295,
      "Ġphanong": 4296,
      "ĠSpo": 4297,
      "Ġlitopo": 4298,
      "Ġhlahisoa": 4299,
      "ĠMeru": 4300,
      "Ġanane": 4301,
      "Ġlitlamorao": 4302,
      "Ġphutha": 4303,
      "dier": 4304,
      "qheka": 4305,
      "selara": 4306,
      "Ġmelaetsa": 4307,
      "Ġkentseng": 4308,
      "Ġshapa": 4309,
      "ĠHololo": 4310,
      "ĠMatlanyane": 4311,
      "ĠUNDP": 4312,
      "gadier": 4313,
      "vid": 4314,
      "Ġikakhela": 4315,
      "Tlhaloso": 4316,
      "Ġpshatla": 4317,
      "ĠMothobi": 4318,
      "Chelete": 4319,
      "Ġangoa": 4320,
      "Ġtsebi": 4321,
      "Ġmatle": 4322,
      "kemisetso": 4323,
      "ĠMolise": 4324,
      "tÅ¡ele": 4325,
      "sia": 4326,
      "Ġhlahileng": 4327,
      "ĠMatsi": 4328,
      "ĠMaluti": 4329,
      "umane": 4330,
      "Ġhloma": 4331,
      "Ġkhona": 4332,
      "ĠSei": 4333,
      "Ġthabela": 4334,
      "Man": 4335,
      "Ġtoti": 4336,
      "Kaha": 4337,
      "ĠBonono": 4338,
      "ĠtÅ¡oaroe": 4339,
      "Likha": 4340,
      "ĠChe": 4341,
      "Ġbapaloa": 4342,
      "Ġshejoa": 4343,
      "ĠlitÅ¡episo": 4344,
      "Ġlebohetse": 4345,
      "Ġ32": 4346,
      "Ġrua": 4347,
      "ĠMeholo": 4348,
      "Ġbaemeli": 4349,
      "Ġkoetsoe": 4350,
      "Ġamohetse": 4351,
      "Ġsirelletsa": 4352,
      "ĠKoro": 4353,
      "Ġiphepa": 4354,
      "qhobane": 4355,
      "Ġlipuo": 4356,
      "Ġamehileng": 4357,
      "ĠLieut": 4358,
      "Ġtaolong": 4359,
      "Ġfanoang": 4360,
      "ĠMakoanyane": 4361,
      "Melaelloa": 4362,
      "ĠMafoso": 4363,
      "Thuto": 4364,
      "ella": 4365,
      "ing": 4366,
      "nkhoa": 4367,
      "ota": 4368,
      "puso": 4369,
      "ye": 4370,
      "ze": 4371,
      "Ġleli": 4372,
      "Ġbara": 4373,
      "Ġbaletsa": 4374,
      "Ġbakela": 4375,
      "Ġsetso": 4376,
      "Ġsesiu": 4377,
      "Ġsethiba": 4378,
      "Ġkarabo": 4379,
      "oaketsa": 4380,
      "pahetseng": 4381,
      "Ġhakae": 4382,
      "mole": 4383,
      "motse": 4384,
      "taung": 4385,
      "mati": 4386,
      "makha": 4387,
      "seleng": 4388,
      "rate": 4389,
      "Ġmeriana": 4390,
      "eletsi": 4391,
      "ĠLeho": 4392,
      "Mosali": 4393,
      "Ġqhala": 4394,
      "Ġhlotsoe": 4395,
      "Ġsebelisoe": 4396,
      "Ġpheto": 4397,
      "Ġkhoho": 4398,
      "Ġfanoeng": 4399,
      "Ġboipole": 4400,
      "Ġthapelo": 4401,
      "biseng": 4402,
      "ĠRSL": 4403,
      "Ġkamorao": 4404,
      "ĠtÅ¡oaro": 4405,
      "Ġhobaneng": 4406,
      "ĠtÅ¡ehetsang": 4407,
      "Ġikemela": 4408,
      "Ġ33": 4409,
      "Ġananetse": 4410,
      "Ġ2018": 4411,
      "Ġlebella": 4412,
      "Ġchesa": 4413,
      "Ġliteropo": 4414,
      "Ġpejana": 4415,
      "Ġkhethollo": 4416,
      "Ġmokotla": 4417,
      "Ġhlekefetsoa": 4418,
      "Ġkula": 4419,
      "Ġmalibohong": 4420,
      "2025": 4421,
      "teboho": 4422,
      "Ġmoketja": 4423,
      "Ġkhaoha": 4424,
      "Ġletsoalo": 4425,
      "Ġipoletse": 4426,
      "ĠMasianokeng": 4427,
      "ĠDubai": 4428,
      "ĠTÅ¡ukulu": 4429,
      "Ġlefifi": 4430,
      "ĠMolibeli": 4431,
      "Ġthuthuha": 4432,
      "ĠCharles": 4433,
      "18": 4434,
      "Justice": 4435,
      "eria": 4436,
      "rban": 4437,
      "Ġ-": 4438,
      "litoe": 4439,
      "loha": 4440,
      "Ġleso": 4441,
      "Ġbakile": 4442,
      "Ġlimi": 4443,
      "Ġkano": 4444,
      "Ġkarete": 4445,
      "Ġboqhobane": 4446,
      "Ġmokuli": 4447,
      "Ġmoriting": 4448,
      "ĠMEC": 4449,
      "Ġmasapo": 4450,
      "thoa": 4451,
      "Ġlahla": 4452,
      "tlalo": 4453,
      "Ġnkela": 4454,
      "Ġima": 4455,
      "Ġtlatsa": 4456,
      "Ġhlapa": 4457,
      "Ġhlajoa": 4458,
      "ĠtÅ¡isinyo": 4459,
      "fatso": 4460,
      "Sekolo": 4461,
      "Sebapali": 4462,
      "ring": 4463,
      "Mochochisi": 4464,
      "ĠBakhethoa": 4465,
      "halalitoe": 4466,
      "ĠBohahlauli": 4467,
      "misitse": 4468,
      "Ġbolelele": 4469,
      "Ġfihleng": 4470,
      "Ġlikhotha": 4471,
      "Ġmorafo": 4472,
      "Ġlipalangoang": 4473,
      "Ġbaokameli": 4474,
      "ĠDa": 4475,
      "Ġkhahlametso": 4476,
      "Ġbaiketi": 4477,
      "Ġmaikemisetso": 4478,
      "Ġsitoang": 4479,
      "ĠtÅ¡oarelo": 4480,
      "Ġmakatsang": 4481,
      "ĠLCD": 4482,
      "Ġitoko": 4483,
      "Ġmekotla": 4484,
      "rance": 4485,
      "Ġlibeke": 4486,
      "Ġrapella": 4487,
      "Ġshebisana": 4488,
      "qolotsi": 4489,
      "ĠMantÅ¡onyane": 4490,
      "Ġikutloa": 4491,
      "ĠMatsieng": 4492,
      "makhaola": 4493,
      "IC": 4494,
      "MA": 4495,
      "Ne": 4496,
      "ĠY": 4497,
      "Ġholile": 4498,
      "ĠletÅ¡o": 4499,
      "Ġsho": 4500,
      "Ġseko": 4501,
      "Ġsekola": 4502,
      "Ġliphe": 4503,
      "Ġbosebe": 4504,
      "Ġohle": 4505,
      "Ġhao": 4506,
      "kole": 4507,
      "Ġmara": 4508,
      "ment": 4509,
      "Ġsalletse": 4510,
      "ĠMokhe": 4511,
      "tsitse": 4512,
      "Ġimetsoe": 4513,
      "sipa": 4514,
      "nonyane": 4515,
      "pola": 4516,
      "Ġfepa": 4517,
      "Setulo": 4518,
      "ĠTse": 4519,
      "kisi": 4520,
      "Ġtebileng": 4521,
      "Ġtsoha": 4522,
      "ĠboitÅ¡epo": 4523,
      "ĠKC": 4524,
      "mpani": 4525,
      "Ġtlola": 4526,
      "Maba": 4527,
      "Mama": 4528,
      "ĠSele": 4529,
      "ĠRamela": 4530,
      "kahano": 4531,
      "Ġposo": 4532,
      "Ġtletse": 4533,
      "Ġatlehisa": 4534,
      "Ġhlahise": 4535,
      "ntje": 4536,
      "Ġlithusa": 4537,
      "Ġisao": 4538,
      "Ġmabatooeng": 4539,
      "ĠMatete": 4540,
      "Ġ45": 4541,
      "tjato": 4542,
      "Ġetelletseng": 4543,
      "Ġhloailoeng": 4544,
      "Ġphatlalalitse": 4545,
      "Ġtekena": 4546,
      "Ġliofising": 4547,
      "Ġletsoalloa": 4548,
      "Ġmonyetleng": 4549,
      "Ġhlahlella": 4550,
      "Ġlitletlebo": 4551,
      "qhekanyetsi": 4552,
      "ntjello": 4553,
      "LM": 4554,
      "ntsi": 4555,
      "phile": 4556,
      "ua": 4557,
      "lelang": 4558,
      "Ġeta": 4559,
      "Ġefe": 4560,
      "Ġbasebe": 4561,
      "reneng": 4562,
      "ĠlitÅ¡oantÅ¡o": 4563,
      "Ġmameloa": 4564,
      "kenane": 4565,
      "mabe": 4566,
      "Ġlaea": 4567,
      "Ġntlheng": 4568,
      "ĠMashe": 4569,
      "Ġfepe": 4570,
      "Molula": 4571,
      "Ġphehlo": 4572,
      "nyela": 4573,
      "soabi": 4574,
      "ĠSeholo": 4575,
      "ĠKoa": 4576,
      "Ġpharela": 4577,
      "Ġrobala": 4578,
      "fonte": 4579,
      "Ġpola": 4580,
      "Ġlibaesekele": 4581,
      "Ġ37": 4582,
      "Ġthatafa": 4583,
      "Ġfetohe": 4584,
      "Ġkoano": 4585,
      "Ġetetse": 4586,
      "ĠMoemeli": 4587,
      "Ġsireletsang": 4588,
      "ĠVi": 4589,
      "Ġ197": 4590,
      "Ġikotla": 4591,
      "Ġsebelisitse": 4592,
      "Ġ70": 4593,
      "Ġmetsotsong": 4594,
      "Ġkhina": 4595,
      "Ġhlolehile": 4596,
      "qhama": 4597,
      "Raliphatlalatso": 4598,
      "Ġtloaelehileng": 4599,
      "Ġlipitso": 4600,
      "ĠitÅ¡etlehile": 4601,
      "Selemong": 4602,
      "Ġboikoetliso": 4603,
      "ĠNyakane": 4604,
      "Ġmahlakore": 4605,
      "hanselara": 4606,
      "Ġhlobaetsang": 4607,
      "Ġkatlehisong": 4608,
      "fontein": 4609,
      "Afrika": 4610,
      "cia": 4611,
      "Ġletse": 4612,
      "Ġbakhachane": 4613,
      "Ġbacheng": 4614,
      "Ġliti": 4615,
      "tsehang": 4616,
      "Ġmoputso": 4617,
      "Ġmonyenyane": 4618,
      "Ġoe": 4619,
      "Ġotloa": 4620,
      "beletso": 4621,
      "ĠMpi": 4622,
      "ĠMCC": 4623,
      "Ġsale": 4624,
      "Ġin": 4625,
      "bohile": 4626,
      "Ġjoala": 4627,
      "ĠTlho": 4628,
      "Ġteko": 4629,
      "Ġkonteraka": 4630,
      "Ġkhanna": 4631,
      "ĠRu": 4632,
      "sholi": 4633,
      "Ġ100": 4634,
      "ĠtÅ¡oanetse": 4635,
      "Ġpampiri": 4636,
      "Ġrala": 4637,
      "ĠkhutÅ¡oanyane": 4638,
      "Ġtsebahalang": 4639,
      "ĠtÅ¡ehelitse": 4640,
      "ĠTÅ¡olo": 4641,
      "chool": 4642,
      "Ġkhothallelitse": 4643,
      "ĠGo": 4644,
      "tsamai": 4645,
      "Ġlikereke": 4646,
      "Ġnyamela": 4647,
      "Ġlitlholisanong": 4648,
      "ĠNepahetseng": 4649,
      "Ġborobeli": 4650,
      "Ġhiri": 4651,
      "Ġtjametsoe": 4652,
      "Ġtjantjello": 4653,
      "Ġlebeletsoe": 4654,
      "Tlhokahalo": 4655,
      "Ngoana": 4656,
      "Qoso": 4657,
      "ĠJapan": 4658,
      "Ġhakanyetsoang": 4659,
      "ĠSekhamane": 4660,
      "ama": 4661,
      "up": 4662,
      "lanyane": 4663,
      "Ġemise": 4664,
      "hampani": 4665,
      "Ġhohang": 4666,
      "Ġbaji": 4667,
      "Ġlitichere": 4668,
      "ĠlitÅ¡o": 4669,
      "Ġbokulo": 4670,
      "Ġboqhekanyetsi": 4671,
      "Ġand": 4672,
      "Ġmokhelo": 4673,
      "Ġmaseterata": 4674,
      "ĠmatÅ¡eliso": 4675,
      "Ġmaqhama": 4676,
      "tola": 4677,
      "Ġise": 4678,
      "ĠitÅ¡oa": 4679,
      "khomo": 4680,
      "pollo": 4681,
      "hlela": 4682,
      "hlekefe": 4683,
      "Mofu": 4684,
      "Ġqoaketsa": 4685,
      "ĠBamba": 4686,
      "ĠSena": 4687,
      "ĠSefa": 4688,
      "Ġkhahong": 4689,
      "Ġkhahloa": 4690,
      "Ġbuka": 4691,
      "loem": 4692,
      "Batsoali": 4693,
      "Ġphallo": 4694,
      "Ġkopang": 4695,
      "Ġhlokahetse": 4696,
      "ĠtÅ¡ehetse": 4697,
      "buhle": 4698,
      "ntate": 4699,
      "Ġpuisano": 4700,
      "Ġlitoropo": 4701,
      "Ġfetole": 4702,
      "ĠMeralo": 4703,
      "ĠGa": 4704,
      "Ġjang": 4705,
      "Ġbaballe": 4706,
      "Ġtiise": 4707,
      "Ġnyolohile": 4708,
      "Ġemetsoe": 4709,
      "Ġabetsoe": 4710,
      "250": 4711,
      "ĠMakhaleng": 4712,
      "Ġmoithuti": 4713,
      "ĠmatÅ¡oafo": 4714,
      "Ġsusume": 4715,
      "menemene": 4716,
      "ĠlitÅ¡iea": 4717,
      "ĠLekhooa": 4718,
      "ĠMalawi": 4719,
      "Ġlikhutsana": 4720,
      "ĠlitÅ¡enyehelo": 4721,
      "ĠBambatha": 4722,
      "ISA": 4723,
      "lione": 4724,
      "lintlha": 4725,
      "Ġki": 4726,
      "Ġbaqolotsi": 4727,
      "Ġsela": 4728,
      "Ġkanetso": 4729,
      "Ġboto": 4730,
      "ĠbotÅ¡ele": 4731,
      "Ġmofa": 4732,
      "Ġmolekane": 4733,
      "Ġmotsoalle": 4734,
      "Ġmotebong": 4735,
      "panyo": 4736,
      "Ġmautloela": 4737,
      "Ġmamati": 4738,
      "hloeng": 4739,
      "Ġlaetse": 4740,
      "ĠMou": 4741,
      "ĠMoruo": 4742,
      "ĠMotsamai": 4743,
      "Ġikhethe": 4744,
      "Ġisoe": 4745,
      "Ġmehlano": 4746,
      "eleng": 4747,
      "ĠBloem": 4748,
      "Ġqholo": 4749,
      "Ġhlokisa": 4750,
      "Ġhlomphe": 4751,
      "ĠtÅ¡elisa": 4752,
      "ĠtÅ¡ebeli": 4753,
      "Ġboite": 4754,
      "ĠNko": 4755,
      "ĠNeo": 4756,
      "Ġthebe": 4757,
      "Ġsila": 4758,
      "ĠSchool": 4759,
      "Ġqalileng": 4760,
      "nkana": 4761,
      "ĠInd": 4762,
      "ĠThato": 4763,
      "Ġtlhaho": 4764,
      "chocho": 4765,
      "ĠJu": 4766,
      "Ġisana": 4767,
      "Ġnepahetse": 4768,
      "Ġthibe": 4769,
      "ĠKopa": 4770,
      "Ġlebelletsoeng": 4771,
      "Ġnyahla": 4772,
      "Tsela": 4773,
      "Ġ198": 4774,
      "Ġlehloa": 4775,
      "Ġikarabella": 4776,
      "Ġbohanyetsi": 4777,
      "ĠMolefi": 4778,
      "ngore": 4779,
      "Ġnetefalitse": 4780,
      "nngoeng": 4781,
      "Joalo": 4782,
      "Ġkeresemese": 4783,
      "Bekeng": 4784,
      "Tabeng": 4785,
      "Ġlimmaraka": 4786,
      "MDS": 4787,
      "ĠCHAL": 4788,
      "Ġboahelani": 4789,
      "buhlellano": 4790,
      "ĠbotÅ¡elela": 4791,
      "100": 4792,
      "40": 4793,
      "AIDS": 4794,
      "SRC": 4795,
      "holi": 4796,
      "laba": 4797,
      "lofo": 4798,
      "Ġlela": 4799,
      "Ġmohiri": 4800,
      "Ġmophato": 4801,
      "ĠMpe": 4802,
      "Ġmaq": 4803,
      "Ġmatsete": 4804,
      "Ġfileng": 4805,
      "hlolong": 4806,
      "ĠMoi": 4807,
      "ĠMoletsane": 4808,
      "Ġitu": 4809,
      "Ġhlakisa": 4810,
      "ĠThu": 4811,
      "phetso": 4812,
      "Ġkoluoa": 4813,
      "ĠSekho": 4814,
      "Ġthabi": 4815,
      "Mali": 4816,
      "ĠBokang": 4817,
      "meliso": 4818,
      "Ġpaka": 4819,
      "ĠtÅ¡ebeletsong": 4820,
      "Ġpoone": 4821,
      "Ġfihlelle": 4822,
      "Ġthoto": 4823,
      "ĠKopano": 4824,
      "Ġbolaile": 4825,
      "Ġlikarolo": 4826,
      "Ġlikateng": 4827,
      "ĠThabang": 4828,
      "ĠHlalele": 4829,
      "ĠTÅ¡ire": 4830,
      "Ġlakaletsa": 4831,
      "Ġmobung": 4832,
      "Ġpotlako": 4833,
      "Komiti": 4834,
      "Ġlateloa": 4835,
      "ĠMolaoli": 4836,
      "ĠMonaheng": 4837,
      "Ġjeleng": 4838,
      "Ġhloohong": 4839,
      "ĠtÅ¡ubuhlellano": 4840,
      "Ġboikopanyo": 4841,
      "ĠInsu": 4842,
      "ĠBrigadier": 4843,
      "Ġboipelaetso": 4844,
      "Ġlekote": 4845,
      "LMC": 4846,
      "ĠBloemfontein": 4847,
      "ĠtÅ¡ebelisong": 4848,
      "\"'": 4849,
      "%)": 4850,
      "ehiso": 4851,
      "fshoa": 4852,
      "llisa": 4853,
      "Ġente": 4854,
      "ngolo": 4855,
      "Ġhokela": 4856,
      "nare": 4857,
      "Ġlecha": 4858,
      "Ġlebisa": 4859,
      "Ġbata": 4860,
      "Ġbahlekefe": 4861,
      "Ġlillo": 4862,
      "tsebi": 4863,
      "ĠbotÅ¡epe": 4864,
      "Ġmolo": 4865,
      "hella": 4866,
      "Ġhane": 4867,
      "Ġmacha": 4868,
      "Ġmatlong": 4869,
      "ĠntÅ¡": 4870,
      "Ġipu": 4871,
      "huk": 4872,
      "Ġmee": 4873,
      "Ġmetheo": 4874,
      "Ġmekoloto": 4875,
      "Ġhlakile": 4876,
      "ĠtÅ¡osa": 4877,
      "ĠLekha": 4878,
      "ĠMake": 4879,
      "ĠMathibeli": 4880,
      "kiti": 4881,
      "Ġphethi": 4882,
      "ntÅ¡uoa": 4883,
      "Ġthun": 4884,
      "rumo": 4885,
      "ĠPee": 4886,
      "Ġboipuso": 4887,
      "ĠNg": 4888,
      "ĠNig": 4889,
      "olompiki": 4890,
      "bini": 4891,
      "Ġtheke": 4892,
      "Ġthehile": 4893,
      "Ġtoba": 4894,
      "Ġbusa": 4895,
      "Ġtichere": 4896,
      "ĠtÅ¡oaetsa": 4897,
      "supisi": 4898,
      "Ġlebang": 4899,
      "ĠDe": 4900,
      "Ġrutela": 4901,
      "Ġekare": 4902,
      "Ġlekanya": 4903,
      "Ġ2012": 4904,
      "ĠTaolo": 4905,
      "Ġamehile": 4906,
      "Ġipabotse": 4907,
      "Ġtlisang": 4908,
      "Ġsenyehile": 4909,
      "Ġtlalehela": 4910,
      "ĠNaha": 4911,
      "Ġlipolotiking": 4912,
      "ĠLinaha": 4913,
      "Ġbolokeha": 4914,
      "Ġhlalosetsoa": 4915,
      "Ġshasha": 4916,
      "Ġmehlala": 4917,
      "Ġitlalehe": 4918,
      "Ġteteka": 4919,
      "ĠDurban": 4920,
      "Ġtsamaisong": 4921,
      "ĠtÅ¡abe": 4922,
      "ĠLEFA": 4923,
      "ĠtÅ¡ireletseho": 4924,
      "ĠSekonyela": 4925,
      "Ġrapalatsa": 4926,
      "ĠKopaneng": 4927,
      "ĠPeete": 4928,
      "',": 4929,
      "2000": 4930,
      "Bona": 4931,
      "IFA": 4932,
      "cco": 4933,
      "ws": 4934,
      "letsing": 4935,
      "liseng": 4936,
      "Ġhobo": 4937,
      "ĠletÅ¡oana": 4938,
      "Ġbatsamaisi": 4939,
      "Ġbatlela": 4940,
      "Ġlitulo": 4941,
      "Ġbokhachane": 4942,
      "Ġhalofo": 4943,
      "mobe": 4944,
      "ted": 4945,
      "ter": 4946,
      "ĠMotsamaisi": 4947,
      "Ġntoeng": 4948,
      "ĠitÅ¡ire": 4949,
      "Ġhlabile": 4950,
      "ĠtÅ¡alo": 4951,
      "ĠtÅ¡abo": 4952,
      "ĠManonyane": 4953,
      "ĠMatjato": 4954,
      "ĠMaama": 4955,
      "ĠTja": 4956,
      "Ġpheko": 4957,
      "Ġlokise": 4958,
      "Ġkope": 4959,
      "tlhe": 4960,
      "Ġthekisetsa": 4961,
      "Maka": 4962,
      "Basebetsi": 4963,
      "Ġsupang": 4964,
      "Ġuena": 4965,
      "ĠtÅ¡oae": 4966,
      "ĠHala": 4967,
      "ĠHung": 4968,
      "Ġiketse": 4969,
      "Ġhabohloko": 4970,
      "Ġlipoli": 4971,
      "Ġrupe": 4972,
      "Ġlehare": 4973,
      "Ġlitlokotsebe": 4974,
      "ĠKatleho": 4975,
      "Ġmabaleng": 4976,
      "chine": 4977,
      "Ġbapalami": 4978,
      "Ġthiba": 4979,
      "ĠMofomobe": 4980,
      "Ġchese": 4981,
      "ĠTÅ¡epang": 4982,
      "ĠWar": 4983,
      "Ġsenyetsa": 4984,
      "ĠMohau": 4985,
      "Ġlakatsang": 4986,
      "Ġboiketo": 4987,
      "Ġitlhahi": 4988,
      "Ġmahlong": 4989,
      "Ġhetla": 4990,
      "Ġtlohella": 4991,
      "Ġitlaleha": 4992,
      "Ġbelaelloa": 4993,
      "ĠTsolo": 4994,
      "Ġnyahame": 4995,
      "2026": 4996,
      "ramakoloi": 4997,
      "Ġmokhosi": 4998,
      "Ġlethathamo": 4999,
      "ĠMachokha": 5000,
      "ĠRugby": 5001,
      "ĠIndia": 5002,
      "ĠbotÅ¡epehi": 5003,
      "%.": 5004,
      "IEC": 5005,
      "Rea": 5006,
      "eba": 5007,
      "ole": 5008,
      "obo": 5009,
      "Ġbatloa": 5010,
      "Ġbahloli": 5011,
      "Ġsetha": 5012,
      "Ġkaro": 5013,
      "Ġbohahlaoli": 5014,
      "Ġmokoloto": 5015,
      "ĠmotÅ¡eare": 5016,
      "Ġhaha": 5017,
      "Ġtsejoa": 5018,
      "thollo": 5019,
      "thoane": 5020,
      "tale": 5021,
      "maneng": 5022,
      "Ġlaba": 5023,
      "ĠMora": 5024,
      "Ġnku": 5025,
      "Ġitha": 5026,
      "Ġmetle": 5027,
      "Ġmetsing": 5028,
      "Ġmekhahlelong": 5029,
      "ĠLekhetho": 5030,
      "posing": 5031,
      "ĠMasha": 5032,
      "Mohlo": 5033,
      "Monongoaha": 5034,
      "nyesemane": 5035,
      "Ġfaneng": 5036,
      "ĠLiteboho": 5037,
      "Ġkhakola": 5038,
      "LeFA": 5039,
      "Ġtlosoa": 5040,
      "ĠRi": 5041,
      "Kajeno": 5042,
      "Ġbulela": 5043,
      "eling": 5044,
      "ĠCho": 5045,
      "Ġrapela": 5046,
      "Ġtsebahale": 5047,
      "ĠThabiso": 5048,
      "Ġlipelo": 5049,
      "ĠtÅ¡ilafa": 5050,
      "Ġphethahale": 5051,
      "Ġ42": 5052,
      "ors": 5053,
      "Ġhloekang": 5054,
      "ĠTan": 5055,
      "Ġhlahlojoa": 5056,
      "Ġ196": 5057,
      "ĠTeele": 5058,
      "Ġpotlakileng": 5059,
      "Ġmahlohonolo": 5060,
      "kisetso": 5061,
      "Kopano": 5062,
      "hlokomeli": 5063,
      "Ġkelellong": 5064,
      "ĠDCEO": 5065,
      "Ġteropong": 5066,
      "ĠParamenteng": 5067,
      "Ġtlohelle": 5068,
      "ĠMahosana": 5069,
      "Ġliofisiri": 5070,
      "Ġpharalla": 5071,
      "ĠAfrican": 5072,
      "Ġfosahetseng": 5073,
      "Ġbatalatsa": 5074,
      "ĠMokema": 5075,
      "ĠInsurance": 5076,
      "Ġbahlekefetsi": 5077,
      "ĠNigeria": 5078,
      "tlheko": 5079,
      "ĠHungwe": 5080,
      "EF": 5081,
      "nse": 5082,
      "ntsu": 5083,
      "sh": 5084,
      "Ġhong": 5085,
      "Ġbahiri": 5086,
      "Ġbakiloe": 5087,
      "Ġmpo": 5088,
      "Ġsete": 5089,
      "Ġatisa": 5090,
      "Ġmonya": 5091,
      "Ġeaka": 5092,
      "balo": 5093,
      "Ġhata": 5094,
      "Ġrekela": 5095,
      "Ġrekise": 5096,
      "Ġmafo": 5097,
      "thong": 5098,
      "Ġphala": 5099,
      "selo": 5100,
      "Ġnate": 5101,
      "ĠMone": 5102,
      "ĠMokha": 5103,
      "ĠMoru": 5104,
      "tsitsoe": 5105,
      "Ġnqa": 5106,
      "Ġingoli": 5107,
      "Ġmesa": 5108,
      "Ġmema": 5109,
      "ĠLebi": 5110,
      "ĠMapo": 5111,
      "ĠMaapa": 5112,
      "joana": 5113,
      "ĠBolo": 5114,
      "riors": 5115,
      "Moqosuoa": 5116,
      "Ġbehileng": 5117,
      "thara": 5118,
      "tsoane": 5119,
      "thela": 5120,
      "Ġkotsing": 5121,
      "Ġkhokahano": 5122,
      "ĠLise": 5123,
      "Ġboito": 5124,
      "kunya": 5125,
      "Baqosuoa": 5126,
      "Ġtlisoang": 5127,
      "Ġqobisa": 5128,
      "Ġlikhohlano": 5129,
      "setsang": 5130,
      "Ġrate": 5131,
      "Ġlebotho": 5132,
      "Ġrugby": 5133,
      "Ġfetoloa": 5134,
      "Ġbaeta": 5135,
      "Ġlitsieane": 5136,
      "mporo": 5137,
      "Ġthusoe": 5138,
      "kisoe": 5139,
      "Ġthakholoa": 5140,
      "ĠPule": 5141,
      "Ġholileng": 5142,
      "Ġmoahloli": 5143,
      "ĠMolati": 5144,
      "Ġmahetleng": 5145,
      "ĠMajor": 5146,
      "Ġsefahleho": 5147,
      "ĠLikoluoa": 5148,
      "Ġkotula": 5149,
      "Ġlesokoana": 5150,
      "Ġthekisetsano": 5151,
      "'m": 5152,
      "400": 5153,
      "Qholotso": 5154,
      "UN": 5155,
      "ge": 5156,
      "kriste": 5157,
      "rts": 5158,
      "leloa": 5159,
      "lone": 5160,
      "Ġleho": 5161,
      "Ġleoa": 5162,
      "Ġlekholo": 5163,
      "Ġbake": 5164,
      "Ġbakiloeng": 5165,
      "reka": 5166,
      "Ġlichaba": 5167,
      "Ġbou": 5168,
      "hetsoeng": 5169,
      "Ġoka": 5170,
      "Ġrenang": 5171,
      "Ġmakho": 5172,
      "Ġmaholo": 5173,
      "Ġmabele": 5174,
      "tele": 5175,
      "ĠLo": 5176,
      "ĠMothe": 5177,
      "Ġmeba": 5178,
      "Ġhlabe": 5179,
      "porasi": 5180,
      "ĠMan": 5181,
      "joane": 5182,
      "pereng": 5183,
      "tima": 5184,
      "Ġkoro": 5185,
      "Ġfanoe": 5186,
      "chele": 5187,
      "ĠLitha": 5188,
      "ĠSehla": 5189,
      "koai": 5190,
      "Ġlitalenta": 5191,
      "Makho": 5192,
      "Ġhlalosang": 5193,
      "Ġtlisoa": 5194,
      "Ġtlileng": 5195,
      "Ġtiehiso": 5196,
      "Litsi": 5197,
      "Ġbolelang": 5198,
      "Ġbolelletse": 5199,
      "Ġtabatabelo": 5200,
      "ĠtÅ¡ebeletso": 5201,
      "Ġlikhokahanyo": 5202,
      "Ġqaloa": 5203,
      "thibe": 5204,
      "Ġkhubelu": 5205,
      "Ġ39": 5206,
      "Ġlikomiti": 5207,
      "ĠJoa": 5208,
      "Ġshebahala": 5209,
      "Ġarabe": 5210,
      "ĠKhoebo": 5211,
      "Ġnchafatsa": 5212,
      "Ġnyolle": 5213,
      "Ġnyollo": 5214,
      "Ġseboka": 5215,
      "Ġitlhoko": 5216,
      "Ġitlhomme": 5217,
      "ĠLikhoebo": 5218,
      "ĠNtÅ¡etso": 5219,
      "Papaling": 5220,
      "ĠMakhalanyane": 5221,
      "Ġlumelle": 5222,
      "ĠMokoko": 5223,
      "ĠMoleko": 5224,
      "Ġmonyenyetsi": 5225,
      "Ġhatetse": 5226,
      "Ġkhefutsong": 5227,
      "ĠThibelo": 5228,
      "Ġhlabolla": 5229,
      "Ġtsitsitseng": 5230,
      "Ġikoetlisa": 5231,
      "ĠtÅ¡oarisana": 5232,
      "Ġbosebeletsing": 5233,
      "Ġmeetlo": 5234,
      "15": 5235,
      "Musi": 5236,
      "OC": 5237,
      "Tu": 5238,
      "gh": 5239,
      "isoa": 5240,
      "hatholi": 5241,
      "Ġbahale": 5242,
      "Ġsehleng": 5243,
      "Ġliha": 5244,
      "Ġalafa": 5245,
      "Ġhala": 5246,
      "koto": 5247,
      "koro": 5248,
      "tata": 5249,
      "Ġpeto": 5250,
      "ĠMok": 5251,
      "ĠMotÅ¡e": 5252,
      "tolong": 5253,
      "Ġmene": 5254,
      "ĠLenka": 5255,
      "ĠLerato": 5256,
      "pong": 5257,
      "ĠMatho": 5258,
      "nyama": 5259,
      "lumeli": 5260,
      "ĠLite": 5261,
      "ĠSea": 5262,
      "ĠAma": 5263,
      "ĠNtsane": 5264,
      "Ġlokele": 5265,
      "piloe": 5266,
      "Ġnyoto": 5267,
      "Ġphamo": 5268,
      "Ġphaello": 5269,
      "Ġphaposing": 5270,
      "Ġsisi": 5271,
      "Ġbangoli": 5272,
      "Ġbohloki": 5273,
      "Likhetho": 5274,
      "Ġboletsoeng": 5275,
      "Ġfihleloa": 5276,
      "Ġbolokoa": 5277,
      "ĠlipontÅ¡uoa": 5278,
      "Ġrupela": 5279,
      "Ġlikotlo": 5280,
      "ĠMetolong": 5281,
      "ĠKarabo": 5282,
      "Ġkenellang": 5283,
      "Ġipatlela": 5284,
      "Ġ41": 5285,
      "Ġsehlohlolong": 5286,
      "khubetso": 5287,
      "Ġnyaka": 5288,
      "Ġ500": 5289,
      "Ġmokoka": 5290,
      "Ġnchafa": 5291,
      "Ġsebelisitsoeng": 5292,
      "Ġboikemelo": 5293,
      "Ġfumanoang": 5294,
      "Ġitlhahlo": 5295,
      "ĠSub": 5296,
      "ĠPosholi": 5297,
      "Ġlekhetlong": 5298,
      "ĠKeketso": 5299,
      "Ġbosiung": 5300,
      "Moemeli": 5301,
      "ĠMokoena": 5302,
      "hinara": 5303,
      "Ġlithaba": 5304,
      "rankoe": 5305,
      "Ġithokhubetsa": 5306,
      "Ġkhethiloeng": 5307,
      "ĠMojalefa": 5308,
      "Ġlitumellano": 5309,
      "ĠDivision": 5310,
      "ĠNkaku": 5311,
      "Ġmehope": 5312,
      "mishinara": 5313,
      "ĠSeitlheko": 5314,
      "ĠTÅ¡ireletso": 5315,
      "ĠntÅ¡itse": 5316,
      "ĠHalahala": 5317,
      "ĠWarriors": 5318,
      "DA": 5319,
      "LN": 5320,
      "LDF": 5321,
      "Raba": 5322,
      "ction": 5323,
      "ema": 5324,
      "ine": 5325,
      "pri": 5326,
      "Ġbitse": 5327,
      "Ġes": 5328,
      "Ġemi": 5329,
      "Ġehlile": 5330,
      "Ġkateng": 5331,
      "Ġbophe": 5332,
      "Ġbokane": 5333,
      "Ġaba": 5334,
      "Ġmotsamaisi": 5335,
      "Ġmotebo": 5336,
      "Ġhaa": 5337,
      "Ġreroa": 5338,
      "soeu": 5339,
      "Ġmamella": 5340,
      "Ġmajoe": 5341,
      "mekhatlo": 5342,
      "mani": 5343,
      "ĠMokhachane": 5344,
      "Ġnchocho": 5345,
      "sitiki": 5346,
      "ĠLes": 5347,
      "Ġfetile": 5348,
      "kisitse": 5349,
      "Ġpheta": 5350,
      "koloko": 5351,
      "Ġkhobo": 5352,
      "ĠNMDS": 5353,
      "Ġbuuoa": 5354,
      "kun": 5355,
      "Ġkopanyang": 5356,
      "Ġsilafa": 5357,
      "Litla": 5358,
      "ĠCAF": 5359,
      "Ġlefang": 5360,
      "pula": 5361,
      "Ġlipampiri": 5362,
      "ĠTÅ¡oe": 5363,
      "Ġntlafatsoa": 5364,
      "Bohle": 5365,
      "qosa": 5366,
      "ĠMehalalitoe": 5367,
      "nder": 5368,
      "Ġketelo": 5369,
      "ĠPhafane": 5370,
      "Ġutloang": 5371,
      "uel": 5372,
      "ĠEng": 5373,
      "Ġmohlaba": 5374,
      "Ġlitebele": 5375,
      "ĠKhojane": 5376,
      "ĠTeya": 5377,
      "nanelo": 5378,
      "Ġkhutlise": 5379,
      "Ġhlokahale": 5380,
      "Ġtekenne": 5381,
      "Ġmakhalo": 5382,
      "yaneng": 5383,
      "Ġlihlooho": 5384,
      "Ġanele": 5385,
      "Ġqalella": 5386,
      "Ġikopantseng": 5387,
      "Ġipolela": 5388,
      "qutu": 5389,
      "Ġmabenkele": 5390,
      "bank": 5391,
      "ĠHaleo": 5392,
      "Mathabo": 5393,
      "Ġmekhoabo": 5394,
      "ĠSports": 5395,
      "Ġmoketjaneng": 5396,
      "Ġthekeseleng": 5397,
      "ĠMashai": 5398,
      "ĠMaaparankoe": 5399,
      "200": 5400,
      "CP": 5401,
      "Ebe": 5402,
      "LC": 5403,
      "joeng": 5404,
      "rileng": 5405,
      "tjoe": 5406,
      "Ġese": 5407,
      "Ġeeng": 5408,
      "Ġkh": 5409,
      "naka": 5410,
      "Ġleme": 5411,
      "Ġlepolesa": 5412,
      "Ġbahlano": 5413,
      "Ġbahlolohali": 5414,
      "Ġalo": 5415,
      "Ġmok": 5416,
      "Ġmoche": 5417,
      "Ġmonoana": 5418,
      "bale": 5419,
      "Ġhanong": 5420,
      "Ġkente": 5421,
      "Ġmako": 5422,
      "kere": 5423,
      "makale": 5424,
      "ĠLt": 5425,
      "Ġnon": 5426,
      "boea": 5427,
      "bolli": 5428,
      "sisi": 5429,
      "Ġmeloko": 5430,
      "Ġmeqhaka": 5431,
      "elebohile": 5432,
      "Ġhlatsoa": 5433,
      "nod": 5434,
      "ĠMaze": 5435,
      "ĠMaqutu": 5436,
      "Ġnetball": 5437,
      "Ġfehla": 5438,
      "tleleng": 5439,
      "Moleli": 5440,
      "Ġhlotse": 5441,
      "Ġsebetsoe": 5442,
      "Ġlokisoe": 5443,
      "tÅ¡ebeletso": 5444,
      "nyeho": 5445,
      "ĠLipho": 5446,
      "ĠLifofane": 5447,
      "Hang": 5448,
      "ĠAbia": 5449,
      "onal": 5450,
      "Ġthabisa": 5451,
      "Ġthabisang": 5452,
      "Ġlitapole": 5453,
      "Ġthehiloeng": 5454,
      "Ġbuse": 5455,
      "Kete": 5456,
      "Ġphalla": 5457,
      "Ġphapang": 5458,
      "ĠSwa": 5459,
      "Ġromella": 5460,
      "Ġlenaneng": 5461,
      "Ġtima": 5462,
      "Ġutso": 5463,
      "ĠtÅ¡oarang": 5464,
      "Linaha": 5465,
      "Ġpopelo": 5466,
      "ĠCup": 5467,
      "Ġlikhoka": 5468,
      "Ġlikhohola": 5469,
      "tÅ¡oao": 5470,
      "Ġntlafale": 5471,
      "Ġmokhatlong": 5472,
      "Ġnepahala": 5473,
      "Ġliqaba": 5474,
      "Ġsehloho": 5475,
      "mposo": 5476,
      "Ġbaahloli": 5477,
      "Ġnyametse": 5478,
      "Ġhopoloa": 5479,
      "Ġchabileng": 5480,
      "ĠSou": 5481,
      "Ġkhethelo": 5482,
      "ĠNed": 5483,
      "Ġngongore": 5484,
      "Ġtlatselletsa": 5485,
      "ĠCovid": 5486,
      "Ġmofere": 5487,
      "ĠSADP": 5488,
      "Ġlemohile": 5489,
      "Ġhoeba": 5490,
      "Ġsireletsehile": 5491,
      "Ġletamong": 5492,
      "ĠUnited": 5493,
      "Ġkhethiloe": 5494,
      "ĠMotloheloa": 5495,
      "ĠHalemakale": 5496,
      "Ġaparetseng": 5497,
      "Ġphethahatso": 5498,
      "Mohlala": 5499,
      "Ġarohana": 5500,
      "ĠLeanya": 5501,
      "ĠlitÅ¡oaetso": 5502,
      "Ġkokota": 5503,
      "ĠJelu": 5504,
      "Ġlelibohong": 5505,
      "ĠMasheshena": 5506,
      "Ġqoaketsano": 5507,
      "Ġmofapa": 5508,
      "ĠitÅ¡ireletsa": 5509,
      "ĠLithabaneng": 5510,
      "ĠMazenod": 5511,
      "32": 5512,
      "HDA": 5513,
      "LE": 5514,
      "et": 5515,
      "ili": 5516,
      "luma": 5517,
      "Ġc": 5518,
      "Ġroa": 5519,
      "Ġesa": 5520,
      "hano": 5521,
      "Ġmphe": 5522,
      "Ġlicha": 5523,
      "Ġbofo": 5524,
      "Ġbomenemene": 5525,
      "Ġanye": 5526,
      "Ġmoroa": 5527,
      "Ġotlo": 5528,
      "panong": 5529,
      "Ġtsetse": 5530,
      "Ġrekoa": 5531,
      "mosha": 5532,
      "Ġlatola": 5533,
      "ĠMorero": 5534,
      "ĠMolele": 5535,
      "Ġnko": 5536,
      "Ġmeru": 5537,
      "ĠMakhele": 5538,
      "llows": 5539,
      "ĠPhala": 5540,
      "ĠLitho": 5541,
      "ĠLiki": 5542,
      "Haele": 5543,
      "Haeba": 5544,
      "ĠSetso": 5545,
      "Ġkhathetse": 5546,
      "Ġtlotloa": 5547,
      "Malie": 5548,
      "Ġtsoelang": 5549,
      "Lieu": 5550,
      "ĠRase": 5551,
      "Ġpasa": 5552,
      "Ġpatsana": 5553,
      "Ġpaballo": 5554,
      "Ġpotang": 5555,
      "ĠChi": 5556,
      "nteng": 5557,
      "Ġmangope": 5558,
      "Ġntlafatse": 5559,
      "Ġlebanya": 5560,
      "Ġlitoro": 5561,
      "Ġfihlang": 5562,
      "Ġhlahisetsa": 5563,
      "Ġkenyelletsoa": 5564,
      "ĠMekhatlo": 5565,
      "ĠPhamotse": 5566,
      "Ġelelloe": 5567,
      "Ġmolaleng": 5568,
      "Ġkoalla": 5569,
      "Mekhatlo": 5570,
      "Ġmekhatlong": 5571,
      "ĠMoepi": 5572,
      "Ġikopela": 5573,
      "ĠTÅ¡iu": 5574,
      "Ġkhalema": 5575,
      "Ġtlhokomeliso": 5576,
      "Ġmeralong": 5577,
      "Ġlifemeng": 5578,
      "Ġekelitse": 5579,
      "Ġkhutlile": 5580,
      "Ġlihlong": 5581,
      "Ġmojaong": 5582,
      "Ġkhauta": 5583,
      "hopolo": 5584,
      "Ġmahetla": 5585,
      "wing": 5586,
      "ĠMorocco": 5587,
      "Ġqheketsa": 5588,
      "Ġjoetsa": 5589,
      "ĠMotimposo": 5590,
      "Ġfinyella": 5591,
      "ICEF": 5592,
      "ĠMpiti": 5593,
      "Ġmesangoana": 5594,
      "ĠLeslie": 5595,
      "17": 5596,
      "lth": 5597,
      "ms": 5598,
      "lim": 5599,
      "Ġmphato": 5600,
      "rekano": 5601,
      "Ġsekete": 5602,
      "Ġlireng": 5603,
      "Ġmohoebi": 5604,
      "batsi": 5605,
      "betsoana": 5606,
      "Ġkekeng": 5607,
      "Ġmata": 5608,
      "tane": 5609,
      "hlane": 5610,
      "seletso": 5611,
      "Ġmebala": 5612,
      "ĠLeso": 5613,
      "ĠMali": 5614,
      "ĠMakoe": 5615,
      "halitse": 5616,
      "oela": 5617,
      "ting": 5618,
      "Ġteraka": 5619,
      "phele": 5620,
      "kolong": 5621,
      "Lefu": 5622,
      "Lengolo": 5623,
      "ĠKhi": 5624,
      "kheng": 5625,
      "Ġlokeleha": 5626,
      "Ġtoma": 5627,
      "Ġphalle": 5628,
      "ĠShale": 5629,
      "ĠRan": 5630,
      "Ġphetheloe": 5631,
      "Ġtsoala": 5632,
      "Ġfihletseng": 5633,
      "Ġpulo": 5634,
      "Ġqetellang": 5635,
      "ĠQeme": 5636,
      "Ġloane": 5637,
      "Ġlekanang": 5638,
      "Ġphethahetseng": 5639,
      "Ġ48": 5640,
      "ĠtÅ¡oarane": 5641,
      "Ġmohopolo": 5642,
      "ĠtÅ¡oarela": 5643,
      "salemane": 5644,
      "Ġtiisetso": 5645,
      "Ġborobong": 5646,
      "Ġngotsoeng": 5647,
      "Ġmahaeng": 5648,
      "Ġlitlhahlobo": 5649,
      "Ġkhibela": 5650,
      "Ġhlokomeloa": 5651,
      "Ġtekene": 5652,
      "Ġfelehe": 5653,
      "Ġboeletsi": 5654,
      "Ġsusumeli": 5655,
      "Ġnolofatsa": 5656,
      "ĠMahosi": 5657,
      "Ġhoehla": 5658,
      "ĠMakatile": 5659,
      "Ġlikelellong": 5660,
      "Boemong": 5661,
      "Ġmapomelo": 5662,
      "ĠMathebe": 5663,
      "Baithuti": 5664,
      "Ġfolakha": 5665,
      "ĠMahlomola": 5666,
      "Ġkhoholeho": 5667,
      "Ġitokolla": 5668,
      "Ġlelapeng": 5669,
      "Ġmophatong": 5670,
      "Ġcheseho": 5671,
      "Ġhalalelang": 5672,
      "Rabasotho": 5673,
      "Ġmocheso": 5674,
      "ĠSwallows": 5675,
      "Ġliqabang": 5676,
      "ĠMoleleki": 5677,
      "ĠSetsoto": 5678,
      "5000": 5679,
      "Ena": 5680,
      "Kea": 5681,
      "Su": 5682,
      "Temo": 5683,
      "esa": 5684,
      "etsi": 5685,
      "eeng": 5686,
      "latsa": 5687,
      "lika": 5688,
      "Ġhoelehe": 5689,
      "Ġlerole": 5690,
      "Ġbalumeli": 5691,
      "Ġsera": 5692,
      "Ġlire": 5693,
      "Ġbotsoa": 5694,
      "Ġanngoeng": 5695,
      "Ġmohlanka": 5696,
      "Ġmochini": 5697,
      "Ġtsejoeng": 5698,
      "Ġmamola": 5699,
      "Ġmasea": 5700,
      "Ġphiri": 5701,
      "hlobi": 5702,
      "ĠMotla": 5703,
      "ĠMosalemane": 5704,
      "Ġntsoe": 5705,
      "tÅ¡u": 5706,
      "Ġmekoa": 5707,
      "Ġmetsu": 5708,
      "ĠLetsi": 5709,
      "ĠLefu": 5710,
      "ĠLepereng": 5711,
      "ĠMau": 5712,
      "ĠMakae": 5713,
      "phane": 5714,
      "tional": 5715,
      "Ġhloloe": 5716,
      "Ġpherekano": 5717,
      "Ġlohle": 5718,
      "Ġtema": 5719,
      "ĠtÅ¡etÅ¡e": 5720,
      "fetsane": 5721,
      "ĠLim": 5722,
      "ĠLihloliloeng": 5723,
      "Ġkhang": 5724,
      "Ġkhahleho": 5725,
      "Lehla": 5726,
      "Lefapha": 5727,
      "ĠAIDS": 5728,
      "Ġboipa": 5729,
      "atata": 5730,
      "Ġfih": 5731,
      "Ġtafo": 5732,
      "Mabo": 5733,
      "Ġmongobo": 5734,
      "Ġbutse": 5735,
      "tlisong": 5736,
      "Ġsiile": 5737,
      "ĠSte": 5738,
      "letsang": 5739,
      "tumelo": 5740,
      "Ġlinaoa": 5741,
      "Ġrali": 5742,
      "Ġtletlebo": 5743,
      "Ġfapane": 5744,
      "Ġlikonteraka": 5745,
      "Ġkhothaletsoa": 5746,
      "ĠMatelile": 5747,
      "Ġmoetlo": 5748,
      "ĠPheko": 5749,
      "Ġahlotse": 5750,
      "ĠtÅ¡oarehang": 5751,
      "ĠVe": 5752,
      "Ġrekang": 5753,
      "Ġmokotleng": 5754,
      "Ġqetang": 5755,
      "Ġtheohela": 5756,
      "dium": 5757,
      "Ġlinoka": 5758,
      "Ġtloae": 5759,
      "Ġketsahalong": 5760,
      "ĠKhabo": 5761,
      "Ġpolokelong": 5762,
      "Ġtsoelepele": 5763,
      "Ġikhapetse": 5764,
      "ĠMalephane": 5765,
      "ĠMakhakhe": 5766,
      "Ġlumelang": 5767,
      "Ġqhoma": 5768,
      "hisane": 5769,
      "Ġlelekisa": 5770,
      "ĠMahobong": 5771,
      "Mamohato": 5772,
      "ĠSakoane": 5773,
      "Ġpitsong": 5774,
      "Ġphethola": 5775,
      "nkere": 5776,
      "Ġselekaneng": 5777,
      "ĠKhubetsoana": 5778,
      "Ġapere": 5779,
      "Ġhokeloa": 5780,
      "Ġlethathamong": 5781,
      "ĠSamuel": 5782,
      "ĠMabitle": 5783,
      "ĠKhoabane": 5784,
      "ĠHigh": 5785,
      "ĠNkhasi": 5786,
      "Ġtsebisoa": 5787,
      "ntsunyane": 5788,
      "Ġitlhahloba": 5789,
      "kunutu": 5790,
      "ĠNedbank": 5791,
      "Ġmoroalo": 5792,
      "13": 5793,
      "60": 5794,
      "FC": 5795,
      "nko": 5796,
      "nni": 5797,
      "uta": 5798,
      "Ã³": 5799,
      "Ġtsu": 5800,
      "hole": 5801,
      "Ġkileng": 5802,
      "Ġlepa": 5803,
      "Ġlebisang": 5804,
      "Ġbasupisi": 5805,
      "Ġsejana": 5806,
      "Ġlibini": 5807,
      "oast": 5808,
      "Ġbolao": 5809,
      "Ġbotlalo": 5810,
      "Ġatolo": 5811,
      "Ġmoka": 5812,
      "Ġmose": 5813,
      "betseng": 5814,
      "Ġtsejoe": 5815,
      "kobetso": 5816,
      "satsana": 5817,
      "son": 5818,
      "Ġmatsebe": 5819,
      "Ġmantsi": 5820,
      "moko": 5821,
      "thokhubetso": 5822,
      "tara": 5823,
      "ĠMotÅ¡oane": 5824,
      "ĠMothibeli": 5825,
      "Ġingo": 5826,
      "hula": 5827,
      "ĠMape": 5828,
      "ĠMalie": 5829,
      "Ġfelletsoe": 5830,
      "oeso": 5831,
      "ĠTele": 5832,
      "Ġbehiloe": 5833,
      "Ġsebele": 5834,
      "Ġteboho": 5835,
      "Ġboema": 5836,
      "tÅ¡ehali": 5837,
      "ĠPolo": 5838,
      "ĠLitÅ¡i": 5839,
      "ĠAdo": 5840,
      "thuma": 5841,
      "Ġthahong": 5842,
      "ĠNte": 5843,
      "ĠNtsie": 5844,
      "ĠNthunya": 5845,
      "musong": 5846,
      "ealth": 5847,
      "ĠRelebohile": 5848,
      "Mamekhatlo": 5849,
      "Kannete": 5850,
      "ĠBotlotlehi": 5851,
      "kuoane": 5852,
      "Baa": 5853,
      "Ġroba": 5854,
      "Ġkamohelo": 5855,
      "Ġtiileng": 5856,
      "Likuena": 5857,
      "ĠRatÅ¡i": 5858,
      "ĠCoast": 5859,
      "ĠMaseko": 5860,
      "Ġtletle": 5861,
      "ĠThabane": 5862,
      "Ġthola": 5863,
      "ntain": 5864,
      "Ġlebone": 5865,
      "Ġlikomporo": 5866,
      "Ġhlahisitse": 5867,
      "Ġkhothalelitse": 5868,
      "ĠPhamong": 5869,
      "Ġelelitse": 5870,
      "ĠThabana": 5871,
      "phuputso": 5872,
      "Ġmoeeng": 5873,
      "Ġliteko": 5874,
      "Ġlitemana": 5875,
      "Ġpere": 5876,
      "ĠKhothatso": 5877,
      "Ġphatlalatsoa": 5878,
      "Ġsenyeheloa": 5879,
      "Nako": 5880,
      "ĠlinotÅ¡i": 5881,
      "Ġitekola": 5882,
      "Koro": 5883,
      "Ġtsoetsepele": 5884,
      "Ġpolotiki": 5885,
      "Ġkhotsofala": 5886,
      "CON": 5887,
      "ĠMalefetsane": 5888,
      "Ġitokise": 5889,
      "ĠTheko": 5890,
      "Ġlumelloa": 5891,
      "ĠCape": 5892,
      "Ġmekoko": 5893,
      "Ġlaoloa": 5894,
      "Ġlelekoa": 5895,
      "Ġbolutu": 5896,
      "ĠTÅ¡epong": 5897,
      "Ġphutheho": 5898,
      "ĠLebatooa": 5899,
      "Ġselepe": 5900,
      "ĠMotlomelo": 5901,
      "Ġmenyakoe": 5902,
      "Ġboikokobetso": 5903,
      "ĠMachobane": 5904,
      "Ġthulana": 5905,
      "Ġkhakotse": 5906,
      "Ġchorisa": 5907,
      "Molaoli": 5908,
      "thahatsi": 5909,
      "Ġlabalabela": 5910,
      "ĠMosala": 5911,
      "Ġboipoleso": 5912,
      "ĠlitÅ¡oso": 5913,
      "ĠtÅ¡ilafalo": 5914,
      "nders": 5915,
      "Ġmetsuntsunyane": 5916,
      "Ġtafoleng": 5917,
      "ĠAdontÅ¡i": 5918,
      "Co": 5919,
      "CAF": 5920,
      "IP": 5921,
      "Pe": 5922,
      "Presidente": 5923,
      "bra": 5924,
      "gi": 5925,
      "kwing": 5926,
      "mileng": 5927,
      "Ã¨": 5928,
      "homishinara": 5929,
      "Ġlekhulo": 5930,
      "Ġlisitseng": 5931,
      "Ġkapela": 5932,
      "Ġkankere": 5933,
      "Ġbora": 5934,
      "Ġbotsebi": 5935,
      "Ġala": 5936,
      "Ġaheloa": 5937,
      "Ġmono": 5938,
      "Ġmoletsa": 5939,
      "Ġmoreneng": 5940,
      "helong": 5941,
      "nel": 5942,
      "Ġrena": 5943,
      "Ġrekile": 5944,
      "moeeng": 5945,
      "hlojane": 5946,
      "ĠMore": 5947,
      "ĠMoka": 5948,
      "ĠMokete": 5949,
      "Ġine": 5950,
      "Ġikhe": 5951,
      "Ġikitla": 5952,
      "chard": 5953,
      "sic": 5954,
      "Ġmeropo": 5955,
      "rou": 5956,
      "Ġhlaka": 5957,
      "Ġhlanaka": 5958,
      "ĠtÅ¡ola": 5959,
      "ĠMasoabi": 5960,
      "tsoetse": 5961,
      "Ġkahara": 5962,
      "Moi": 5963,
      "Moo": 5964,
      "Ġtekiloeng": 5965,
      "Ġthusitseng": 5966,
      "ĠPro": 5967,
      "Ġfanye": 5968,
      "Ġ2000": 5969,
      "Ġhaesale": 5970,
      "ĠSeme": 5971,
      "Ġkhare": 5972,
      "ĠNtlong": 5973,
      "olonel": 5974,
      "Ġthehe": 5975,
      "Ġthehela": 5976,
      "ĠRea": 5977,
      "pisoa": 5978,
      "Ġmonga": 5979,
      "Ketsa": 5980,
      "Ġqosa": 5981,
      "itseli": 5982,
      "Lipo": 5983,
      "Ġbolelloa": 5984,
      "ĠCent": 5985,
      "Ġkhuma": 5986,
      "ĠHu": 5987,
      "toane": 5988,
      "Ġhlahisitsoeng": 5989,
      "Ġfetotse": 5990,
      "ĠMenkhoa": 5991,
      "vory": 5992,
      "ĠKamo": 5993,
      "ĠtÅ¡oenya": 5994,
      "Ġamoheloa": 5995,
      "Ġ2010": 5996,
      "karete": 5997,
      "Ġlokolloe": 5998,
      "Ġlahleheloe": 5999,
      "Ġphuthu": 6000,
      "Ġutloisa": 6001,
      "Ġ55": 6002,
      "Ġchai": 6003,
      "Ġikemiselitseng": 6004,
      "ĠBulane": 6005,
      "ĠWi": 6006,
      "Ġkhethela": 6007,
      "ĠNala": 6008,
      "Ġlehlohlojane": 6009,
      "Ġmaliboho": 6010,
      "Koranta": 6011,
      "Ġphelisana": 6012,
      "Ġlibukana": 6013,
      "Ġbehelloa": 6014,
      "Ġlumelisa": 6015,
      "Ġlibolo": 6016,
      "selese": 6017,
      "ralitaba": 6018,
      "Ġtoropong": 6019,
      "tÅ¡oene": 6020,
      "Ġchechiselitsoe": 6021,
      "Ġhlophisitsoe": 6022,
      "Ġtsamaisoa": 6023,
      "ĠFusi": 6024,
      "ĠFund": 6025,
      "Ġlitulong": 6026,
      "Ġkerekeng": 6027,
      "ĠtÅ¡episoa": 6028,
      "Ġhlaseloa": 6029,
      "ĠNthabiseng": 6030,
      "ĠTÅ¡oi": 6031,
      "Ġikamahanya": 6032,
      "Moahloli": 6033,
      "rates": 6034,
      "Ġlikhothaletso": 6035,
      "ĠletÅ¡oele": 6036,
      "ĠMountain": 6037,
      "Ġsilafatsa": 6038,
      "Ġthotobolo": 6039,
      "Ġtobanang": 6040,
      "Ġitlhahisetse": 6041,
      "ĠRichard": 6042,
      "ĠLitekanyo": 6043,
      "Ġreroang": 6044,
      "ĠJelusic": 6045,
      "Ġbofokoli": 6046,
      "ĠLimko": 6047,
      "Ġmeropotso": 6048,
      "ĠMenkhoaneng": 6049,
      "LEC": 6050,
      "Nta": 6051,
      "Tl": 6052,
      "To": 6053,
      "amphani": 6054,
      "kg": 6055,
      "ple": 6056,
      "tlung": 6057,
      "wn": 6058,
      "wns": 6059,
      "Ġ.": 6060,
      "Ġllang": 6061,
      "lesa": 6062,
      "late": 6063,
      "Ġemeng": 6064,
      "Ġemetseng": 6065,
      "Ġemang": 6066,
      "Ġlejoe": 6067,
      "Ġbatlisi": 6068,
      "Ġbathusi": 6069,
      "Ġbankeng": 6070,
      "Ġbatlile": 6071,
      "Ġthoa": 6072,
      "Ġsese": 6073,
      "Ġsekho": 6074,
      "Ġseno": 6075,
      "Ġsenyang": 6076,
      "Ġlikarete": 6077,
      "Ġboma": 6078,
      "Ġboliseng": 6079,
      "Ġahile": 6080,
      "Ġahela": 6081,
      "Ġahiloe": 6082,
      "Ġmosebeletsi": 6083,
      "panyetsa": 6084,
      "Ġrera": 6085,
      "tama": 6086,
      "hlanders": 6087,
      "man": 6088,
      "hlobong": 6089,
      "ĠMothehi": 6090,
      "Ġnkho": 6091,
      "Ġikutlo": 6092,
      "Ġimeloa": 6093,
      "Ġtlaba": 6094,
      "bohang": 6095,
      "Ġmehopolo": 6096,
      "rollo": 6097,
      "tlokoa": 6098,
      "ĠMaile": 6099,
      "ĠMarena": 6100,
      "ĠMabu": 6101,
      "ĠManga": 6102,
      "Ġfelle": 6103,
      "pere": 6104,
      "ric": 6105,
      "Mola": 6106,
      "Ġhlompho": 6107,
      "Ġhlokoang": 6108,
      "ĠtÅ¡elang": 6109,
      "Ġkojoana": 6110,
      "Ġboetseng": 6111,
      "Ġthunngoa": 6112,
      "Ġetsaha": 6113,
      "langoana": 6114,
      "ĠLineo": 6115,
      "Ġboithokhubetso": 6116,
      "ĠNqosa": 6117,
      "Ġsupe": 6118,
      "Ġtlohang": 6119,
      "Ġtaemane": 6120,
      "halane": 6121,
      "Majo": 6122,
      "shoane": 6123,
      "Ġmonamoli": 6124,
      "ĠBob": 6125,
      "ĠBosebetsi": 6126,
      "Bae": 6127,
      "mina": 6128,
      "miso": 6129,
      "tlafatsi": 6130,
      "Ġboletseng": 6131,
      "Ġkhekhetha": 6132,
      "tumeleng": 6133,
      "Ġraliphatlalatso": 6134,
      "ĠtÅ¡ehetsoang": 6135,
      "Ġshejoe": 6136,
      "llisoa": 6137,
      "ĠIvory": 6138,
      "Ġngatana": 6139,
      "Ġfura": 6140,
      "Ġputla": 6141,
      "Ġkhahlame": 6142,
      "shamole": 6143,
      "abata": 6144,
      "Ġkolota": 6145,
      "Ġsehlomathiso": 6146,
      "khutlisi": 6147,
      "Ġphoofolo": 6148,
      "Ġ56": 6149,
      "Ġetelletsoe": 6150,
      "ĠRamashamole": 6151,
      "Ġnyolloa": 6152,
      "selitseng": 6153,
      "Ġkhalefo": 6154,
      "Ġkoporasi": 6155,
      "sheet": 6156,
      "Ġatametsa": 6157,
      "Ġrutang": 6158,
      "ĠNapo": 6159,
      "Ġitlhopha": 6160,
      "Ġlemala": 6161,
      "Ġlemati": 6162,
      "Ġtekenela": 6163,
      "Ġ2007": 6164,
      "ĠRothe": 6165,
      "ĠRamoeletsi": 6166,
      "ĠMatlameng": 6167,
      "ĠUNICEF": 6168,
      "Ġliboholi": 6169,
      "Ġshebella": 6170,
      "Ġkutloelo": 6171,
      "ĠMorie": 6172,
      "Ġithehela": 6173,
      "Selemo": 6174,
      "nkeleng": 6175,
      "Joale": 6176,
      "ĠOfising": 6177,
      "Ġboikoetlisong": 6178,
      "ĠJames": 6179,
      "chni": 6180,
      "ĠHighlanders": 6181,
      "ĠtÅ¡epahalla": 6182,
      "ĠLetsema": 6183,
      "ĠLehohla": 6184,
      "Ġoelang": 6185,
      "Ġikhethela": 6186,
      "Ġiketsetse": 6187,
      "Ġmafosisa": 6188,
      "ĠMapoteng": 6189,
      "Ġbophethahatsi": 6190,
      "Ġmoferefere": 6191,
      "ĠLetsika": 6192,
      "Ġmantsiboea": 6193,
      "ĠTÅ¡oinyana": 6194,
      "AT": 6195,
      "Di": 6196,
      "GC": 6197,
      "Pele": 6198,
      "hn": 6199,
      "kwa": 6200,
      "mphu": 6201,
      "nk": 6202,
      "nts": 6203,
      "ou": 6204,
      "rla": 6205,
      "sto": 6206,
      "ul": 6207,
      "ys": 6208,
      "Ġlelele": 6209,
      "Ġlesisi": 6210,
      "Ġballa": 6211,
      "ĠsetÅ¡a": 6212,
      "Ġbohale": 6213,
      "ĠbotÅ¡ehetsi": 6214,
      "Ġbomali": 6215,
      "Ġaka": 6216,
      "Ġalosa": 6217,
      "betsang": 6218,
      "Ġhasa": 6219,
      "sanang": 6220,
      "Ġmaru": 6221,
      "Ġmafolo": 6222,
      "telang": 6223,
      "ĠLHDA": 6224,
      "ĠMofu": 6225,
      "ĠMopapa": 6226,
      "ĠntÅ¡oa": 6227,
      "Ġita": 6228,
      "Ġiketsa": 6229,
      "Ġmetsana": 6230,
      "Ġhlake": 6231,
      "ĠLete": 6232,
      "ĠLetsatsi": 6233,
      "ĠLesu": 6234,
      "ĠMai": 6235,
      "ĠMafu": 6236,
      "ĠTru": 6237,
      "Ġhlobo": 6238,
      "kisong": 6239,
      "ntÅ¡iso": 6240,
      "Ġtefo": 6241,
      "Ġtekile": 6242,
      "Ġtemana": 6243,
      "Ġteana": 6244,
      "Ġkholumo": 6245,
      "nyeso": 6246,
      "ĠLita": 6247,
      "ĠLihla": 6248,
      "Ġkhapha": 6249,
      "Leba": 6250,
      "ĠAu": 6251,
      "Ġtsosa": 6252,
      "ĠNy": 6253,
      "atau": 6254,
      "Ġlitanka": 6255,
      "piloeng": 6256,
      "Ġsimo": 6257,
      "Ġsiee": 6258,
      "ĠSha": 6259,
      "ĠSpe": 6260,
      "Ġqositsoe": 6261,
      "Ġlingo": 6262,
      "Ġbohlophisi": 6263,
      "fokeng": 6264,
      "Ġpoho": 6265,
      "Ġshebi": 6266,
      "llion": 6267,
      "Ġlebatama": 6268,
      "Ġtletseng": 6269,
      "Ġtlhako": 6270,
      "Ġlehlasipa": 6271,
      "Ġlitloholo": 6272,
      "Ġmabalane": 6273,
      "ĠQho": 6274,
      "Ġthibelang": 6275,
      "ĠtÅ¡imo": 6276,
      "shano": 6277,
      "Ġamohe": 6278,
      "Ġ46": 6279,
      "Ġkoae": 6280,
      "Ġlitebello": 6281,
      "Ġetele": 6282,
      "Ġkhetholoha": 6283,
      "Ġjare": 6284,
      "Ġmokoko": 6285,
      "Ġikobele": 6286,
      "selin": 6287,
      "didi": 6288,
      "Ġkhetheloa": 6289,
      "dale": 6290,
      "Ġsepetleleng": 6291,
      "Ġbokelletsa": 6292,
      "lokomela": 6293,
      "FPA": 6294,
      "Ġlemosa": 6295,
      "Ġlitharollo": 6296,
      "Ġlebeletsoeng": 6297,
      "ĠMolebatsi": 6298,
      "ĠMakateng": 6299,
      "Ġikakhetse": 6300,
      "Ġshoalane": 6301,
      "ĠlitÅ¡ila": 6302,
      "Ġqobella": 6303,
      "ĠJohn": 6304,
      "limabe": 6305,
      "Ġmatsoalloa": 6306,
      "Ġbahlophisi": 6307,
      "Ġhatike": 6308,
      "Ġhlabiloe": 6309,
      "Ġhlabiloeng": 6310,
      "Ġkatamelo": 6311,
      "ĠMafaesa": 6312,
      "Ġlimenyane": 6313,
      "Ġkhoao": 6314,
      "cial": 6315,
      "Ġphethisa": 6316,
      "Ġthunthe": 6317,
      "ĠTankiso": 6318,
      "Ġmpoli": 6319,
      "prista": 6320,
      "Ġkentelo": 6321,
      "Ġingolisa": 6322,
      "Ġikhethileng": 6323,
      "Ġkharebe": 6324,
      "ĠLimkokwing": 6325,
      "Ġbomalimabe": 6326,
      "Division": 6327,
      "Ġlesisitheho": 6328,
      ",.": 6329,
      "-âĢĺ": 6330,
      "16": 6331,
      "24": 6332,
      "26": 6333,
      "Eo": 6334,
      "FD": 6335,
      "Litse": 6336,
      "MI": 6337,
      "Ofisi": 6338,
      "Thu": 6339,
      "presidente": 6340,
      "rvi": 6341,
      "ssi": 6342,
      "ĠX": 6343,
      "Ġchaba": 6344,
      "likoane": 6345,
      "Ġholang": 6346,
      "Ġlebile": 6347,
      "Ġlerata": 6348,
      "Ġbaho": 6349,
      "Ġsetloa": 6350,
      "Ġsejoale": 6351,
      "ĠsetÅ¡eng": 6352,
      "Ġkali": 6353,
      "Ġbohato": 6354,
      "Ġakhe": 6355,
      "ĠmotÅ¡oaruoa": 6356,
      "Ġmofumahatsana": 6357,
      "Ġmoroetsana": 6358,
      "heli": 6359,
      "soba": 6360,
      "Ġmak": 6361,
      "Ġmaja": 6362,
      "Ġmakhu": 6363,
      "teyaneng": 6364,
      "hloe": 6365,
      "Ġnala": 6366,
      "ĠMota": 6367,
      "ĠMothusi": 6368,
      "Ġtlamang": 6369,
      "Ġmetebo": 6370,
      "Ġhlaola": 6371,
      "ĠLetÅ¡eng": 6372,
      "potso": 6373,
      "polla": 6374,
      "ĠMatÅ¡e": 6375,
      "Ġfera": 6376,
      "SetÅ¡oantÅ¡o": 6377,
      "ĠTloko": 6378,
      "Molimo": 6379,
      "ĠBatlotlehi": 6380,
      "Ġkhoba": 6381,
      "soane": 6382,
      "ĠSen": 6383,
      "ĠAd": 6384,
      "ĠAbra": 6385,
      "Ġthapeli": 6386,
      "ĠNtÅ¡o": 6387,
      "Ġthele": 6388,
      "Marena": 6389,
      "Ġtsoellisa": 6390,
      "ĠBoro": 6391,
      "kutu": 6392,
      "Ġtlise": 6393,
      "ĠSco": 6394,
      "Ġromela": 6395,
      "Ġrobetse": 6396,
      "Ġlumele": 6397,
      "Ġtiti": 6398,
      "Ġune": 6399,
      "ĠColonel": 6400,
      "Ġkhethileng": 6401,
      "Ġlibanka": 6402,
      "puoa": 6403,
      "koeng": 6404,
      "Ġtsamae": 6405,
      "tloane": 6406,
      "Ġfumanela": 6407,
      "ĠkaharÃ¡": 6408,
      "Ġlitseleng": 6409,
      "Ġfapakana": 6410,
      "ces": 6411,
      "Ġkenelle": 6412,
      "ĠFre": 6413,
      "ĠloantÅ¡": 6414,
      "hlalefi": 6415,
      "ĠGe": 6416,
      "Ġutloahetse": 6417,
      "Ġlokolle": 6418,
      "Ġ47": 6419,
      "Ġlikahlolo": 6420,
      "Ġphutho": 6421,
      "Ġkoalloa": 6422,
      "ntÅ¡ang": 6423,
      "Ġmatlafatsoa": 6424,
      "Ġnyaro": 6425,
      "ĠMokhatlong": 6426,
      "ĠPhetetso": 6427,
      "Ġnonya": 6428,
      "Ġfetisetsoa": 6429,
      "ĠKhosi": 6430,
      "ĠMokhosi": 6431,
      "ĠPuseletso": 6432,
      "Ġsenyesemane": 6433,
      "Ġatamele": 6434,
      "Ġhlekefetsoang": 6435,
      "Ġtloaetse": 6436,
      "Ġarola": 6437,
      "tjelo": 6438,
      "Ġmojaho": 6439,
      "Ġleqeba": 6440,
      "resident": 6441,
      "ĠPirates": 6442,
      "ĠPeka": 6443,
      "ĠLipalo": 6444,
      "Ġnetefatse": 6445,
      "Ġsireletseha": 6446,
      "Ġbelaela": 6447,
      "ĠMoroke": 6448,
      "Ġngoetsi": 6449,
      "ĠFou": 6450,
      "Ġqheka": 6451,
      "Ġnoesetsa": 6452,
      "Boemo": 6453,
      "Ġphatlallatsa": 6454,
      "Ġmekhoeng": 6455,
      "Ġlekeno": 6456,
      "Ġlaeloa": 6457,
      "Ġmanoni": 6458,
      "Ġlabalabelang": 6459,
      "ĠLetseka": 6460,
      "Ġbasebelisi": 6461,
      "Ġkiba": 6462,
      "Ġboiteko": 6463,
      "Ġsethathong": 6464,
      "Ġmonyako": 6465,
      "Ġnontse": 6466,
      "ĠLesobeng": 6467,
      "didilane": 6468,
      "35": 6469,
      "99": 6470,
      "PE": 6471,
      "Rona": 6472,
      "eho": 6473,
      "erekho": 6474,
      "opo": 6475,
      "phiso": 6476,
      "wer": 6477,
      "ngola": 6478,
      "loba": 6479,
      "Ġlesole": 6480,
      "ĠletÅ¡oao": 6481,
      "Ġbahlokomeli": 6482,
      "ren": 6483,
      "Ġsetlo": 6484,
      "Ġsetu": 6485,
      "Ġlitloa": 6486,
      "Ġliphatlalatso": 6487,
      "Ġbohlanka": 6488,
      "Ġahe": 6489,
      "nelo": 6490,
      "Ġmame": 6491,
      "Ġmabi": 6492,
      "kereke": 6493,
      "tebele": 6494,
      "mala": 6495,
      "Ġnalaneng": 6496,
      "ĠMonyane": 6497,
      "ĠMothibe": 6498,
      "ĠMohlalefi": 6499,
      "rateng": 6500,
      "Ġmefere": 6501,
      "Ġmetebong": 6502,
      "romo": 6503,
      "ĠLetla": 6504,
      "ĠLetÅ¡olo": 6505,
      "ĠMalo": 6506,
      "ĠMaba": 6507,
      "ĠMata": 6508,
      "ĠBoe": 6509,
      "Ġfetse": 6510,
      "peso": 6511,
      "ĠTra": 6512,
      "ĠTsoa": 6513,
      "Ġhlohonolo": 6514,
      "Ġteea": 6515,
      "Ġtemeng": 6516,
      "ĠtÅ¡eho": 6517,
      "Ġkotulo": 6518,
      "ĠBana": 6519,
      "Hore": 6520,
      "lub": 6521,
      "ĠPoto": 6522,
      "ĠSeba": 6523,
      "ĠSetereke": 6524,
      "ĠSempe": 6525,
      "Leeto": 6526,
      "isane": 6527,
      "ĠNtla": 6528,
      "ĠNku": 6529,
      "Ġlitaelo": 6530,
      "Ġtlohile": 6531,
      "Ġlutseng": 6532,
      "Likolo": 6533,
      "ĠpontÅ¡o": 6534,
      "puisano": 6535,
      "jotjo": 6536,
      "ĠtÅ¡ehetsoa": 6537,
      "Ġhlokometseng": 6538,
      "ĠThapelo": 6539,
      "Ġthopho": 6540,
      "Ġfuthuma": 6541,
      "Ġlikoti": 6542,
      "Bothata": 6543,
      "Ġlithoele": 6544,
      "Ġmarangrang": 6545,
      "ĠKatiso": 6546,
      "Ġletsohong": 6547,
      "Ġlikhala": 6548,
      "Ġlihlaba": 6549,
      "ĠKoporasi": 6550,
      "Ġkoaloe": 6551,
      "Ġlitheo": 6552,
      "Ġ52": 6553,
      "ĠPakela": 6554,
      "ĠMoerane": 6555,
      "ĠWa": 6556,
      "ĠOrla": 6557,
      "Ġ67": 6558,
      "Ġlefelloa": 6559,
      "ritius": 6560,
      "honolofatso": 6561,
      "Ġeketsoa": 6562,
      "Ġmakatsa": 6563,
      "Ġnyenye": 6564,
      "Ġbokeletsa": 6565,
      "ĠtÅ¡oha": 6566,
      "Ġngolisitseng": 6567,
      "ĠHolomo": 6568,
      "Ġsekehela": 6569,
      "Ġtekano": 6570,
      "ndation": 6571,
      "Ġbarekisi": 6572,
      "ster": 6573,
      "Ġpitso": 6574,
      "Ġqothisanang": 6575,
      "ĠUniver": 6576,
      "Ġmabenkeleng": 6577,
      "Ġoeleng": 6578,
      "Ġhlokeha": 6579,
      "ĠMasoleng": 6580,
      "Ġaparetsoe": 6581,
      "Ġliramo": 6582,
      "ĠMachache": 6583,
      "Ġlerabeng": 6584,
      "Ġananeloa": 6585,
      "Ġshoele": 6586,
      "Ġfepelang": 6587,
      "Ġpolasitiki": 6588,
      "ĠJubile": 6589,
      "Joalokaha": 6590,
      "Ġboulela": 6591,
      "Litlaleho": 6592,
      "ĠTÅ¡oeu": 6593,
      "Ġlichankana": 6594,
      "Lieutenant": 6595,
      "ĠMauritius": 6596,
      "Ġsetloaeling": 6597,
      "ĠFoundation": 6598,
      "erekhoere": 6599,
      "ĠOrlando": 6600,
      ".\"": 6601,
      "14": 6602,
      "80": 6603,
      "Ntlo": 6604,
      "NUL": 6605,
      "OA": 6606,
      "PLMC": 6607,
      "TC": 6608,
      "Ti": 6609,
      "ct": 6610,
      "ef": 6611,
      "mÃ¨": 6612,
      "roana": 6613,
      "sumane": 6614,
      "ulu": 6615,
      "wealth": 6616,
      "Ġemele": 6617,
      "lomi": 6618,
      "naheng": 6619,
      "Ġlekha": 6620,
      "Ġlemina": 6621,
      "Ġballi": 6622,
      "Ġbakriste": 6623,
      "Ġsoto": 6624,
      "Ġsefofane": 6625,
      "Ġsekotlo": 6626,
      "Ġlimathi": 6627,
      "Ġkanyeso": 6628,
      "tseho": 6629,
      "Ġmoeli": 6630,
      "Ġmohale": 6631,
      "bella": 6632,
      "kaling": 6633,
      "Ġhabeli": 6634,
      "Ġmaphe": 6635,
      "mose": 6636,
      "tana": 6637,
      "techni": 6638,
      "mantÅ¡o": 6639,
      "ĠMosebe": 6640,
      "ĠMotsoa": 6641,
      "ĠMokale": 6642,
      "ĠntÅ¡i": 6643,
      "rafu": 6644,
      "Ġimela": 6645,
      "Ġinoe": 6646,
      "Ġtlatsitsoe": 6647,
      "boha": 6648,
      "sity": 6649,
      "ĠLeqele": 6650,
      "potileng": 6651,
      "Ġnene": 6652,
      "Ġfelletse": 6653,
      "tlelo": 6654,
      "fala": 6655,
      "Motsamaisi": 6656,
      "Mokhahlelong": 6657,
      "llane": 6658,
      "Ġnahane": 6659,
      "ĠBasali": 6660,
      "ĠBatlokoa": 6661,
      "ĠPeo": 6662,
      "ĠSetsing": 6663,
      "Ġkhama": 6664,
      "Ġkhabane": 6665,
      "Ġkhaitseli": 6666,
      "Ġboithu": 6667,
      "binyane": 6668,
      "ĠRatau": 6669,
      "Mare": 6670,
      "Mafe": 6671,
      "Kantle": 6672,
      "Ġbusetsa": 6673,
      "ĠBoko": 6674,
      "ĠBotha": 6675,
      "millione": 6676,
      "Ġqosong": 6677,
      "Lipa": 6678,
      "Linare": 6679,
      "ĠRamoho": 6680,
      "ĠRantÅ¡o": 6681,
      "Ġpaneng": 6682,
      "fola": 6683,
      "nter": 6684,
      "Ġlinakong": 6685,
      "Ġraha": 6686,
      "Ġrafa": 6687,
      "Ġlikoloto": 6688,
      "Ġlipasa": 6689,
      "ĠItumeleng": 6690,
      "toang": 6691,
      "Ġlipompo": 6692,
      "Bochochisi": 6693,
      "ĠMekaling": 6694,
      "ĠKala": 6695,
      "Ġkeneloa": 6696,
      "Ġetselitseng": 6697,
      "ĠPhatÅ¡oane": 6698,
      "Ġlikhang": 6699,
      "Ġ2011": 6700,
      "Ġlebelong": 6701,
      "ĠPaseka": 6702,
      "Ġbaahisane": 6703,
      "ĠBenghali": 6704,
      "Ġchang": 6705,
      "Ġchakela": 6706,
      "Ġbillione": 6707,
      "ĠtÅ¡oaretse": 6708,
      "Ġhloailoe": 6709,
      "Ġthakhohile": 6710,
      "Ġjala": 6711,
      "Ġkhalemela": 6712,
      "shemane": 6713,
      "dia": 6714,
      "Ġliente": 6715,
      "ĠLinake": 6716,
      "Ġlitlhapi": 6717,
      "Ġmelamu": 6718,
      "Ġliterekere": 6719,
      "Ġ90": 6720,
      "ĠPoly": 6721,
      "Ġfeleng": 6722,
      "Ġphomola": 6723,
      "Ġboithutong": 6724,
      "ĠLCA": 6725,
      "ĠMalefane": 6726,
      "Ġsokolisa": 6727,
      "Ġmererong": 6728,
      "ĠMoabi": 6729,
      "Ġmehlape": 6730,
      "Ġhoek": 6731,
      "monwealth": 6732,
      "Ġmonyebe": 6733,
      "ĠMasilo": 6734,
      "Ġapara": 6735,
      "Ġtloaelehile": 6736,
      "Ġtataisang": 6737,
      "Sephetho": 6738,
      "Ġchechisa": 6739,
      "ĠFako": 6740,
      "ĠitÅ¡etleha": 6741,
      "Ġamohelehang": 6742,
      "Kahoo": 6743,
      "ĠOfisiri": 6744,
      "Ġmenyabu": 6745,
      "ĠlikhutÅ¡oane": 6746,
      "ĠSekolong": 6747,
      "Ġkhakoloa": 6748,
      "Ġthefula": 6749,
      "Ġmatsapa": 6750,
      "Ġmanolla": 6751,
      "Ġikoetli": 6752,
      "ĠMachai": 6753,
      "Ġlimetale": 6754,
      "Likhau": 6755,
      "Likhalala": 6756,
      "Ġnyahlatsa": 6757,
      "ĠMonese": 6758,
      "Ġmebarakeng": 6759,
      "Ġitlhokomela": 6760,
      "ĠMathomo": 6761,
      "Ġesaleng": 6762,
      "Ġtsetselela": 6763,
      "Ġmerusu": 6764,
      "Ġhoelehetsa": 6765,
      "Ġmekoalaba": 6766,
      "ĠtÅ¡etÅ¡etha": 6767,
      "Ġlitheohelang": 6768,
      "ĠUniversity": 6769,
      "technic": 6770,
      "ĠMokalekale": 6771,
      "ĠPolytechnic": 6772,
      "300": 6773,
      "45": 6774,
      "65": 6775,
      "EU": 6776,
      "Ntlha": 6777,
      "Si": 6778,
      "So": 6779,
      "ang": 6780,
      "ntsoeng": 6781,
      "phali": 6782,
      "ula": 6783,
      "yball": 6784,
      "yota": 6785,
      "Ġvo": 6786,
      "lemane": 6787,
      "labela": 6788,
      "land": 6789,
      "Ġeloa": 6790,
      "ĠletÅ¡ehali": 6791,
      "Ġbarali": 6792,
      "Ġbapisoa": 6793,
      "Ġlikara": 6794,
      "tsehi": 6795,
      "oaneng": 6796,
      "Ġahileng": 6797,
      "Ġahoe": 6798,
      "Ġalima": 6799,
      "Ġmohlolo": 6800,
      "bere": 6801,
      "ĠMpu": 6802,
      "kanya": 6803,
      "Ġhanyenyane": 6804,
      "Ġkeletso": 6805,
      "Ġkentsoe": 6806,
      "Ġketapele": 6807,
      "Ġreri": 6808,
      "ĠMonna": 6809,
      "ĠMotaung": 6810,
      "ĠMokiti": 6811,
      "tokelo": 6812,
      "Ġikoa": 6813,
      "Ġitoa": 6814,
      "Ġikhu": 6815,
      "Ġmekutu": 6816,
      "nyoko": 6817,
      "Ġhlabileng": 6818,
      "ĠLeli": 6819,
      "ĠLethole": 6820,
      "ĠMar": 6821,
      "ĠMana": 6822,
      "ĠMatha": 6823,
      "halinyane": 6824,
      "Sebo": 6825,
      "ĠToantÅ¡o": 6826,
      "Moru": 6827,
      "Mohato": 6828,
      "Ġhlone": 6829,
      "llatsa": 6830,
      "Ġloka": 6831,
      "Ġtea": 6832,
      "ĠtÅ¡epile": 6833,
      "lletsi": 6834,
      "lleyball": 6835,
      "Ġthunyetsa": 6836,
      "ĠBanana": 6837,
      "Ġkhot": 6838,
      "lue": 6839,
      "llotse": 6840,
      "Ġfamo": 6841,
      "Ġfalla": 6842,
      "ĠLika": 6843,
      "ĠLitsela": 6844,
      "ĠSephe": 6845,
      "ĠAF": 6846,
      "koaneng": 6847,
      "Ġtsohela": 6848,
      "ĠNd": 6849,
      "ĠNoko": 6850,
      "ĠNCC": 6851,
      "Ġbathong": 6852,
      "mpane": 6853,
      "halahala": 6854,
      "Ġmongolo": 6855,
      "Ġthusane": 6856,
      "Ġtlisetsa": 6857,
      "Ġlenaka": 6858,
      "Liko": 6859,
      "Liphuputso": 6860,
      "ĠRabo": 6861,
      "ĠRasheet": 6862,
      "Ġpate": 6863,
      "Ġpakaha": 6864,
      "Ġtsoaloa": 6865,
      "Ġfihletsoeng": 6866,
      "Ġlikhoqe": 6867,
      "Ġbapalloa": 6868,
      "Ġshebileng": 6869,
      "ĠHlokomela": 6870,
      "Ġlebota": 6871,
      "Ġlebollo": 6872,
      "Ġtlhahlobo": 6873,
      "Ġlipola": 6874,
      "Ġphahamisitse": 6875,
      "Bothe": 6876,
      "Bophelo": 6877,
      "Ġoohle": 6878,
      "Ġkhothalletsoa": 6879,
      "Ġqetetse": 6880,
      "chim": 6881,
      "ĠFi": 6882,
      "Ġkoetse": 6883,
      "Ġipapisa": 6884,
      "Ġsireletsoa": 6885,
      "Ġ43": 6886,
      "Ġ44": 6887,
      "Ġ49": 6888,
      "Ġlikarolong": 6889,
      "Ġphoko": 6890,
      "Ġkhutletse": 6891,
      "Ġkhethang": 6892,
      "Ġeteletseng": 6893,
      "Ġarabele": 6894,
      "Ġpepe": 6895,
      "ĠUFC": 6896,
      "ĠSoohle": 6897,
      "Ġfetisoa": 6898,
      "Ġhlahlobe": 6899,
      "ĠMphaki": 6900,
      "Ġbabatsa": 6901,
      "Ġbaballoa": 6902,
      "Ġatametse": 6903,
      "ĠTlhabollo": 6904,
      "Ġmaling": 6905,
      "Ġborarong": 6906,
      "ĠPokello": 6907,
      "Ġhlokomelang": 6908,
      "Ġpolokelo": 6909,
      "Ġkhotsofalla": 6910,
      "Ġfeletseng": 6911,
      "Ġmojahong": 6912,
      "keleli": 6913,
      "Ġngolisoa": 6914,
      "ĠToyota": 6915,
      "ĠZwa": 6916,
      "ĠTiheli": 6917,
      "Ġfositse": 6918,
      "Ġlithabeng": 6919,
      "Ġhlolehileng": 6920,
      "Ġleleka": 6921,
      "Ġtsotella": 6922,
      "Ġmabotho": 6923,
      "ĠSalemane": 6924,
      "Ġbulehileng": 6925,
      "tjomose": 6926,
      "Ġmolebeli": 6927,
      "Ġtloaelehang": 6928,
      "Ġtsosoloso": 6929,
      "ndowns": 6930,
      "babatsehi": 6931,
      "Ġbuella": 6932,
      "Ġlokollotse": 6933,
      "Ġmakhaolakhang": 6934,
      "Ġboiphetetso": 6935,
      "ĠSebothoane": 6936,
      "Ġmatsoai": 6937,
      "ĠStars": 6938,
      "Ġrekisoang": 6939,
      "Ġarohane": 6940,
      "Thepa": 6941,
      "Ġbohoatata": 6942,
      "Ġhokahanya": 6943,
      "ĠMachesetsa": 6944,
      "Mohokahanyi": 6945,
      "Ġeketsehile": 6946,
      "Nete": 6947,
      "Ġliphephetso": 6948,
      "Ġmaqalo": 6949,
      "Ġphamolela": 6950,
      "ĠTeyateyaneng": 6951,
      "ĠVeselin": 6952,
      "Ġtloaetseng": 6953,
      "Ġbolaoli": 6954,
      "Ġthoasa": 6955,
      "Ġikutloe": 6956,
      "Ġjareteng": 6957,
      "ĠMatÅ¡ekha": 6958,
      "Ġlikhoqetsane": 6959,
      "11": 6960,
      "27": 6961,
      "AC": 6962,
      "AD": 6963,
      "Ebile": 6964,
      "HO": 6965,
      "Lile": 6966,
      "LSRC": 6967,
      "Tso": 6968,
      "WASCO": 6969,
      "ise": 6970,
      "ons": 6971,
      "openg": 6972,
      "tt": 6973,
      "ur": 6974,
      "utloa": 6975,
      "wo": 6976,
      "Ãł": 6977,
      "Ġlle": 6978,
      "Ġllela": 6979,
      "lelong": 6980,
      "hanya": 6981,
      "lomong": 6982,
      "Ġlese": 6983,
      "Ġletle": 6984,
      "reste": 6985,
      "Ġseli": 6986,
      "Ġsetle": 6987,
      "Ġsenna": 6988,
      "Ġsetlamo": 6989,
      "Ġsentse": 6990,
      "ĠlitÅ¡a": 6991,
      "Ġliliba": 6992,
      "Ġlihella": 6993,
      "oad": 6994,
      "Ġbosebetsi": 6995,
      "Ġbokhu": 6996,
      "Ġmonko": 6997,
      "ĠMela": 6998,
      "ĠMISA": 6999,
      "Ġhamo": 7000,
      "Ġmatlotlo": 7001,
      "Ġoaka": 7002,
      "Ġsalletseng": 7003,
      "ĠLSRC": 7004,
      "ĠMolo": 7005,
      "ĠMoshe": 7006,
      "Ġnkoe": 7007,
      "Ġitela": 7008,
      "Ġisitsoe": 7009,
      "sili": 7010,
      "Ġmesong": 7011,
      "Ġmekete": 7012,
      "Ġhlako": 7013,
      "ĠLepo": 7014,
      "ĠLetlole": 7015,
      "ĠMadidilane": 7016,
      "ĠManyoko": 7017,
      "Mokhahlelo": 7018,
      "Moshanyana": 7019,
      "tiloe": 7020,
      "Ġbetla": 7021,
      "Ġbetere": 7022,
      "Ġhlomathi": 7023,
      "kiba": 7024,
      "Ġsebelletse": 7025,
      "Ġphephetso": 7026,
      "Ġkhongoana": 7027,
      "Ġkholise": 7028,
      "ĠPFD": 7029,
      "Haa": 7030,
      "ĠSetlo": 7031,
      "Ġkhanya": 7032,
      "Ġkhaola": 7033,
      "Lelapa": 7034,
      "Lenane": 7035,
      "ĠAi": 7036,
      "ĠAl": 7037,
      "Ġtsoma": 7038,
      "Ġboikhethe": 7039,
      "ĠNtsi": 7040,
      "ĠNtjelo": 7041,
      "belitse": 7042,
      "eana": 7043,
      "ĠRus": 7044,
      "ĠBosiu": 7045,
      "Bantu": 7046,
      "Ġphapha": 7047,
      "ĠRatjomose": 7048,
      "Ġlikhoerekhoere": 7049,
      "putsi": 7050,
      "Ġbolokela": 7051,
      "okothi": 7052,
      "ĠTÅ¡oana": 7053,
      "ĠHloa": 7054,
      "Ġiketa": 7055,
      "Ġiketela": 7056,
      "Ġtlhaselo": 7057,
      "ĠharÃ¡": 7058,
      "Ġlitorong": 7059,
      "Ġruileng": 7060,
      "Ġlikopano": 7061,
      "jeng": 7062,
      "Ġkhothaletso": 7063,
      "Ġketeke": 7064,
      "ĠtÅ¡oenyang": 7065,
      "Ġetsetse": 7066,
      "Ġetselitsoe": 7067,
      "Ġithukhubetsa": 7068,
      "Ġ2013": 7069,
      "Ġlokong": 7070,
      "Ġlokolisa": 7071,
      "Ġbolailoe": 7072,
      "Ġlikapeso": 7073,
      "ĠphumantÅ¡o": 7074,
      "ĠEU": 7075,
      "Metso": 7076,
      "Mekha": 7077,
      "Ġlikeletso": 7078,
      "Ġnyala": 7079,
      "Ġmoeta": 7080,
      "Ġ51": 7081,
      "Ġ57": 7082,
      "Ġhlahelletseng": 7083,
      "ĠTÅ¡eno": 7084,
      "ĠTÅ¡episo": 7085,
      "ĠMoeti": 7086,
      "ĠTaa": 7087,
      "Ġkenyeletsoa": 7088,
      "Ġiphelise": 7089,
      "Ġsehlabelo": 7090,
      "Ġsebelisitsoe": 7091,
      "ĠNew": 7092,
      "Ġitlhophile": 7093,
      "Ġngolla": 7094,
      "Ġhiroe": 7095,
      "ĠSundowns": 7096,
      "ĠPoso": 7097,
      "Ġngoan": 7098,
      "Ġhlalosetse": 7099,
      "Ġlihlomathiso": 7100,
      "Ġmilione": 7101,
      "Ġitefelle": 7102,
      "Ġmahosana": 7103,
      "Ġtjametseng": 7104,
      "ĠUNFPA": 7105,
      "Ġliboka": 7106,
      "ĠAmerica": 7107,
      "ĠThoi": 7108,
      "ĠThota": 7109,
      "Ġsireletsehileng": 7110,
      "Ġsetsebi": 7111,
      "Ġbalehela": 7112,
      "Ġpina": 7113,
      "Ġbelaetsang": 7114,
      "est": 7115,
      "Ġikholla": 7116,
      "Ġnolofalloe": 7117,
      "Ġhopoleng": 7118,
      "Ġntlafetse": 7119,
      "ĠLebakeng": 7120,
      "Ġmenyako": 7121,
      "ĠKolonyama": 7122,
      "raille": 7123,
      "Ġhokahana": 7124,
      "Ġsephethephethe": 7125,
      "bolai": 7126,
      "nkhoana": 7127,
      "Ġboipolelo": 7128,
      "Ġlitila": 7129,
      "Ġinkela": 7130,
      "Ġqholotsa": 7131,
      "Ġmolota": 7132,
      "ĠtÅ¡abehang": 7133,
      "Ġboitokisetso": 7134,
      "ĠLiphoto": 7135,
      "LEFA": 7136,
      "ĠLithoteng": 7137,
      "Ġboipaballo": 7138,
      "Ġatolosa": 7139,
      "ĠMaliehe": 7140,
      "Pejana": 7141,
      "Ketsahalong": 7142,
      "Ġkhumamela": 7143,
      "Ġkhaphatsehang": 7144,
      "Lebatooa": 7145,
      "Ġbaholisi": 7146,
      "ĠMokitimi": 7147,
      "Ġboikhethelo": 7148,
      "63": 7149,
      "800": 7150,
      "Ana": 7151,
      "BS": 7152,
      "Bu": 7153,
      "KA": 7154,
      "OD": 7155,
      "WA": 7156,
      "as": 7157,
      "ebe": 7158,
      "etsong": 7159,
      "ekiso": 7160,
      "ila": 7161,
      "itsoe": 7162,
      "nnoe": 7163,
      "ofo": 7164,
      "onyana": 7165,
      "ske": 7166,
      "uri": 7167,
      "uoeng": 7168,
      "lea": 7169,
      "lami": 7170,
      "Ġene": 7171,
      "hams": 7172,
      "Ġhofi": 7173,
      "Ġholisoa": 7174,
      "Ġlehe": 7175,
      "Ġlerumo": 7176,
      "Ġlekunutu": 7177,
      "Ġbali": 7178,
      "Ġbanyane": 7179,
      "Ġseha": 7180,
      "Ġsetulo": 7181,
      "Ġlili": 7182,
      "Ġlibetsa": 7183,
      "oahola": 7184,
      "Ġbomong": 7185,
      "Ġbotlotlehi": 7186,
      "Ġbotseteli": 7187,
      "Ġmolisana": 7188,
      "Ġmolumo": 7189,
      "Ġmolangoana": 7190,
      "Ġeare": 7191,
      "nehelo": 7192,
      "banta": 7193,
      "beth": 7194,
      "ĠMpa": 7195,
      "Ġhanela": 7196,
      "Ġhaptjoa": 7197,
      "Ġtsekisa": 7198,
      "mohi": 7199,
      "tan": 7200,
      "telli": 7201,
      "malla": 7202,
      "selitse": 7203,
      "ĠMong": 7204,
      "ĠMotso": 7205,
      "ĠMoea": 7206,
      "tlali": 7207,
      "tooana": 7208,
      "Ġino": 7209,
      "Ġisitse": 7210,
      "Ġinaha": 7211,
      "sione": 7212,
      "Ġmemo": 7213,
      "Ġmekholo": 7214,
      "Ġmechine": 7215,
      "roro": 7216,
      "Ġhlajoe": 7217,
      "ĠMasa": 7218,
      "ĠMato": 7219,
      "ĠMaki": 7220,
      "ĠMango": 7221,
      "ĠMahula": 7222,
      "pelang": 7223,
      "Setho": 7224,
      "ĠTB": 7225,
      "ĠTseka": 7226,
      "Mokeng": 7227,
      "Mokela": 7228,
      "Ġqea": 7229,
      "thabiseng": 7230,
      "Ġphekola": 7231,
      "ntÅ¡ebo": 7232,
      "Ġboeta": 7233,
      "ĠBank": 7234,
      "ĠPitseng": 7235,
      "ĠPhiri": 7236,
      "ĠPLMC": 7237,
      "Ġhaella": 7238,
      "chela": 7239,
      "ĠLikereke": 7240,
      "ĠSepi": 7241,
      "Ġkhabong": 7242,
      "Lena": 7243,
      "Lebelo": 7244,
      "Letlole": 7245,
      "ĠAmo": 7246,
      "ĠAngola": 7247,
      "Ġboinaha": 7248,
      "Ġthari": 7249,
      "ĠNkhahle": 7250,
      "Ġtlotli": 7251,
      "Mako": 7252,
      "Ġbusoa": 7253,
      "ĠBosotho": 7254,
      "Ġphahlo": 7255,
      "misoa": 7256,
      "Ġsitha": 7257,
      "ĠShu": 7258,
      "tlafatsa": 7259,
      "Ġtimetse": 7260,
      "Ġutsoe": 7261,
      "ĠRakuoane": 7262,
      "Ġpara": 7263,
      "ĠClub": 7264,
      "Ġfihletsoe": 7265,
      "nin": 7266,
      "koetliso": 7267,
      "Ġfumanehile": 7268,
      "thiloe": 7269,
      "Ġhlokomeli": 7270,
      "khoane": 7271,
      "Ġlitsebe": 7272,
      "Ġrutoe": 7273,
      "Ġhlahisoang": 7274,
      "Ġkhahlamelo": 7275,
      "Bohlo": 7276,
      "Ġkhothale": 7277,
      "ĠPhakoe": 7278,
      "Ġloanne": 7279,
      "Ġlipelong": 7280,
      "Ġamohelang": 7281,
      "noang": 7282,
      "wat": 7283,
      "Ġboikarabelo": 7284,
      "Ġmoholoane": 7285,
      "ĠEa": 7286,
      "Ġchebelo": 7287,
      "Ġchelate": 7288,
      "Ġmoeti": 7289,
      "Ġmohoma": 7290,
      "Ġ59": 7291,
      "ĠPar": 7292,
      "Ġlitekong": 7293,
      "Ġetelletsoeng": 7294,
      "ĠTaung": 7295,
      "ust": 7296,
      "thefatsi": 7297,
      "Ġthakhotsoe": 7298,
      "Ġjara": 7299,
      "selitsoeng": 7300,
      "Ġbolokang": 7301,
      "Ġkahohle": 7302,
      "Ġhlekefelitsoeng": 7303,
      "Ġ02": 7304,
      "Ġ65": 7305,
      "Ġitlhoma": 7306,
      "Ġlehloeo": 7307,
      "Ġitlhatlho": 7308,
      "Ġitlhahisa": 7309,
      "Ġmahae": 7310,
      "Ġkenngoe": 7311,
      "Ġabetse": 7312,
      "ĠPontÅ¡o": 7313,
      "Ġlikhoeling": 7314,
      "Ġshaptjoa": 7315,
      "ĠMalea": 7316,
      "hamphaning": 7317,
      "ĠRabale": 7318,
      "Ġiphelisang": 7319,
      "ĠKing": 7320,
      "ĠMokone": 7321,
      "ndard": 7322,
      "kitlane": 7323,
      "Ġtsitla": 7324,
      "Ġtsitsipa": 7325,
      "Ġkoetlisoa": 7326,
      "Ġlefshoang": 7327,
      "ĠMohlomphehi": 7328,
      "TÅ¡epo": 7329,
      "TÅ¡ebetso": 7330,
      "Ġbuletsoe": 7331,
      "Ġtsosollo": 7332,
      "Ġqhau": 7333,
      "ĠPhooko": 7334,
      "Ġmongolisi": 7335,
      "Pod": 7336,
      "Potso": 7337,
      "Ġfetele": 7338,
      "ĠSeboche": 7339,
      "ĠStandard": 7340,
      "ĠKolobe": 7341,
      "ĠMosisili": 7342,
      "ĠTsiki": 7343,
      "Ġbahlomphehi": 7344,
      "ĠMukwa": 7345,
      "ĠCommonwealth": 7346,
      "ĠLNDC": 7347,
      "ĠBoitumelo": 7348,
      "Ġlokolohileng": 7349,
      "ĠTlohang": 7350,
      "Ġlikhothalletso": 7351,
      "Ġselakha": 7352,
      "Ġ1966": 7353,
      "ĠLebitsa": 7354,
      "Ġmakoloane": 7355,
      "Ġanyesa": 7356,
      "moshareng": 7357,
      "ĠRasekoai": 7358,
      "ĠMotlale": 7359,
      "Lehlatsipa": 7360,
      "Ġfihlileng": 7361,
      "Ġmatsebetsebe": 7362,
      "ĠRatÅ¡ita": 7363,
      "ĠMangaung": 7364,
      "Major": 7365,
      "mphutha": 7366,
      "Ġmakhulong": 7367,
      "ĠSenqu": 7368,
      "ĠAbrahams": 7369,
      "Ġlitloaelo": 7370,
      "ĠNtlaloe": 7371,
      "ĠPeople": 7372,
      "ĠRamoholi": 7373,
      "Ġmenyabuketso": 7374,
      "Soohle": 7375,
      "ĠLelingoana": 7376,
      "ĠSetlojoane": 7377,
      "ĠTaasoane": 7378,
      "sketball": 7379,
      ",\",": 7380,
      "CH": 7381,
      "Mata": 7382,
      "OL": 7383,
      "Pi": 7384,
      "TDC": 7385,
      "anong": 7386,
      "cy": 7387,
      "du": 7388,
      "enya": 7389,
      "krai": 7390,
      "Ġlli": 7391,
      "haleng": 7392,
      "lome": 7393,
      "lohile": 7394,
      "Ġletsa": 7395,
      "Ġletlalo": 7396,
      "Ġbanneng": 7397,
      "Ġbabolai": 7398,
      "Ġsee": 7399,
      "Ġsero": 7400,
      "ĠsetÅ¡oa": 7401,
      "Ġkanna": 7402,
      "Ġkabang": 7403,
      "Ġbose": 7404,
      "Ġboja": 7405,
      "Ġbotona": 7406,
      "Ġahiloeng": 7407,
      "Ġmosi": 7408,
      "patso": 7409,
      "kamelo": 7410,
      "Ġhale": 7411,
      "Ġhahla": 7412,
      "Ġrerileng": 7413,
      "soleng": 7414,
      "Ġmafumahali": 7415,
      "Ġmapu": 7416,
      "melloa": 7417,
      "teloa": 7418,
      "hlohonolo": 7419,
      "hlomphehi": 7420,
      "Ġlahlile": 7421,
      "Ġnoang": 7422,
      "Ġipi": 7423,
      "Ġmere": 7424,
      "Ġmeqo": 7425,
      "Ġmelele": 7426,
      "roeng": 7427,
      "ross": 7428,
      "ĠLei": 7429,
      "ĠLebu": 7430,
      "ĠLepeli": 7431,
      "ĠMare": 7432,
      "ĠMaoto": 7433,
      "Ġnelehe": 7434,
      "petlele": 7435,
      "fato": 7436,
      "Sesosa": 7437,
      "ris": 7438,
      "Moha": 7439,
      "Mokho": 7440,
      "Ġqalo": 7441,
      "Ġbehoe": 7442,
      "Ġhlohle": 7443,
      "kisitsoe": 7444,
      "khane": 7445,
      "Ġphelele": 7446,
      "tsoaki": 7447,
      "Ġlokisetsoa": 7448,
      "ntÅ¡oa": 7449,
      "Ġtebe": 7450,
      "Ġtekoa": 7451,
      "Ġtekong": 7452,
      "ĠtÅ¡etse": 7453,
      "thethefatsi": 7454,
      "Ġkolla": 7455,
      "Ġkhone": 7456,
      "Ġkhoeleng": 7457,
      "luoe": 7458,
      "lungoa": 7459,
      "ĠPaba": 7460,
      "Ġfata": 7461,
      "feta": 7462,
      "Ġhaelloa": 7463,
      "ĠLino": 7464,
      "ĠLitÅ¡epe": 7465,
      "ĠLipuisano": 7466,
      "ĠSela": 7467,
      "ĠSefo": 7468,
      "ĠSeabata": 7469,
      "Ġkhah": 7470,
      "Ġkhaba": 7471,
      "Ġkhase": 7472,
      "Ġkhathala": 7473,
      "Leano": 7474,
      "LetÅ¡olo": 7475,
      "ĠAg": 7476,
      "ĠNtulo": 7477,
      "Ġsupisa": 7478,
      "Ġthehoe": 7479,
      "Ġtanka": 7480,
      "Mapa": 7481,
      "Mafapha": 7482,
      "ĠBole": 7483,
      "Ġsitoe": 7484,
      "ĠSR": 7485,
      "Ġunneng": 7486,
      "ĠtÅ¡oarisa": 7487,
      "Libaka": 7488,
      "Ġbolepi": 7489,
      "ĠRanta": 7490,
      "fone": 7491,
      "putsong": 7492,
      "Ġlikolobe": 7493,
      "Ġkhubu": 7494,
      "ĠtÅ¡ehelitseng": 7495,
      "Ġlipalami": 7496,
      "ĠHi": 7497,
      "Ġntlafatsoe": 7498,
      "Ġntlafalitsoeng": 7499,
      "Ġrutile": 7500,
      "Ġlehano": 7501,
      "Ġlikokoana": 7502,
      "Ġkenyellelitse": 7503,
      "ĠJona": 7504,
      "ĠKananelo": 7505,
      "Ġqetelletseng": 7506,
      "Ġkenelletse": 7507,
      "Ġetsetsang": 7508,
      "ĠQo": 7509,
      "Ġlekang": 7510,
      "Ġelellisoa": 7511,
      "shasha": 7512,
      "Ġamohetseng": 7513,
      "ĠGar": 7514,
      "Ġlikhaello": 7515,
      "ĠKotelo": 7516,
      "wanda": 7517,
      "Ġmaipiletso": 7518,
      "Ġbolailoeng": 7519,
      "Ġutloela": 7520,
      "ĠMofokeng": 7521,
      "Ġphoofo": 7522,
      "Ġmohoalo": 7523,
      "Ġmohlang": 7524,
      "Ġmohlape": 7525,
      "Ġetelletse": 7526,
      "ĠBenin": 7527,
      "ĠUkrai": 7528,
      "ĠRamakong": 7529,
      "ĠRamabanta": 7530,
      "Ġjarete": 7531,
      "ĠHlaele": 7532,
      "ĠHlalefa": 7533,
      "Ġikoko": 7534,
      "ĠTÅ¡ita": 7535,
      "Ġsenyehileng": 7536,
      "Ġtheolelo": 7537,
      "Ġketekang": 7538,
      "ĠtÅ¡oaroang": 7539,
      "Ġ09": 7540,
      "Ġlakalletsa": 7541,
      "ĠNaleli": 7542,
      "Ġmasiba": 7543,
      "Ġtataisoa": 7544,
      "Komisi": 7545,
      "Ġaroloa": 7546,
      "Ġmahlasipa": 7547,
      "Ġkhutlisoa": 7548,
      "Ġkhutlisetsoa": 7549,
      "ĠMohapinyane": 7550,
      "Ġkhotsofale": 7551,
      "Ġ2005": 7552,
      "Ġhlalosoang": 7553,
      "Ġleqemeng": 7554,
      "Ġbehella": 7555,
      "Ġlemohileng": 7556,
      "Ġkhakhathoa": 7557,
      "gawat": 7558,
      "Ġliatla": 7559,
      "ĠPetlane": 7560,
      "Ġkoetlisang": 7561,
      "TÅ¡ebe": 7562,
      "Ġimolla": 7563,
      "Ġhulanya": 7564,
      "ĠLehloenya": 7565,
      "ĠUniPod": 7566,
      "ĠtÅ¡epetse": 7567,
      "tÅ¡oeneng": 7568,
      "Ġchechisoa": 7569,
      "Ġsebelletsang": 7570,
      "Ġithokhu": 7571,
      "ĠMojakhomo": 7572,
      "Ġtotobalitse": 7573,
      "Khoeli": 7574,
      "ĠPolihali": 7575,
      "ĠmatÅ¡olong": 7576,
      "ĠMosito": 7577,
      "ĠMosimoli": 7578,
      "ĠThinyane": 7579,
      "ĠTÅ¡ooana": 7580,
      "ĠJapane": 7581,
      "Ġbebofaletsa": 7582,
      "ĠNtao": 7583,
      "ĠNtate": 7584,
      "Ġikamahanye": 7585,
      "Ġlifoto": 7586,
      "ĠMacheli": 7587,
      "Ġfereha": 7588,
      "ĠLebeko": 7589,
      "ĠRaliko": 7590,
      "Ġliteropong": 7591,
      "ĠMokhesi": 7592,
      "ĠKoali": 7593,
      "ĠVictor": 7594,
      "ĠThuso": 7595,
      "Ġthabisitse": 7596,
      "Ġshasharile": 7597,
      "Ġkaroloana": 7598,
      "nsetere": 7599,
      "Ġlehoja": 7600,
      "rekabishopo": 7601,
      "hatholike": 7602,
      "Likhethong": 7603,
      "ĠHaleokoe": 7604,
      "Ketekelo": 7605,
      "ĠTelecom": 7606,
      "Baahi": 7607,
      "Ġtletleba": 7608,
      "Ġinehela": 7609,
      "ĠSemena": 7610,
      "Ntate": 7611,
      "Ġqhekanyetsa": 7612,
      "Ġmeferefere": 7613,
      "ĠJubilee": 7614,
      "Lipatlisiso": 7615,
      "ĠMputi": 7616,
      "ĠAFCON": 7617,
      "utloali": 7618,
      "ĠManyokole": 7619,
      "ĠUkraine": 7620,
      "ĠRamakongoana": 7621,
      "ĠHlalefang": 7622,
      "gawatts": 7623,
      "%).": 7624,
      "12": 7625,
      "36": 7626,
      "3000": 7627,
      "?\"": 7628,
      "Hlo": 7629,
      "Mu": 7630,
      "MCC": 7631,
      "Ntho": 7632,
      "Palo": 7633,
      "Pela": 7634,
      "RFP": 7635,
      "RSL": 7636,
      "SC": 7637,
      "iti": 7638,
      "km": 7639,
      "mg": 7640,
      "nkoe": 7641,
      "pment": 7642,
      "tj": 7643,
      "ugh": 7644,
      "velo": 7645,
      "Ġ00": 7646,
      "Ġroala": 7647,
      "Ġeso": 7648,
      "Ġefela": 7649,
      "hapa": 7650,
      "Ġhohelang": 7651,
      "Ġleto": 7652,
      "Ġlebane": 7653,
      "Ġlefo": 7654,
      "Ġlebela": 7655,
      "Ġbaha": 7656,
      "Ġbahahlaoli": 7657,
      "remeli": 7658,
      "Ġtjotjo": 7659,
      "Ġseki": 7660,
      "Ġsenngoa": 7661,
      "Ġsekisetsoa": 7662,
      "Ġliolompiki": 7663,
      "Ġkalima": 7664,
      "Ġbope": 7665,
      "Ġmokhachane": 7666,
      "Ġmoriana": 7667,
      "Ġmokoloko": 7668,
      "hello": 7669,
      "Ġoetse": 7670,
      "beletsa": 7671,
      "koele": 7672,
      "Ġmamele": 7673,
      "Ġmatjo": 7674,
      "Ġmanyalo": 7675,
      "mero": 7676,
      "Ġpoela": 7677,
      "hlana": 7678,
      "kenana": 7679,
      "mas": 7680,
      "Ġsalang": 7681,
      "Ġsallang": 7682,
      "ĠMofe": 7683,
      "ĠMofi": 7684,
      "ĠMosuoe": 7685,
      "ĠMobishopo": 7686,
      "ĠMoAfrika": 7687,
      "Ġiche": 7688,
      "simo": 7689,
      "Ġmetje": 7690,
      "ron": 7691,
      "rothole": 7692,
      "Ġhlabela": 7693,
      "ĠLekola": 7694,
      "ĠLekitla": 7695,
      "port": 7696,
      "ĠMakho": 7697,
      "ĠMaku": 7698,
      "Ġnepe": 7699,
      "hip": 7700,
      "ĠBona": 7701,
      "fatsoa": 7702,
      "Setereke": 7703,
      "Sebabatso": 7704,
      "Moke": 7705,
      "Mora": 7706,
      "Mokhoa": 7707,
      "tiba": 7708,
      "tiloeng": 7709,
      "thang": 7710,
      "Ġhlotsoeng": 7711,
      "Ġhlollang": 7712,
      "Ġhlomp": 7713,
      "Ġloho": 7714,
      "Ġlopolla": 7715,
      "nyatsi": 7716,
      "ther": 7717,
      "Ġkokelong": 7718,
      "llelitseng": 7719,
      "Ġnahanang": 7720,
      "Ġthupa": 7721,
      "Ġkholang": 7722,
      "Ġkhokahanyo": 7723,
      "lloeng": 7724,
      "ĠLibe": 7725,
      "ĠLikha": 7726,
      "ĠLitÅ¡ebeletso": 7727,
      "ĠLikeleli": 7728,
      "Hantle": 7729,
      "ĠSesi": 7730,
      "ĠServi": 7731,
      "Ġkhanyetso": 7732,
      "Ġkharafu": 7733,
      "Lefa": 7734,
      "Leoto": 7735,
      "ĠAU": 7736,
      "ĠAust": 7737,
      "ĠNke": 7738,
      "ĠNtsu": 7739,
      "Ġthekong": 7740,
      "ĠRE": 7741,
      "ĠRwanda": 7742,
      "Mai": 7743,
      "Mapo": 7744,
      "ping": 7745,
      "Ġlengoe": 7746,
      "Ġmongoaha": 7747,
      "Kaholimo": 7748,
      "Ġbuloe": 7749,
      "Ġbuleha": 7750,
      "Ġ1000": 7751,
      "ĠBosebeletsi": 7752,
      "ĠBohahlaoli": 7753,
      "Ġphate": 7754,
      "Ġkopanngoa": 7755,
      "Ġroka": 7756,
      "Liq": 7757,
      "Ġboleloang": 7758,
      "Ġpakile": 7759,
      "Ġpoli": 7760,
      "Ġqepha": 7761,
      "filoe": 7762,
      "tuoa": 7763,
      "Ġqaleho": 7764,
      "Ġqabana": 7765,
      "Ġlinala": 7766,
      "Ġhlokahetseng": 7767,
      "Ġsengata": 7768,
      "Ġbolokiloe": 7769,
      "ĠtÅ¡ehetsana": 7770,
      "Ġbapallang": 7771,
      "ĠHle": 7772,
      "burg": 7773,
      "Ġfupu": 7774,
      "ĠDo": 7775,
      "tlhobo": 7776,
      "Ġkhothatsang": 7777,
      "Ġnepahale": 7778,
      "ĠKao": 7779,
      "Ġliqho": 7780,
      "ĠtÅ¡oeroeng": 7781,
      "Ġetsetsoe": 7782,
      "ĠFokothi": 7783,
      "Ġamoha": 7784,
      "Ġlikhathatso": 7785,
      "ĠTonakholo": 7786,
      "ĠKoranta": 7787,
      "Ġbolaileng": 7788,
      "Ġlefuba": 7789,
      "Ġbaamani": 7790,
      "Metse": 7791,
      "Metsi": 7792,
      "Mesebetsi": 7793,
      "Ġliketsong": 7794,
      "Ġlitlhophiso": 7795,
      "ĠPaul": 7796,
      "Ġliteboho": 7797,
      "Ġpen": 7798,
      "ĠBesele": 7799,
      "Ġbina": 7800,
      "Ġhloahloeng": 7801,
      "Ġbopaking": 7802,
      "ĠTefo": 7803,
      "Ġpuong": 7804,
      "Ġlithethefatsing": 7805,
      "melloe": 7806,
      "ĠTÅ¡itso": 7807,
      "Ġsehlaba": 7808,
      "Ġtheohetse": 7809,
      "Ġatame": 7810,
      "Ġkhetheha": 7811,
      "Ġsitiloeng": 7812,
      "Ġtlalehiloe": 7813,
      "Ġlietsa": 7814,
      "Ġmoahisane": 7815,
      "Ġbolaeang": 7816,
      "Ġlefelloeng": 7817,
      "Ġpotlakisetsoa": 7818,
      "Ġbokaka": 7819,
      "ĠMahase": 7820,
      "Ġmahlomola": 7821,
      "ĠComoro": 7822,
      "Kopanong": 7823,
      "ĠbophatÅ¡oa": 7824,
      "wanazi": 7825,
      "ĠKenya": 7826,
      "Ġbarui": 7827,
      "Ġhulela": 7828,
      "Ġjela": 7829,
      "Ġitokisa": 7830,
      "ĠTieho": 7831,
      "ĠCamero": 7832,
      "Ġhakana": 7833,
      "ĠMatlali": 7834,
      "Ġborokhong": 7835,
      "Ġlithahasello": 7836,
      "Ġbahlabolli": 7837,
      "Ġlaole": 7838,
      "Ġhanana": 7839,
      "Ġitlamme": 7840,
      "Ġjeoa": 7841,
      "rgent": 7842,
      "Ġmaoba": 7843,
      "Malebohang": 7844,
      "Ġlibeha": 7845,
      "Ġleotong": 7846,
      "Ġsefubeng": 7847,
      "qusuoa": 7848,
      "Ġikhopo": 7849,
      "Ġikhopola": 7850,
      "ĠUnion": 7851,
      "Ġrekisetsang": 7852,
      "ĠMorokole": 7853,
      "ĠtÅ¡epetsoe": 7854,
      "Ġmathateng": 7855,
      "ĠJoha": 7856,
      "Ġpharalletseng": 7857,
      "Ġngala": 7858,
      "Ġlikhakanyong": 7859,
      "Ġmeokho": 7860,
      "ĠTsama": 7861,
      "Ġhlokomelehile": 7862,
      "Tlhahiso": 7863,
      "Ġnyahamisa": 7864,
      "2024": 7865,
      "Ġboitlhompho": 7866,
      "Ġlebitleng": 7867,
      "Ġphatlallalitse": 7868,
      "ĠLikotsi": 7869,
      "bishop": 7870,
      "Ġphethahatse": 7871,
      "Ġmerafong": 7872,
      "ement": 7873,
      "Ġmahlakoreng": 7874,
      "ĠLNOC": 7875,
      "ĠLNBS": 7876,
      "ĠMohokahanyi": 7877,
      "Ġhatikela": 7878,
      "Ġfokotsehile": 7879,
      "cis": 7880,
      "ĠtÅ¡oarisane": 7881,
      "ĠMarabe": 7882,
      "Manthabiseng": 7883,
      "Ġlimilione": 7884,
      "ĠSefali": 7885,
      "Ġ1986": 7886,
      "labata": 7887,
      "ĠMoiloa": 7888,
      "ĠDevelo": 7889,
      "ĠMorapeli": 7890,
      "Ġseterateng": 7891,
      "kunyata": 7892,
      "hatholiki": 7893,
      "ĠMakoetje": 7894,
      "ĠLitÅ¡itso": 7895,
      "Tlhekefetso": 7896,
      "Ġfuralla": 7897,
      "ĠTrump": 7898,
      "Ġlingoloa": 7899,
      "ĠAdv": 7900,
      "ĠFree": 7901,
      "Ġsetulong": 7902,
      "Ġlikarabo": 7903,
      "ĠMelato": 7904,
      "ĠRussia": 7905,
      "ĠHloahloeng": 7906,
      "sioner": 7907,
      "ĠMakibinyane": 7908,
      "ĠMukwashi": 7909,
      "Ġmaputulo": 7910,
      "Ġmerebele": 7911,
      "Ġmohoalotso": 7912,
      "Pelaelo": 7913,
      "Ġmatjoing": 7914,
      "Ġpoelano": 7915,
      "Ġmetjeko": 7916,
      "ĠComoros": 7917,
      "ĠCameroon": 7918,
      "ĠDevelopment": 7919,
      "21": 7920,
      "22": 7921,
      "38": 7922,
      "700": 7923,
      "ABC": 7924,
      "ESCO": 7925,
      "NO": 7926,
      "Nka": 7927,
      "RA": 7928,
      "ars": 7929,
      "ffa": 7930,
      "ntso": 7931,
      "nki": 7932,
      "osi": 7933,
      "vu": 7934,
      "yo": 7935,
      "Ġts": 7936,
      "homphutha": 7937,
      "Ġepa": 7938,
      "Ġebileng": 7939,
      "lic": 7940,
      "lime": 7941,
      "Ġlesa": 7942,
      "Ġbaloa": 7943,
      "Ġlila": 7944,
      "Ġliche": 7945,
      "Ġlifofane": 7946,
      "Ġlikoetliso": 7947,
      "Ġkabong": 7948,
      "tsehile": 7949,
      "Ġboq": 7950,
      "Ġbotha": 7951,
      "Ġbokuli": 7952,
      "Ġakhang": 7953,
      "Ġmokhothaletsuoa": 7954,
      "Ġmocheng": 7955,
      "tsanyane": 7956,
      "heleng": 7957,
      "belong": 7958,
      "ĠMkh": 7959,
      "Ġhatisa": 7960,
      "Ġrene": 7961,
      "Ġrekoe": 7962,
      "Ġmase": 7963,
      "ĠmatÅ¡oe": 7964,
      "Ġmatlung": 7965,
      "mente": 7966,
      "mameli": 7967,
      "mampoli": 7968,
      "matlafatsi": 7969,
      "setere": 7970,
      "sethunya": 7971,
      "ĠLu": 7972,
      "ĠMolete": 7973,
      "ĠMosha": 7974,
      "ĠMoye": 7975,
      "ĠMokhutlisi": 7976,
      "raliphatlalatso": 7977,
      "toko": 7978,
      "Ġipolesa": 7979,
      "Ġitjoe": 7980,
      "boshe": 7981,
      "Ġmeea": 7982,
      "Ġmenaha": 7983,
      "Ġmegawatts": 7984,
      "ĠLeqha": 7985,
      "ĠLesia": 7986,
      "pone": 7987,
      "ĠMahle": 7988,
      "Ġnepile": 7989,
      "Ġfelang": 7990,
      "Ġfellang": 7991,
      "phatla": 7992,
      "phathi": 7993,
      "per": 7994,
      "oetsi": 7995,
      "rilla": 7996,
      "Moko": 7997,
      "Moja": 7998,
      "Ġhloela": 7999,
      "Ġpheha": 8000,
      "Ġphephethe": 8001,
      "Ġtekela": 8002,
      "phen": 8003,
      "thebe": 8004,
      "lleha": 8005,
      "ĠBaba": 8006,
      "ĠBataung": 8007,
      "Ġkhonang": 8008,
      "nyetsoa": 8009,
      "ĠbontÅ¡oa": 8010,
      "ĠSefu": 8011,
      "ĠSeutloali": 8012,
      "Ġkhan": 8013,
      "ĠAsso": 8014,
      "ĠAtang": 8015,
      "onald": 8016,
      "Ġtsosoa": 8017,
      "Ġthaka": 8018,
      "Ġthahase": 8019,
      "Ġthabelang": 8020,
      "Ġthetsa": 8021,
      "MatÅ¡e": 8022,
      "Matlho": 8023,
      "Ġsebetsane": 8024,
      "ĠBonga": 8025,
      "ĠBoys": 8026,
      "loes": 8027,
      "kunyane": 8028,
      "Bahlanka": 8029,
      "Ġtlhoekiso": 8030,
      "Ġroha": 8031,
      "Ġtingoa": 8032,
      "Ġcheleteng": 8033,
      "Lita": 8034,
      "Lipalo": 8035,
      "Litlolo": 8036,
      "Ġpakang": 8037,
      "hoanto": 8038,
      "ĠCross": 8039,
      "fika": 8040,
      "fini": 8041,
      "fishi": 8042,
      "Ġkhelo": 8043,
      "lletsang": 8044,
      "Ġrapa": 8045,
      "Ġramo": 8046,
      "tloano": 8047,
      "tloaneng": 8048,
      "Ġkhutso": 8049,
      "Ġlipale": 8050,
      "tÅ¡oaeli": 8051,
      "tlalatso": 8052,
      "Ġthoba": 8053,
      "ĠDIFA": 8054,
      "Ġlipolo": 8055,
      "Ġhlahisitsoe": 8056,
      "Boraro": 8057,
      "Ġfetoloe": 8058,
      "Ġbobeling": 8059,
      "ĠKanono": 8060,
      "ĠtÅ¡oela": 8061,
      "nyora": 8062,
      "ĠFer": 8063,
      "ĠFran": 8064,
      "ĠKotsoane": 8065,
      "Ġmafubelu": 8066,
      "Ġtulong": 8067,
      "anela": 8068,
      "mpol": 8069,
      "Mekhoa": 8070,
      "hekefetsong": 8071,
      "Ġchess": 8072,
      "Ġhloeka": 8073,
      "Ġmohopeng": 8074,
      "ĠtÅ¡ireletsa": 8075,
      "ĠPakiso": 8076,
      "Ġbosholung": 8077,
      "ĠPheello": 8078,
      "Ġliteraka": 8079,
      "Ġarajoa": 8080,
      "Puong": 8081,
      "ĠTampane": 8082,
      "Ġnonyana": 8083,
      "ĠRamarothole": 8084,
      "Ġhloauoa": 8085,
      "Ġhlahlobela": 8086,
      "Ġipheto": 8087,
      "ĠTÅ¡ilo": 8088,
      "ĠBuffa": 8089,
      "Ġipabolang": 8090,
      "ĠWest": 8091,
      "Ġhlekefelitsoe": 8092,
      "Ġkomiting": 8093,
      "Ġ08": 8094,
      "Ġtlalehile": 8095,
      "Ġliehile": 8096,
      "Ġlifefo": 8097,
      "Ġitlhalosa": 8098,
      "Ġpotlake": 8099,
      "Ġmahahapa": 8100,
      "Ġtlatseletsa": 8101,
      "Ġnyolohe": 8102,
      "Kamora": 8103,
      "Ġlatella": 8104,
      "Ġkhotsofatse": 8105,
      "Ġkhotsofatseng": 8106,
      "ĠQala": 8107,
      "Ġngolisitse": 8108,
      "ĠLeboea": 8109,
      "Ġhulang": 8110,
      "muoa": 8111,
      "Ġfole": 8112,
      "Ġforomo": 8113,
      "ĠMokotjo": 8114,
      "mphete": 8115,
      "Ġanetse": 8116,
      "Ġbahlaba": 8117,
      "ĠLehana": 8118,
      "ĠLehata": 8119,
      "ĠtÅ¡oenyeha": 8120,
      "Ġmehlaleng": 8121,
      "Ġpholoho": 8122,
      "ĠPeter": 8123,
      "ĠPeshoane": 8124,
      "Ġhoebisa": 8125,
      "Ġhoebang": 8126,
      "Ġikopanye": 8127,
      "ralia": 8128,
      "Ġqhaloa": 8129,
      "Ġphethoho": 8130,
      "Ġballoang": 8131,
      "Ġhlophisa": 8132,
      "Ġkalaneng": 8133,
      "kaubere": 8134,
      "Ġmathela": 8135,
      "Ġiphapanyetsa": 8136,
      "Ġqheke": 8137,
      "ĠLiphapang": 8138,
      "Ġmatsoalo": 8139,
      "Monamoli": 8140,
      "ĠState": 8141,
      "ĠStadium": 8142,
      "Thabo": 8143,
      "Ġhokeloe": 8144,
      "Ġmehloling": 8145,
      "PhatÅ¡oa": 8146,
      "Ġsoabile": 8147,
      "ĠCommis": 8148,
      "ĠRalebitso": 8149,
      "Ġbohobe": 8150,
      "Ġipehetseng": 8151,
      "ĠMabita": 8152,
      "ĠMakhoakhoa": 8153,
      "Phetoho": 8154,
      "Ġboipelaetsong": 8155,
      "ĠMotinyane": 8156,
      "Ġboithaopo": 8157,
      "Ġmeeling": 8158,
      "Mohoo": 8159,
      "ĠTebellong": 8160,
      "ĠSport": 8161,
      "Ġleliboho": 8162,
      "ĠKoalabata": 8163,
      "Ġlitikoloho": 8164,
      "Ġsusumetsoa": 8165,
      "Ġsusumetsang": 8166,
      "Joaloka": 8167,
      "Ġitukisetsa": 8168,
      "ĠtÅ¡oaetsanang": 8169,
      "Makatleho": 8170,
      "Mohlomong": 8171,
      "ĠLebina": 8172,
      "ĠLisema": 8173,
      "Ġbakelang": 8174,
      "Makhotso": 8175,
      "ĠJoachim": 8176,
      "Ġarabeloa": 8177,
      "Tumellano": 8178,
      "ĠMotÅ¡eremeli": 8179,
      "Ġlokelehang": 8180,
      "Ġkhobokane": 8181,
      "LCA": 8182,
      "Ġutsoitse": 8183,
      "Ġngongoreho": 8184,
      "Maliepe": 8185,
      "ĠKhiro": 8186,
      "Ġfelehetsa": 8187,
      "Superintendent": 8188,
      "Ġitokisetse": 8189,
      "Ġbatlisisa": 8190,
      "Ġsenotlolo": 8191,
      "Molaoa": 8192,
      "GCS": 8193,
      "ĠLetete": 8194,
      "Ġhlobolisa": 8195,
      "Ġsimolla": 8196,
      "ĠSpears": 8197,
      "Thupelo": 8198,
      "Ġthelefishi": 8199,
      "Ġmabitla": 8200,
      "ĠSebapala": 8201,
      "ĠMosebetsane": 8202,
      "Ġinoesa": 8203,
      "ĠLikamano": 8204,
      "ĠSephetho": 8205,
      "Ġhofihlela": 8206,
      "Ġboinahano": 8207,
      "Ġtsitsipano": 8208,
      "Ġqhautsa": 8209,
      "ĠMaretlane": 8210,
      "ĠGarme": 8211,
      "ughty": 8212,
      "ĠAustralia": 8213,
      "Liqholotso": 8214,
      "Ġlietsahala": 8215,
      "NOKA": 8216,
      "ĠMoyeni": 8217,
      "ĠLeqhashasha": 8218,
      "rillas": 8219,
      "ĠAssocia": 8220,
      "ĠBuffaloes": 8221,
      "%,": 8222,
      "33": 8223,
      "70": 8224,
      "75": 8225,
      "AM": 8226,
      "AU": 8227,
      "Beng": 8228,
      "CU": 8229,
      "Eaba": 8230,
      "Ki": 8231,
      "Khe": 8232,
      "Koe": 8233,
      "Kolo": 8234,
      "Ntsie": 8235,
      "Ona": 8236,
      "Ruri": 8237,
      "epane": 8238,
      "hliso": 8239,
      "itu": 8240,
      "isetso": 8241,
      "khi": 8242,
      "nile": 8243,
      "skara": 8244,
      "Ġco": 8245,
      "lelloa": 8246,
      "labelang": 8247,
      "Ġemong": 8248,
      "haskara": 8249,
      "Ġholo": 8250,
      "Ġlemetseng": 8251,
      "Ġleshano": 8252,
      "Ġlenyora": 8253,
      "Ġbat": 8254,
      "Ġbakha": 8255,
      "Ġbapali": 8256,
      "Ġbachochisi": 8257,
      "Ġmp": 8258,
      "reli": 8259,
      "Ġsefe": 8260,
      "Ġsemathi": 8261,
      "Ġseroala": 8262,
      "Ġselia": 8263,
      "Ġlitl": 8264,
      "Ġkalo": 8265,
      "Ġkalimo": 8266,
      "Ġbolisa": 8267,
      "ĠmotÅ¡ehetsi": 8268,
      "Ġmoroho": 8269,
      "neral": 8270,
      "bakeng": 8271,
      "ĠMphu": 8272,
      "kamoso": 8273,
      "kobo": 8274,
      "koena": 8275,
      "Ġmana": 8276,
      "Ġmatse": 8277,
      "Ġmasoabi": 8278,
      "thon": 8279,
      "tali": 8280,
      "ketla": 8281,
      "sehang": 8282,
      "Ġnamane": 8283,
      "ĠMoso": 8284,
      "ĠMoche": 8285,
      "tlami": 8286,
      "Ġntsa": 8287,
      "Ġnthu": 8288,
      "Ġntja": 8289,
      "rade": 8290,
      "Ġitsoe": 8291,
      "bokoane": 8292,
      "hung": 8293,
      "simoli": 8294,
      "Ġmeke": 8295,
      "Ġmedale": 8296,
      "ĠManya": 8297,
      "ĠMakhe": 8298,
      "ĠMand": 8299,
      "ĠMarasi": 8300,
      "ĠBer": 8301,
      "ĠBhaskara": 8302,
      "Sekhahla": 8303,
      "riso": 8304,
      "risang": 8305,
      "Mole": 8306,
      "Mokete": 8307,
      "Mothehi": 8308,
      "tia": 8309,
      "Ġhlopha": 8310,
      "Ġhlokile": 8311,
      "Ġphetseng": 8312,
      "ntÅ¡eng": 8313,
      "Ġkob": 8314,
      "Ġkoptjoa": 8315,
      "lletsong": 8316,
      "ĠBatÅ¡oaruoa": 8317,
      "Ġkhole": 8318,
      "Ġkholla": 8319,
      "ĠPele": 8320,
      "ĠPresident": 8321,
      "Ġfalli": 8322,
      "ĠLiba": 8323,
      "ĠSebi": 8324,
      "ĠSeoli": 8325,
      "ĠSekete": 8326,
      "ĠSenyesemane": 8327,
      "Ġkhati": 8328,
      "Lekhetlo": 8329,
      "Lekhotleng": 8330,
      "ĠAr": 8331,
      "ĠKele": 8332,
      "ĠNcha": 8333,
      "ĠNtÅ¡a": 8334,
      "Ġtlolong": 8335,
      "Ġtlotlisa": 8336,
      "Make": 8337,
      "Mate": 8338,
      "Maja": 8339,
      "Malapa": 8340,
      "shop": 8341,
      "Ġbuoa": 8342,
      "kuku": 8343,
      "ĠShalane": 8344,
      "tlhare": 8345,
      "Ġqoqa": 8346,
      "Ġlingoli": 8347,
      "Ġtiile": 8348,
      "Ġutsu": 8349,
      "ĠtÅ¡oabo": 8350,
      "ĠtÅ¡oauoa": 8351,
      "Likhoebo": 8352,
      "LitÅ¡ebeletso": 8353,
      "ĠRafone": 8354,
      "Ġpatala": 8355,
      "pholetsa": 8356,
      "ĠHakane": 8357,
      "Ġphethele": 8358,
      "Ġqetileng": 8359,
      "setsano": 8360,
      "Ġratoang": 8361,
      "puleng": 8362,
      "Ġtsamaileng": 8363,
      "ĠkamorÃ¡": 8364,
      "Ġntlafalo": 8365,
      "Ġlebale": 8366,
      "Ġikemele": 8367,
      "shoetla": 8368,
      "Ġlebohe": 8369,
      "Ġlebollong": 8370,
      "Ġlitsebeng": 8371,
      "Ġputlama": 8372,
      "ĠDMA": 8373,
      "Ġkhotsofatsa": 8374,
      "Ġbaikiti": 8375,
      "ĠtÅ¡oetse": 8376,
      "Ġkenetse": 8377,
      "Ġlipeto": 8378,
      "Ġmolala": 8379,
      "Ġmolaoana": 8380,
      "ward": 8381,
      "Ġphethahetse": 8382,
      "Ġlitlatse": 8383,
      "Ġlahleha": 8384,
      "Ġphura": 8385,
      "Ġphoqa": 8386,
      "Ġphopholetsa": 8387,
      "Ġkhutlelang": 8388,
      "Ġmatlafala": 8389,
      "Ġmatlafalitse": 8390,
      "Ġnyaku": 8391,
      "Ġnyamella": 8392,
      "Ġchesoa": 8393,
      "Ġmoetsi": 8394,
      "Ġmohokahanyi": 8395,
      "ĠPasane": 8396,
      "Ġpeipi": 8397,
      "ngoaneng": 8398,
      "Ġkenyelelitse": 8399,
      "Ġhlabang": 8400,
      "ĠRamaka": 8401,
      "Ġhlahlojoe": 8402,
      "ĠTente": 8403,
      "Ġiphetela": 8404,
      "ĠMpharane": 8405,
      "Ġphatlalalitsoe": 8406,
      "Ġphepong": 8407,
      "ĠRefiloe": 8408,
      "Ġtlalehe": 8409,
      "Ġliema": 8410,
      "Ġlakalitse": 8411,
      "Ġmoamani": 8412,
      "ĠNaughty": 8413,
      "Ġ62": 8414,
      "Ġ72": 8415,
      "Ġmalimabe": 8416,
      "Ġngotse": 8417,
      "balala": 8418,
      "Ġlefeela": 8419,
      "Ġpotlakisa": 8420,
      "Ġ150": 8421,
      "Ġlahleheloang": 8422,
      "Ġemeloa": 8423,
      "Ġipopa": 8424,
      "Ġipolaea": 8425,
      "Ġbolokehe": 8426,
      "Ġmathoko": 8427,
      "Ġbokelle": 8428,
      "Ġbokelletse": 8429,
      "DCEO": 8430,
      "Ġikamo": 8431,
      "Ġhlokahalla": 8432,
      "ĠNtÅ¡ekhe": 8433,
      "Ġhema": 8434,
      "ĠtÅ¡ohloa": 8435,
      "Ġtobokelitseng": 8436,
      "Ġbaruti": 8437,
      "COSAFA": 8438,
      "Ġlifato": 8439,
      "Ġkeketseho": 8440,
      "ĠThesele": 8441,
      "Ġlumelloang": 8442,
      "Ġsekepele": 8443,
      "ĠntÅ¡etsapele": 8444,
      "Ġbohaleng": 8445,
      "Ġmapaki": 8446,
      "Ġlithapo": 8447,
      "Ġlithapelo": 8448,
      "ĠMotene": 8449,
      "ĠMotete": 8450,
      "Ġrarolloa": 8451,
      "Ġliboko": 8452,
      "tÅ¡oanelo": 8453,
      "ĠHlomelang": 8454,
      "Ġtlalehoang": 8455,
      "Rama": 8456,
      "Ġbalebeli": 8457,
      "Ġnolofalloa": 8458,
      "mber": 8459,
      "Ġlihoreng": 8460,
      "Ġitheke": 8461,
      "Ġ1994": 8462,
      "ĠFoso": 8463,
      "Ġphunyeletse": 8464,
      "Ġlipilisi": 8465,
      "Ġhatella": 8466,
      "Ġkhirong": 8467,
      "ĠFuneral": 8468,
      "Ġnyahama": 8469,
      "Polelo": 8470,
      "dom": 8471,
      "Khotso": 8472,
      "ramatsete": 8473,
      "ĠMosenene": 8474,
      "ĠNthane": 8475,
      "Ġlirafshoa": 8476,
      "Qosong": 8477,
      "Ġthefuleha": 8478,
      "Theko": 8479,
      "ĠMakhoali": 8480,
      "ĠlitÅ¡enyehelong": 8481,
      "Ġfokotsehe": 8482,
      "Ġboithatelo": 8483,
      "ĠNkhabu": 8484,
      "ĠJesu": 8485,
      "Ġtoting": 8486,
      "ĠtÅ¡oaroeng": 8487,
      "Ġmoketjana": 8488,
      "Ġlefifing": 8489,
      "Ġsekoele": 8490,
      "Ġsekoti": 8491,
      "ĠTlhomola": 8492,
      "ĠGomes": 8493,
      "ĠitÅ¡oarela": 8494,
      "Ġlitoropong": 8495,
      "ĠMakenete": 8496,
      "Ġshashara": 8497,
      "Ġrupeloa": 8498,
      "ĠChobokoane": 8499,
      "Ġmakhoba": 8500,
      "Ġnyakalletse": 8501,
      "Ġesere": 8502,
      "ĠSouru": 8503,
      "Ġmatamo": 8504,
      "Ġsusumelitsoe": 8505,
      "Ġsusumelitseng": 8506,
      "Ġsebelelitseng": 8507,
      "round": 8508,
      "ĠWilli": 8509,
      "Ġkhekhethane": 8510,
      "Ġkhahlametsoa": 8511,
      "ĠLesutu": 8512,
      "ĠNtÅ¡onyana": 8513,
      "ĠScott": 8514,
      "Ġitoanela": 8515,
      "Seboka": 8516,
      "Moruti": 8517,
      "Ġparafini": 8518,
      "lomethara": 8519,
      "ĠPaballo": 8520,
      "ĠJonase": 8521,
      "ĠRalikonelo": 8522,
      "Ġletoto": 8523,
      "Ġlefofo": 8524,
      "Ġbothateng": 8525,
      "ĠMkhwanazi": 8526,
      "ĠBongani": 8527,
      "ĠCommissioner": 8528,
      "GCSE": 8529,
      "itumetse": 8530,
      "ĠRafoneke": 8531,
      "..": 8532,
      "CL": 8533,
      "No": 8534,
      "Nkhono": 8535,
      "Puso": 8536,
      "Qeto": 8537,
      "SF": 8538,
      "dro": 8539,
      "gy": 8540,
      "gue": 8541,
      "jele": 8542,
      "od": 8543,
      "otho": 8544,
      "olang": 8545,
      "sca": 8546,
      "ui": 8547,
      "wela": 8548,
      "zola": 8549,
      "Ã©": 8550,
      "Ġchochi": 8551,
      "lani": 8552,
      "Ġetseng": 8553,
      "hana": 8554,
      "lipa": 8555,
      "lisitse": 8556,
      "lovu": 8557,
      "Ġletsete": 8558,
      "ĠletÅ¡eare": 8559,
      "Ġbatsi": 8560,
      "Ġbanya": 8561,
      "Ġbatli": 8562,
      "Ġbatleng": 8563,
      "Ġbatsoetse": 8564,
      "retsoe": 8565,
      "reen": 8566,
      "Ġsebu": 8567,
      "Ġlivo": 8568,
      "Ġlitlama": 8569,
      "Ġlitsu": 8570,
      "Ġlimatlafatsi": 8571,
      "oai": 8572,
      "Ġbokoetlisi": 8573,
      "Ġbotsana": 8574,
      "Ġbonono": 8575,
      "Ġbopiloe": 8576,
      "Ġajoa": 8577,
      "Ġafe": 8578,
      "Ġmobe": 8579,
      "Ġmoena": 8580,
      "Ġmoqo": 8581,
      "Ġoli": 8582,
      "belli": 8583,
      "kakaretso": 8584,
      "Ġhapiloeng": 8585,
      "tsosa": 8586,
      "Ġrekoang": 8587,
      "Ġmarotholi": 8588,
      "Ġmaqu": 8589,
      "Ġmaselese": 8590,
      "Ġfolo": 8591,
      "molao": 8592,
      "mosong": 8593,
      "tary": 8594,
      "tetse": 8595,
      "maselese": 8596,
      "hlompho": 8597,
      "Ġlabo": 8598,
      "Ġlapileng": 8599,
      "Ġlapisa": 8600,
      "ĠMocha": 8601,
      "ĠMosali": 8602,
      "ĠMotsie": 8603,
      "ĠMolumo": 8604,
      "ĠMotiki": 8605,
      "ĠMokhele": 8606,
      "ĠMosoeu": 8607,
      "ĠMotÅ¡oene": 8608,
      "Ġntsi": 8609,
      "Ġime": 8610,
      "Ġtlamaha": 8611,
      "Ġmetha": 8612,
      "Ġmeleng": 8613,
      "Ġmeriting": 8614,
      "Ġhlama": 8615,
      "Ġhlakola": 8616,
      "ĠLetÅ¡": 8617,
      "ĠLesi": 8618,
      "ĠLeche": 8619,
      "ĠMatse": 8620,
      "ĠMahali": 8621,
      "ĠMapho": 8622,
      "ĠMaqa": 8623,
      "ĠManda": 8624,
      "ĠMatÅ¡eliso": 8625,
      "ĠMautloela": 8626,
      "ĠMakoto": 8627,
      "ĠBela": 8628,
      "Ġfelisoa": 8629,
      "Sebaka": 8630,
      "ĠTea": 8631,
      "ĠThoa": 8632,
      "ĠTlela": 8633,
      "Mosotho": 8634,
      "Mohlankana": 8635,
      "Monga": 8636,
      "Ġbeo": 8637,
      "Ġhlophe": 8638,
      "Ġhlokoa": 8639,
      "Ġhloloang": 8640,
      "Ġsebelelitse": 8641,
      "Ġsebeletsoa": 8642,
      "Ġpheletso": 8643,
      "Ġlotho": 8644,
      "Ġtere": 8645,
      "ĠtÅ¡ehali": 8646,
      "ĠtÅ¡eloa": 8647,
      "thehong": 8648,
      "Ġkollang": 8649,
      "Ġkhoro": 8650,
      "Ġkholisa": 8651,
      "Ġfalime": 8652,
      "ĠLintle": 8653,
      "Ġkhatiso": 8654,
      "Ġkhahloe": 8655,
      "ĠArea": 8656,
      "ĠAction": 8657,
      "Ġboikha": 8658,
      "ĠKh": 8659,
      "ĠKu": 8660,
      "Ġthabeng": 8661,
      "Ġthapelong": 8662,
      "ĠNtse": 8663,
      "ĠNti": 8664,
      "billione": 8665,
      "Ġthekisong": 8666,
      "elane": 8667,
      "Matona": 8668,
      "MantÅ¡ebo": 8669,
      "Ġbuele": 8670,
      "Ġbuuoe": 8671,
      "ĠBobolu": 8672,
      "Bang": 8673,
      "Ġtlisitse": 8674,
      "Ġrobe": 8675,
      "Ġlumelloe": 8676,
      "ĠtÅ¡oanela": 8677,
      "ĠtÅ¡oantÅ¡iso": 8678,
      "Lin": 8679,
      "Lika": 8680,
      "ĠHasha": 8681,
      "fikeng": 8682,
      "Ġlibankeng": 8683,
      "pusi": 8684,
      "putsoa": 8685,
      "ĠMaseterata": 8686,
      "Ġenta": 8687,
      "Ġmoralong": 8688,
      "ĠtÅ¡ehetsong": 8689,
      "Ġbapaloang": 8690,
      "Ġshebele": 8691,
      "Ġntlafatsang": 8692,
      "bunyane": 8693,
      "ĠIsa": 8694,
      "Ġthole": 8695,
      "Ġthota": 8696,
      "ĠlipontÅ¡o": 8697,
      "Ġ300": 8698,
      "Ġruile": 8699,
      "Ġlikopanong": 8700,
      "Bosholu": 8701,
      "Ġkhothatso": 8702,
      "hetseke": 8703,
      "Ġetsetsoang": 8704,
      "ĠFor": 8705,
      "Ġkoetla": 8706,
      "Ġkoetlisi": 8707,
      "ĠPhakisi": 8708,
      "Ġipata": 8709,
      "Ġeletsoa": 8710,
      "oton": 8711,
      "ĠGer": 8712,
      "ĠGround": 8713,
      "Ġlikhafa": 8714,
      "noane": 8715,
      "Ġtumme": 8716,
      "Ġtummeng": 8717,
      "qeo": 8718,
      "qeko": 8719,
      "qeqeko": 8720,
      "Ġbolaoang": 8721,
      "Ġ400": 8722,
      "Ġlikaro": 8723,
      "hoebe": 8724,
      "Ġkoalletsoe": 8725,
      "Ġmatlafatse": 8726,
      "Ġ54": 8727,
      "Ġhlahellang": 8728,
      "tjana": 8729,
      "Ġeteletse": 8730,
      "Ġpete": 8731,
      "Ġhopotse": 8732,
      "Ġhopolang": 8733,
      "ĠMoeketse": 8734,
      "ĠTakali": 8735,
      "ĠPhusumane": 8736,
      "Ġnoele": 8737,
      "Ġnonyetsa": 8738,
      "Ġfetise": 8739,
      "Ġithutang": 8740,
      "Ġnketse": 8741,
      "ĠMohales": 8742,
      "Ġkaholim": 8743,
      "sheli": 8744,
      "Ġatameloa": 8745,
      "Ġkhetheloe": 8746,
      "qhee": 8747,
      "qheku": 8748,
      "Ġlinonyana": 8749,
      "Ġ01": 8750,
      "Ġ05": 8751,
      "Ġkulang": 8752,
      "ĠOMI": 8753,
      "Ġ64": 8754,
      "Ġngole": 8755,
      "Ġbolaeana": 8756,
      "Ġlokisang": 8757,
      "Ġpotlakele": 8758,
      "Ġbokamosong": 8759,
      "Ġhirile": 8760,
      "Ġeketsoe": 8761,
      "Ġkhitla": 8762,
      "ĠntÅ¡ang": 8763,
      "DCO": 8764,
      "ĠKhau": 8765,
      "Ġ800": 8766,
      "Ġtekenetse": 8767,
      "Ġpoloko": 8768,
      "Ġfeletsoe": 8769,
      "ĠfumantÅ¡oang": 8770,
      "Ġ2002": 8771,
      "Ġ2004": 8772,
      "ĠTown": 8773,
      "Ġkhothalletsang": 8774,
      "Ġikhape": 8775,
      "Ġmilone": 8776,
      "Ġmillion": 8777,
      "munye": 8778,
      "Ġkeketso": 8779,
      "Ġbehelletsoe": 8780,
      "Ġfono": 8781,
      "Ġotlang": 8782,
      "Ġsireletsehang": 8783,
      "Ġimone": 8784,
      "Ġtetemang": 8785,
      "Ġikholisa": 8786,
      "Ġikakhele": 8787,
      "Ġnkoang": 8788,
      "Ġphunyelletse": 8789,
      "ĠtÅ¡epetsoeng": 8790,
      "oanelo": 8791,
      "Ġpharalatsa": 8792,
      "Ġmphohali": 8793,
      "Ġphethoa": 8794,
      "ĠSelia": 8795,
      "Ġ1998": 8796,
      "Ġithoka": 8797,
      "Ngoahola": 8798,
      "Thaba": 8799,
      "Thapelo": 8800,
      "ĠKoloi": 8801,
      "Ġkhefutsa": 8802,
      "ĠMosena": 8803,
      "tÅ¡ireletsi": 8804,
      "ĠTsietsi": 8805,
      "ĠtÅ¡oanelo": 8806,
      "ĠCHE": 8807,
      "Ġmehoo": 8808,
      "ĠtÅ¡epahalle": 8809,
      "Khaho": 8810,
      "Ġmasapong": 8811,
      "ĠYo": 8812,
      "Ġletsetsoa": 8813,
      "Ġbaballeha": 8814,
      "Ġkiki": 8815,
      "Ġboitebalo": 8816,
      "ĠSekhonyana": 8817,
      "ĠSekhohola": 8818,
      "Ġipusa": 8819,
      "ĠNgaka": 8820,
      "ĠtÅ¡oaetsaneng": 8821,
      "ĠTjatja": 8822,
      "Ġbelaelloang": 8823,
      "Ġhahamalla": 8824,
      "Ġtsejoang": 8825,
      "Ġnatefe": 8826,
      "ĠLisemeng": 8827,
      "kunyapane": 8828,
      "ĠMothetjoa": 8829,
      "ĠMokhalinyane": 8830,
      "ĠAmanda": 8831,
      "Ġnchafatsoa": 8832,
      "Ġemisoa": 8833,
      "Ġalositseng": 8834,
      "Ġotlolla": 8835,
      "ĠStephen": 8836,
      "Ġalafshoa": 8837,
      "ĠMoremoholo": 8838,
      "Ġikitlaetsa": 8839,
      "Moifo": 8840,
      "ĠCentre": 8841,
      "ĠCentral": 8842,
      "Ġsesepa": 8843,
      "Ġsekhobo": 8844,
      "Ġputlameng": 8845,
      "ĠLihlapiso": 8846,
      "ĠMotanyane": 8847,
      "ĠBorotho": 8848,
      "ĠBoemeli": 8849,
      "ĠTrans": 8850,
      "Ġboithuso": 8851,
      "Ġvolleyball": 8852,
      "Ġhamonate": 8853,
      "Ġlilibeng": 8854,
      "ĠBolepi": 8855,
      "Hlooho": 8856,
      "ĠServices": 8857,
      "Ġfuputsa": 8858,
      "Ġboqhetseke": 8859,
      "ĠmatÅ¡oenyeho": 8860,
      "Litabeng": 8861,
      "ĠFrancis": 8862,
      "Ġthelefishini": 8863,
      "ĠGarments": 8864,
      "Koetliso": 8865,
      "Koloi": 8866,
      "Ġbakhanni": 8867,
      "Ġliemahale": 8868,
      "Ġbanyalani": 8869,
      "Ġlivoutu": 8870,
      "Ġlitsuonyana": 8871,
      "ĠLechesa": 8872,
      "ĠMakotoko": 8873,
      "ĠThoahlane": 8874,
      "ĠHashatsi": 8875,
      "ĠTakalimane": 8876,
      "1500": 8877,
      "23": 8878,
[...]
